▁, 185069
▁the 158529
▁. 139019
▁। 137140
▁of 87350
▁to 71635
▁and 69775
s 54838
को 53797
मा 50536
▁in 47551
; 44203
▁& 43881
▁र 38027
▁a 36330
का 34583
ed 29945
ले 29439
▁is 29410
ing 28748
न 27840
▁be 25196
▁for 24121
▁छ 24022
apos 23025
लाई 22808
हरू 22687
▁: 21654
क 21449
▁- 21385
▁you 19446
स 19005
er 18769
▁will 18587
quot 18555
▁The 18312
▁that 17937
▁गर्न 17904
al 17712
y 17561
▁) 17346
▁not 17330
▁म 17174
त 16847
▁गर्नुहोस् 16680
र 16559
ल 16516
▁( 16377
म 16287
▁अ 16221
t 16215
a 15927
▁पनि 14797
▁यो 14488
▁अनि 14407
▁I 14243
▁on 14027
e 13892
बाट 13643
es 13324
व 13302
▁with 13297
▁; 13239
प 13000
ी 12940
▁it 12776
▁s 12684
▁? 12633
i 12422
- 12418
▁लागि 12274
ना 12066
▁ब 12062
▁S 12055
▁are 11960
▁c 11917
▁आ 11853
ता 11798
▁मा 11791
▁this 11765
ट 11668
ar 11604
l 11537
य 11530
o 11455
▁was 11405
ब 11379
े 11333
▁from 11193
▁have 11131
ज 11104
न् 11087
▁क 11056
it 10920
ला 10898
ै 10868
c 10839
▁M 10832
m 10826
▁by 10776
▁f 10725
ने 10649
▁he 10588
▁as 10573
रा 10560
or 10556
g 10447
▁स 10385
r 10366
an 10240
▁has 10218
▁your 10125
▁b 10039
र् 9994
ly 9917
p 9915
b 9879
▁हो 9797
▁प 9701
ह 9522
▁P 9509
ग 9491
en 9484
on 9468
n 9365
h 9327
द 9296
▁d 9271
▁h 9207
ं 9120
▁तर 9086
▁ग 9073
▁his 9026
▁न 8980
▁p 8833
▁m 8825
▁भने 8808
▁गर्ने 8769
ु 8735
. 8714
ic 8697
in 8679
▁B 8619
▁त 8616
▁भएको 8605
le 8589
ation 8560
▁ 8429
ित 8415
▁“ 8339
▁all 8306
at 8248
हरु 8166
▁वा 8150
री 8146
ा 8125
ो 8122
▁भ 8102
ड 8096
u 8087
▁C 8061
ौ 7970
ि 7939
ers 7917
▁or 7900
am 7884
▁t 7857
▁A 7851
▁l 7771
▁who 7744
िक 7650
ए 7601
▁तथा 7565
▁एक 7491
▁प्र 7442
▁/ 7436
f 7376
ँ 7347
▁थियो 7308
▁F 7247
▁them 7222
▁an 7157
▁In 7127
▁ज 7125
च 7106
या 7103
▁T 7103
▁shall 7080
▁G 7039
यो 7018
▁च 7018
▁वि 6996
▁सबै 6909
et 6906
ई 6906
d 6848
▁they 6838
▁re 6829
▁ए 6823
▁him 6796
दा 6756
▁Yahweh 6754
▁at 6717
नी 6691
ad 6645
▁थिए 6632
▁प्रयोग 6631
il 6629
▁को 6610
नु 6575
▁गरिएको 6571
ू 6544
ate 6536
नि 6519
▁छन् 6510
श 6483
▁D 6476
▁छैन 6453
▁g 6434
स् 6396
▁यस 6327
▁द 6322
▁st 6318
▁” 6317
▁एउटा 6305
् 6300
नको 6277
ाइ 6209
▁उ 6183
ur 6151
▁H 6143
▁r 6101
k 6087
▁नै 6078
▁हुन्छ 6078
▁which 6058
el 6057
▁" 6041
्य 6038
▁भयो 6035
▁का 6014
रि 6011
▁ह 6006
इ 6004
ति 5963
▁त्यो 5933
id 5926
ment 5916
▁said 5901
▁w 5884
▁सु 5837
▁their 5833
▁ती 5830
्या 5808
▁my 5779
एको 5764
▁L 5738
▁ख 5735
re 5700
वा 5687
us 5686
▁! 5684
w 5682
▁दि 5676
om 5651
ent 5572
▁फाइल 5562
ख 5546
ol 5510
▁' 5505
▁me 5502
▁R 5478
ies 5458
▁कार्य 5418
▁के 5404
भ 5384
▁also 5367
as 5336
▁been 5314
ण 5301
▁E 5294
▁नि 5226
लि 5196
v 5194
▁can 5191
▁सा 5160
▁आफ्नो 5136
▁up 5128
ion 5124
ot 5111
क् 5098
▁K 5096
▁were 5087
▁कि 5083
▁out 5081
▁मात्र 5065
ल् 5041
▁त्यस 5019
नमा 4995
ir 4937
फ 4923
ध 4891
is 4870
▁बि 4856
सँग 4838
▁गरे 4837
▁He 4828
▁This 4822
im 4818
▁% 4782
छ 4772
सा 4768
S 4767
▁n 4693
न्छ 4690
्न 4665
ेर 4661
▁but 4656
▁गरी 4629
▁कुनै 4628
ain 4618
▁प्रति 4611
▁विकास 4602
हरुको 4587
▁one 4583
▁कुरा 4570
▁गर्नु 4561
th 4548
▁श 4500
▁हुन 4500
ver 4470
ter 4466
कि 4463
▁man 4456
▁there 4451
▁मेरो 4451
ah 4449
▁चयन 4444
नेछ 4418
▁केही 4407
▁बा 4395
1 4381
▁मानिसहरू 4380
ार 4374
▁do 4367
▁ध 4367
ch 4360
▁people 4344
▁हुने 4342
est 4331
ity 4327
▁1 4306
▁J 4306
हरूको 4302
▁१ 4302
लो 4296
उ 4270
2 4237
▁फ 4221
▁God 4192
ive 4180
▁file 4171
0 4150
एका 4142
की 4134
ure 4109
ती 4067
हरूले 4058
st 4043
ist 4041
▁v 4020
▁सि 4020
▁N 4016
▁सं 4007
▁व 3991
▁we 3976
ag 3960
▁2 3952
ay 3949
▁यदि 3941
पा 3939
▁गरेको 3927
ap 3916
▁W 3915
▁य 3915
▁धेरै 3908
ab 3900
ाल 3900
ce 3896
▁तिनीहरूले 3862
म् 3847
▁It 3841
रमा 3834
se 3818
▁no 3818
▁e 3817
सम्म 3812
ाउ 3796
▁तिनीहरू 3780
हरूलाई 3778
▁मैले 3776
ak 3775
▁परि 3770
▁घ 3766
हा 3765
age 3759
ली 3756
▁You 3753
▁काम 3738
he 3718
मी 3715
ut 3714
P 3713
▁इ 3711
▁O 3704
▁हुनेछ 3704
▁जा 3697
ाँ 3694
▁when 3694
▁यी 3676
▁un 3659
ast 3654
▁पा 3645
क्ष 3636
▁गर्दा 3631
ance 3617
▁ड 3616
ra 3601
ौं 3587
त् 3582
able 3570
ated 3548
वि 3547
ry 3546
▁कार्यक्रम 3546
ant 3538
▁२ 3527
▁मलाई 3519
▁se 3514
▁भए 3512
▁लि 3507
▁ex 3503
I 3500
ri 3495
▁लग 3491
▁जो 3487
▁tr 3476
▁निम्ति 3470
and 3466
रे 3463
▁should 3456
▁ना 3454
ेको 3442
▁हे 3438
▁had 3425
स्त 3424
▁तपाईँले 3414
▁रूपमा 3411
▁other 3396
▁योजना 3396
▁ट 3392
▁development 3386
के 3381
डा 3381
ary 3362
▁if 3360
▁made 3332
▁its 3317
▁परमप्रभु 3296
▁वर्ष 3292
un 3290
▁more 3287
ac 3286
▁दिन 3286
जा 3284
um 3270
ऊ 3267
▁बढ 3267
ig 3263
▁गरि 3255
▁राजा 3255
▁देख 3253
न्न 3235
ङ्ग 3230
os 3229
one 3228
▁बना 3227
▁गर्दछ 3216
▁नयाँ 3193
एर 3181
3 3178
ष 3178
कार 3169
T 3167
5 3163
▁ch 3159
▁sp 3158
टी 3151
नका 3150
्र 3148
▁हु 3144
▁But 3138
▁into 3113
सि 3107
न्त 3087
▁खा 3068
ical 3064
▁नाम 3064
ीहरू 3057
▁हामी 3053
ight 3035
छन् 3030
em 3025
सित 2997
ine 2995
रको 2992
▁४ 2978
▁time 2974
ाउन 2971
▁U 2970
ान 2967
ul 2963
j 2959
4 2954
ill 2951
7 2940
▁व्यवस्था 2939
pl 2938
▁only 2933
▁cont 2930
ारी 2929
▁so 2926
▁जब 2926
ations 2921
ard 2915
ही 2901
▁ल 2901
▁If 2900
हरूमा 2898
▁३ 2892
▁क्षेत्र 2890
▁पु 2880
C 2874
▁land 2870
D 2869
्ने 2861
▁new 2852
▁k 2851
ct 2850
▁king 2849
▁झ 2849
▁V 2847
रो 2835
▁For 2818
ice 2810
A 2805
op 2802
▁name 2797
▁मानिस 2788
गत 2785
▁तिमी 2780
ip 2779
रू 2776
6 2762
▁तब 2756
▁ro 2742
▁अन्य 2742
▁cl 2731
▁per 2730
पछि 2723
▁sc 2714
O 2713
ve 2713
▁set 2711
▁रह 2711
▁sh 2706
▁देखि 2702
मि 2697
▁like 2696
हि 2694
ness 2690
ण्ड 2684
ide 2672
▁कु 2669
z 2668
दै 2655
▁her 2649
▁us 2648
मान 2644
▁go 2640
▁आवश्यक 2639
amp 2636
▁after 2635
▁over 2633
▁रा 2628
्यो 2620
▁any 2620
▁भन्ने 2613
▁समय 2609
▁house 2607
▁सेवा 2607
० 2606
ep 2604
ro 2603
▁रु 2603
▁Ch 2598
▁सम् 2595
थ 2590
▁रो 2590
▁Israel 2588
▁अनु 2587
▁बढी 2587
प्र 2586
▁मानिसहरूले 2580
घ 2572
▁५ 2571
x 2570
▁these 2567
our 2561
टि 2548
▁3 2547
ions 2544
▁स् 2540
▁शहर 2536
दि 2535
ेल 2535
▁` 2535
▁तिमीहरू 2535
डि 2530
▁hand 2522
▁लाग 2522
नो 2517
▁work 2516
▁may 2515
डी 2514
▁before 2508
धि 2498
सी 2492
प् 2491
▁त्यहाँ 2484
ings 2480
▁परमप्रभुले 2478
R 2475
▁day 2466
ue 2465
▁वस्तु 2459
red 2452
▁ल्या 2452
▁al 2451
▁तिनीहरूलाई 2447
▁use 2439
ष्ट 2436
ish 2433
av 2432
रण 2432
ठ 2429
ाउने 2426
M 2421
▁children 2420
▁भएका 2417
नले 2410
द्ध 2405
▁even 2404
▁about 2381
▁पर्छ 2375
ans 2374
▁परमेश्वर 2372
▁en 2370
▁गर् 2363
▁मानिसहरूलाई 2361
▁पर् 2355
are 2351
▁या 2350
▁Nepal 2342
▁मान 2339
▁सिर्जना 2338
टो 2336
▁से 2335
▁पार् 2332
▁शि 2328
▁निर् 2325
▁They 2323
▁छु 2322
▁rem 2319
▁स्व 2318
▁Plan 2317
७ 2313
टा 2311
ess 2310
्रा 2310
▁राख 2310
खा 2309
▁ले 2309
▁मि 2307
ments 2306
▁than 2305
iv 2299
▁make 2298
उन 2295
ning 2292
्व 2292
▁उप 2291
▁पुन 2287
ङ 2286
द्वारा 2286
ob 2283
L 2278
▁son 2278
बा 2272
न्ड 2271
▁निर्माण 2268
▁हि 2268
्रे 2262
▁qu 2261
ise 2260
ord 2258
ved 2257
उनु 2253
ङ्क 2253
णा 2248
▁चि 2247
▁गरिनेछ 2246
▁सकेन 2242
▁रहेको 2241
▁year 2238
ite 2237
▁j 2234
▁आफ्ना 2232
शा 2226
३ 2226
▁लेख 2224
ace 2223
दो 2221
8 2219
नेछन् 2219
▁सन्देश 2219
▁5 2214
▁प्राप्त 2214
▁त्रुटि 2212
▁यसको 2203
▁under 2202
ore 2200
ः 2199
हरुलाई 2199
▁4 2195
अ 2193
▁परिवर्तन 2186
ple 2181
▁कुञ्जी 2181
▁प्रत्येक 2178
N 2176
ame 2173
ath 2170
▁th 2168
था 2167
▁two 2164
उने 2161
ग् 2161
दैन 2159
▁परमेश्वरले 2155
▁because 2154
▁जस्तै 2153
▁some 2150
२ 2149
नुहोस् 2145
▁गु 2145
▁come 2140
▁Sh 2138
▁part 2135
▁छोरा 2134
ow 2132
E 2130
▁जसले 2127
all 2126
मे 2126
▁As 2125
▁मु 2123
te 2121
▁key 2121
कै 2120
▁बचत 2117
▁समा 2117
▁हा 2116
nd 2115
ढ 2115
9 2109
▁बो 2106
▁used 2105
४ 2101
देखि 2093
▁सेट 2090
▁des 2088
ताको 2087
▁हुन् 2087
▁छवि 2082
od 2079
न्द 2078
▁le 2077
▁list 2076
आ 2071
▁सम 2068
▁came 2067
▁country 2067
oc 2066
जन 2065
▁विभिन्न 2060
▁गर्छ 2059
▁years 2058
▁dis 2048
हरुमा 2043
▁our 2043
▁St 2041
▁तपाईँ 2040
les 2038
ust 2037
▁भाग 2037
▁does 2035
▁गर्दै 2035
ud 2034
८ 2034
ia 2033
▁There 2031
ens 2029
सो 2028
▁she 2025
▁against 2023
ail 2019
ory 2019
▁ला 2017
ack 2016
qu 2015
B 2014
art 2014
▁सक्छ 2014
ang 2009
▁पाठ 2009
ru 2001
▁government 2000
ge 1994
ock 1990
६ 1983
▁तिमीहरूले 1983
दछ 1981
रु 1980
▁गरेर 1977
भन्दा 1976
▁want 1974
▁those 1968
ction 1967
▁राज 1967
▁जुन 1961
▁percent 1960
▁period 1959
ose 1955
up 1952
जी 1949
▁विशेष 1949
ou 1943
▁such 1942
▁नग 1939
her 1935
▁छा 1935
▁होइन 1933
▁उपलब्ध 1932
00 1931
▁down 1927
▁सो 1927
ents 1923
गा 1921
▁सूची 1921
ach 1920
▁exp 1920
▁भन्दा 1917
▁संस्था 1916
▁सह 1915
सु 1914
ost 1913
▁de 1913
झ 1909
▁उहाँले 1907
▁fe 1906
▁तपाईँको 1906
▁हुनु 1905
ind 1904
ie 1903
ंग 1900
त्र 1896
▁पि 1895
▁अस 1893
▁६ 1892
क्स 1889
▁first 1886
ास 1885
ile 1878
▁आर्थिक 1878
▁उत्पादन 1878
▁सञ्चालन 1877
▁अर्को 1876
▁दा 1876
res 1875
▁खो 1875
▁through 1874
▁जन 1874
▁system 1873
▁plan 1872
देश 1869
▁देश 1867
▁गा 1865
ृ 1861
▁men 1859
▁sector 1857
▁कम 1856
ell 1855
▁off 1852
▁त्यसपछि 1850
▁प्रतिशत 1849
टर 1847
▁रङ 1847
G 1846
▁number 1843
माथि 1841
▁गरा 1838
ual 1834
चार 1831
ाउनु 1831
▁8 1823
न्ट 1812
मको 1811
ial 1809
▁found 1809
कु 1808
ous 1806
▁... 1803
▁co 1802
ेश 1795
▁Could 1795
▁अब 1794
दी 1792
कको 1791
करण 1790
▁every 1789
▁सक् 1784
▁उसले 1783
▁अहिले 1781
if 1779
१ 1779
ire 1778
▁प्रा 1778
▁प्रकार 1776
iz 1775
▁ता 1775
ाउँ 1774
▁’ 1771
ong 1769
लमा 1769
▁ar 1768
▁किनभने 1768
▁पानी 1768
▁माथि 1763
▁गरेका 1760
उँ 1755
ful 1754
▁pro 1754
pe 1753
▁रुपमा 1749
▁pre 1744
▁comp 1741
५ 1740
सको 1735
न्छन् 1734
gr 1732
▁given 1732
▁When 1729
▁व्यक्ति 1728
रहेको 1725
▁क्षेत्रमा 1723
▁आयोजना 1720
▁समूह 1720
▁selected 1716
og 1715
▁सञ्झ्याल 1715
▁pl 1713
▁मह 1713
▁same 1712
ick 1711
▁water 1711
▁यसलाई 1711
▁ति 1709
pt 1708
वी 1706
मो 1704
▁दु 1702
▁su 1701
चा 1699
्रो 1698
ered 1694
▁पुग 1694
▁बे 1693
▁खु 1692
ort 1690
▁पछि 1690
ai 1689
९ 1686
▁यहाँ 1685
ert 1684
क्त 1683
▁then 1682
जि 1681
नेछु 1680
▁‘ 1680
▁window 1677
▁सुरु 1673
स्था 1671
▁know 1669
धा 1666
▁att 1666
ating 1665
▁6 1664
▁जि 1662
▁many 1658
हरूका 1655
▁Re 1655
▁अभि 1646
▁गर 1646
▁शक्ति 1645
ff 1644
▁says 1641
ुल 1639
तिर 1637
▁went 1637
▁ठूलो 1635
▁अर् 1631
▁स्थापना 1631
▁dec 1630
▁ओ 1629
▁मो 1629
ative 1626
ood 1626
▁way 1622
▁पो 1618
▁७ 1616
र्ड 1615
nt 1614
▁मे 1612
▁गो 1611
ेका 1607
ub 1606
▁भन्नुभयो 1606
▁पर्ने 1605
▁यस्तो 1601
▁तिमीहरूलाई 1599
ors 1595
▁भूमि 1595
लको 1594
ars 1593
र्थ 1593
▁br 1586
▁did 1586
▁अघि 1585
▁would 1582
hes 1581
▁could 1580
▁अव 1580
ix 1577
▁कारण 1577
▁किन 1577
ेट 1576
▁ad 1575
▁तपाईं 1575
कमा 1574
▁घर 1573
त्मक 1570
ाली 1570
▁सी 1570
▁con 1569
▁fl 1567
▁gr 1567
ke 1566
नै 1564
ामा 1561
F 1557
▁बन्द 1557
▁Select 1556
▁परमप्रभुको 1556
ज् 1555
▁रू 1555
हरुले 1554
▁साथै 1550
▁No 1549
▁million 1549
▁level 1548
ious 1546
▁let 1543
ीय 1542
ient 1541
▁तिमीले 1540
▁येशू 1540
▁स्थिति 1539
से 1538
▁परमेश्वरको 1538
▁image 1536
▁उहाँ 1536
▁गरिने 1534
▁end 1533
▁कृषि 1533
▁हुनुहुन्छ 1532
▁Al 1531
▁दिनु 1529
तमा 1527
▁am 1526
▁तिनी 1525
▁८ 1522
its 1520
▁place 1520
ates 1517
ence 1517
ारा 1516
▁जे 1516
क्षा 1515
▁ठ 1515
▁during 1514
▁great 1514
▁फेरि 1512
▁get 1511
▁चाह 1511
ons 1510
▁शिक्षा 1509
▁विश्वास 1507
▁सम्म 1507
▁sub 1506
▁तिम्रो 1504
▁पत्र 1504
थे 1503
▁भो 1503
▁9 1502
▁now 1501
▁cor 1499
▁take 1499
र्य 1498
▁X 1497
▁ag 1496
▁उनी 1495
row 1494
▁पठ 1494
▁current 1491
▁ent 1490
ph 1488
▁things 1487
ंश 1486
▁right 1484
म्ब 1483
▁गरिएका 1483
▁em 1482
▁फोल्डर 1480
▁यसले 1478
संग 1477
ट्ट 1476
छु 1471
▁Se 1468
द् 1467
▁saying 1466
र्म 1465
ted 1461
नलाई 1461
▁open 1461
▁ढ 1460
ign 1458
न्य 1457
▁what 1456
▁अरू 1454
▁sa 1453
▁o 1451
▁नेपाल 1447
ute 1446
वाद 1445
▁where 1443
ures 1442
व्य 1441
▁फि 1441
▁good 1440
▁7 1435
▁भा 1433
rib 1431
▁बता 1430
▁प्रणाली 1427
▁हाम्रो 1427
▁So 1426
पन 1425
▁Pro 1425
पि 1421
▁दिए 1421
▁program 1420
▁wh 1418
▁ind 1417
▁उनले 1417
▁read 1416
▁text 1416
ाट 1415
▁राम्रो 1415
रह 1414
act 1412
▁असफल 1412
▁श्री 1412
ass 1410
क्षण 1410
▁दुई 1410
▁Th 1409
▁object 1405
▁कुल 1404
▁days 1403
▁see 1402
▁own 1401
ेत 1399
▁0 1399
▁बाँ 1398
ains 1397
▁back 1397
▁An 1396
port 1391
▁आदेश 1389
ines 1388
▁केडीई 1387
पी 1384
र्ने 1384
समा 1382
▁Ex 1381
▁प्रयास 1379
▁९ 1379
▁वै 1378
ress 1376
▁bl 1376
▁te 1376
▁डि 1375
▁समस्या 1375
▁हाल 1374
▁high 1373
मित 1371
, 1367
▁form 1366
▁Ph 1365
▁चु 1363
▁increase 1362
एल 1361
▁जिल्ला 1361
▁इस्राएलका 1360
▁ne 1357
▁very 1356
▁जाँच 1356
ices 1355
▁सर्व 1354
ale 1353
ition 1353
तर्फ 1351
▁बु 1350
▁मेरा 1350
ax 1349
▁Z 1349
ave 1348
▁stud 1348
▁rel 1346
▁नीति 1345
र्ष 1344
▁कुराहरू 1344
▁ने 1344
▁अनुमति 1342
▁ab 1341
▁res 1341
▁show 1341
▁पहि 1338
ok 1337
▁Y 1333
▁उनीहरू 1333
ेस 1332
▁होस् 1331
▁सक्नुहुन्छ 1330
▁कृपया 1326
ough 1325
ts 1325
▁\ 1325
ied 1324
▁फेला 1324
▁बाल 1324
▁बेला 1324
out 1322
▁साथ 1319
▁अप 1318
▁उसको 1318
▁जस्तो 1317
ari 1316
old 1316
नीहरू 1315
▁according 1315
भा 1314
▁organ 1314
▁लगानी 1313
ific 1312
▁pr 1312
ization 1310
ase 1307
▁स्थानीय 1305
्रि 1304
▁गए 1304
▁disc 1303
▁प्रयोगकर्ता 1303
▁ap 1302
ters 1300
▁available 1300
▁जना 1298
ज्ञा 1296
▁cent 1296
्नुहोस् 1294
निक 1293
▁यसकारण 1293
gt 1291
र्न 1289
▁To 1288
▁father 1288
▁while 1288
ify 1287
▁मूल्य 1287
ash 1285
यौ 1284
▁Pr 1284
▁तिनीहरूको 1283
▁Then 1282
▁rec 1281
▁सक्षम 1281
▁लक्ष्य 1279
▁विकल्प 1279
ving 1278
▁folder 1278
▁Please 1276
▁घट 1276
▁command 1274
▁परिवार 1274
▁तिमीलाई 1273
▁भन् 1272
▁col 1270
▁बृद्धि 1269
▁स्थान 1269
▁between 1268
▁wr 1268
ty 1266
▁head 1266
▁उठ 1265
▁need 1260
नुभयो 1255
▁Un 1255
▁local 1255
▁गरियो 1254
ces 1253
▁स्ट 1253
▁ऊ 1251
form 1250
ctor 1249
▁इस्राएल 1247
हो 1246
▁away 1246
ict 1244
ष् 1243
ैं 1243
▁heart 1243
▁चौ 1243
▁Now 1241
▁पाइ 1241
▁पाप 1240
ब् 1239
▁different 1239
tern 1238
▁वृद्धि 1237
ote 1236
▁files 1236
▁शा 1234
▁मुख्य 1233
जना 1232
▁19 1232
ेद 1231
ake 1230
ared 1230
ित् 1230
▁Do 1230
▁उद्योग 1229
▁प्रदर्शन 1229
▁Ar 1225
ange 1221
▁De 1221
▁अवधिमा 1221
▁पूरा 1220
▁पहिले 1219
मका 1218
▁केन्द्र 1218
▁१९ 1217
▁inc 1215
▁view 1215
ect 1214
▁being 1214
▁give 1214
▁खाली 1213
▁बच 1211
ome 1209
▁project 1208
▁production 1207
नामा 1206
रहेका 1205
▁public 1204
▁three 1204
▁त्यही 1204
▁विस्तार 1204
▁सरकारी 1204
arm 1202
▁अर्थ 1202
सले 1201
ets 1200
▁start 1199
▁हुँदैन 1199
▁हालको 1198
▁पवित्र 1196
▁२० 1196
ेक 1194
ven 1193
min 1192
त्या 1192
भित्र 1192
मै 1192
▁थप 1191
▁देखिन्छ 1190
ages 1189
air 1188
ian 1188
▁don 1188
र्नुहोस् 1187
०० 1187
▁आदि 1187
U 1186
ject 1186
उनुहोस् 1185
▁तह 1185
ck 1184
▁Am 1184
▁यु 1184
श् 1183
ाउनुहोस् 1183
▁put 1183
▁लगा 1183
led 1179
▁पर्दछ 1177
▁= 1176
▁Lord 1175
▁नाउँ 1175
थि 1174
याह 1174
igh 1171
▁field 1171
वार 1170
▁टे 1169
▁def 1167
▁health 1167
▁life 1166
▁तपाईंले 1166
▁कर् 1165
▁Con 1164
ced 1163
▁रोग 1163
ल्ला 1162
▁On 1162
ized 1161
▁among 1161
▁बजार 1160
▁Therefore 1158
▁again 1158
▁निर्दिष्ट 1157
ting 1156
नाको 1154
▁order 1154
▁आएको 1154
▁min 1153
▁David 1152
▁Rs 1152
▁long 1152
▁हात 1152
पर् 1150
▁mod 1149
low 1148
▁भनेर 1148
न्ध 1147
▁आइ 1147
ूल 1144
▁सहयोग 1144
▁हामीले 1144
हे 1143
अनुसार 1141
▁help 1141
▁how 1140
▁well 1140
र्या 1139
▁$ 1139
ible 1137
पो 1136
ैन 1136
▁20 1136
▁भनि 1136
▁क्या 1135
ond 1134
▁another 1133
▁Ab 1132
▁information 1132
▁support 1132
▁पुर्या 1131
els 1130
लागि 1130
्नु 1130
वटा 1129
▁गि 1129
चि 1128
▁जडान 1128
▁बाटो 1128
▁व्यापार 1128
ather 1127
▁color 1127
▁earth 1127
▁विश्व 1127
ib 1126
▁Error 1126
▁say 1124
▁# 1122
▁brought 1121
▁महि 1121
▁स्रोत 1120
उँछ 1118
▁car 1118
▁क्लिक 1118
▁जीवन 1117
ited 1115
▁must 1115
ममा 1113
▁city 1113
ove 1112
▁world 1112
▁तपाईंको 1112
▁तयार 1112
ook 1111
xt 1111
रले 1111
ीहरूले 1111
▁खर्च 1111
▁called 1110
▁sons 1110
▁sur 1110
▁चाहनुहुन्छ 1110
सक् 1109
▁पार 1109
▁हामीलाई 1109
▁here 1107
▁यसर्थ 1107
ank 1105
योग 1104
▁trans 1104
▁कार्यान्वयन 1104
▁नेपाली 1104
▁पूर्वनिर्धारित 1104
ear 1103
▁display 1103
▁process 1103
▁थ 1103
▁स्था 1102
▁उपयोग 1100
▁left 1099
कर्ता 1098
▁करोड 1098
▁तीन 1098
▁हुँ 1098
▁तल 1097
▁bel 1096
▁nor 1096
▁फर् 1096
ime 1092
orn 1092
▁food 1091
नाले 1090
▁reg 1090
▁क्रम 1090
ally 1089
▁type 1089
यत 1088
▁स्वास्थ्य 1088
ities 1087
▁gl 1087
▁sign 1087
▁सूचना 1087
शि 1086
▁आफू 1086
हर 1085
▁sent 1082
▁उच्च 1082
▁चा 1082
az 1081
▁Tr 1081
▁समयमा 1081
ites 1080
▁बाहिर 1080
▁उसलाई 1079
▁सुधार 1079
oth 1078
एन 1078
▁power 1078
▁run 1077
▁अन्त 1077
▁All 1075
ber 1074
ric 1073
▁po 1072
▁techn 1071
ward 1070
▁bu 1069
▁औ 1069
ater 1068
▁month 1066
▁server 1065
▁शब्द 1065
कले 1063
्री 1062
▁सकिँदैन 1062
iew 1059
▁* 1059
▁We 1059
▁पिता 1059
▁bring 1058
▁अथवा 1058
▁दिइ 1058
वल 1055
▁Set 1055
▁बस् 1055
▁दिने 1053
पु 1052
▁At 1052
▁inv 1052
▁पढ 1052
▁यसरी 1052
कहरू 1048
▁After 1048
▁स्वा 1048
▁Go 1046
▁projects 1045
▁अधि 1045
▁मौ 1044
ives 1043
कहाँ 1043
▁del 1043
▁भनी 1043
र्ग 1042
▁value 1042
▁four 1041
▁old 1041
▁Im 1040
▁dev 1040
▁थिएन 1040
aj 1039
इन 1039
▁rest 1039
▁Man 1038
▁मानिसले 1038
ried 1036
णी 1036
्रह 1036
▁y 1036
aw 1035
▁जीव 1035
iah 1034
कारी 1034
▁comm 1034
ark 1033
▁word 1033
ution 1032
▁necessary 1032
▁रि 1032
▁message 1030
▁नियन्त्रण 1030
▁भित्र 1030
▁सम्झ 1030
लाइ 1029
▁समेत 1029
▁सरकार 1029
▁area 1028
▁खोजी 1027
▁She 1026
▁मोशा 1026
ize 1025
्छ 1025
▁med 1025
▁पहिलो 1025
ern 1023
▁प्रविष्ट 1023
▁मन 1023
तो 1022
▁सकि 1022
▁सुविधा 1022
▁book 1021
▁ear 1021
▁lo 1020
▁छोड 1020
यी 1019
▁थि 1019
▁२०४ 1019
▁प्रभाव 1018
ision 1017
ओ 1017
▁economic 1015
रका 1014
्यान 1014
▁done 1014
io 1013
्यु 1013
▁परे 1013
▁बलि 1012
▁हर 1012
जु 1011
▁जु 1011
aph 1010
▁stand 1007
नुहु 1006
▁add 1006
▁present 1006
▁error 1002
ely 1001
▁उद्देश्य 1001
▁राज्य 1001
▁पार्न 1000
▁मोड 1000
▁सञ् 1000
▁अनुसार 999
ature 997
▁देखा 997
▁बुझ 997
▁राष्ट्र 997
per 996
▁eat 996
▁find 996
▁took 996
▁option 995
▁taken 995
▁गरिन्छ 995
▁body 994
ीत 993
म्प 991
▁look 991
▁सकिन्छ 991
▁हट 991
du 990
▁Le 990
▁inter 990
▁छौ 990
जो 989
▁अनुमान 988
▁develop 987
▁road 987
▁women 986
▁might 985
ere 984
ption 984
दान 984
▁अध्ययन 983
▁महिला 983
ङ् 982
न्छु 982
▁विषय 982
▁० 982
li 981
त्त 981
▁प्रदान 981
▁म्या 981
▁default 980
▁keep 980
▁गर्नेछ 980
▁दाऊद 980
oh 978
▁mem 978
▁thousand 977
▁मूल 977
▁महा 976
पना 975
▁परा 975
न्या 974
▁foreign 974
▁using 973
▁विश 973
भर 972
▁नभ 972
▁ter 971
क्ति 970
▁priest 970
▁ins 969
▁mat 969
▁pass 969
ism 968
नुहुन्छ 965
▁stat 964
▁पी 963
▁मिश्र 963
▁data 962
▁without 962
▁areas 961
▁group 961
get 960
स्ता 960
▁play 960
▁Use 958
▁person 958
▁प्रो 958
▁fil 957
क्रमण 956
त्व 955
▁aut 954
▁import 954
▁विषयमा 954
▁संग 954
▁Jesus 953
▁programmes 953
▁tem 953
पर्छ 952
▁आधार 952
▁lay 951
यर 949
▁चार 949
▁last 948
▁आज 948
बो 947
सकेको 947
हार 947
▁create 947
▁उत्पाद 947
dom 946
कल 946
▁ext 946
▁नो 946
▁हुन्छन् 945
▁अक्षम 944
पूर्ण 943
सार 943
▁Ind 943
▁wor 943
▁Cannot 942
ML 941
▁प्रश 940
▁योजनाको 939
▁सर्भर 939
ants 938
▁त्यसको 938
प्ति 937
हित 937
▁return 936
▁उपकरण 936
धान 935
▁हाम्रा 933
▁According 932
▁each 932
▁खे 931
▁हजार 930
▁बाट 929
oun 927
▁com 927
▁just 927
▁छि 927
▁मेट 927
▁वितरण 927
▁उत् 926
▁point 925
ञ्च 924
▁increased 923
ger 922
ower 922
धिक 922
सर 922
▁im 922
▁भेट 922
▁total 921
ames 920
▁`` 920
als 919
द्य 918
▁contin 918
▁सम्पूर्ण 918
elf 917
भाव 917
वर् 917
▁चाल 917
ually 916
▁चाँ 916
ound 915
स्थ 915
own 914
▁सम्पादन 914
▁line 913
भि 912
▁fr 912
▁mid 912
▁उहाँको 912
▁सक्ने 911
illed 910
▁198 910
ree 909
▁market 909
▁service 909
ft 908
▁services 908
▁पत् 908
▁pur 906
erv 903
▁गर्यो 903
ld 902
▁cur 902
▁enc 902
▁What 901
▁due 899
▁sin 898
▁लिएर 898
▁ed 896
▁education 896
▁Show 895
▁डेटा 895
च्छ 894
▁works 894
man 893
▁most 893
less 892
oad 892
बद्ध 892
▁cons 892
▁पूर्व 892
▁अधिकार 891
lect 890
▁already 890
▁law 890
V 889
क्र 889
बि 889
▁prin 889
▁क्ष 889
ल्ट 887
तिको 886
▁पार्नुहोस् 886
मले 885
▁भे 885
▁New 884
▁शत्रु 884
▁१० 884
रहे 883
र्ता 883
▁both 883
▁जोड 883
▁सहायता 883
vent 882
मध्ये 882
▁स्त 881
ained 880
und 880
▁aff 880
▁आवश्यकता 880
▁भएर 880
▁घो 879
▁पूर्ण 879
▁तिनीहरूका 878
▁started 877
ised 876
▁conc 876
▁अवस्थित 876
▁उत्तर 876
▁प्रशास 876
cent 875
ority 875
त्य 875
ोस् 875
▁following 875
▁कसैले 875
▁पृथ्वी 874
ध्य 872
▁छैनन् 872
rop 871
▁गर्छन् 871
▁लोड 871
▁mult 870
▁घु 870
▁ठाउँ 870
ीहरूलाई 869
▁kind 867
▁निम्न 866
▁भाइ 866
hem 865
▁move 864
▁prop 864
▁प्रमुख 864
▁भइ 864
por 863
▁acc 863
▁जहाँ 863
▁भन्नु 863
▁यि 863
▁target 862
▁यू 862
ified 861
▁निजी 861
हु 860
ren 859
ल्लो 859
▁check 859
▁India 858
▁product 858
▁tre 858
▁प्रक्रिया 858
vers 857
▁10 857
▁क्षेत्रको 857
▁चला 857
ठा 856
▁Bh 856
▁inf 856
सन 855
▁These 855
▁dire 855
eth 854
▁user 854
▁अन 854
▁मुद्रण 854
द्या 853
▁offering 853
▁पशु 853
▁येशूले 853
,000 851
स्क 851
▁थाहा 850
गि 849
▁Com 849
▁par 849
▁turn 849
▁देशको 849
iting 848
▁become 848
तको 847
थ्यो 847
ष्ठ 846
▁ob 846
दाय 845
▁ref 845
▁लाई 845
H 844
जे 844
धार 844
▁-- 844
▁सेना 844
ञ्ज 842
▁Moses 842
▁दुष्ट 842
▁bur 841
▁कम्पनी 841
▁बनाउन 841
Y 840
▁भि 840
▁मृत्यु 840
▁व्या 840
तीय 839
▁Je 839
▁सर् 839
ont 838
▁small 838
दैछ 837
▁गर्नका 837
▁control 836
▁आफ 836
▁व्य 836
oy 835
▁ph 835
▁prof 835
▁various 835
▁टि 835
▁साम 835
लु 834
▁change 834
▁liv 834
▁main 834
▁छो 834
▁तिमीहरूको 834
स्तो 833
▁Col 833
▁around 833
▁int 833
▁spe 833
▁देशमा 833
चना 832
ीको 832
▁And 832
▁तिमीहरूका 832
▁bre 830
att 828
सका 828
▁farm 828
तिक 827
तामा 826
▁Ne 826
▁gener 826
▁आयात 826
read 825
तम 825
बी 825
▁Judah 823
▁conf 823
▁region 823
▁construction 822
▁देखाउनुहोस् 822
▁lab 821
▁stru 821
▁x 821
orm 820
▁therefore 820
▁एवं 820
▁मार्ग 820
स्ट 819
▁बारेमा 819
ident 817
▁चाहि 816
▁फल 816
प्त 815
▁national 815
▁आफ्नै 815
िएको 814
▁Unable 814
anc 813
वक 813
्रम 813
▁growth 813
▁prom 813
▁until 812
▁आँ 811
▁सेटिङ 811
वन 810
डो 809
▁हुँदा 809
▁drink 808
▁पुरा 808
▁रेखा 808
▁लाख 808
▁tell 806
▁क् 806
▁बी 806
▁सात 806
ik 805
▁document 805
▁function 804
▁विचार 804
्चा 803
▁blood 803
▁हरेक 803
▁private 802
▁प्रकाश 802
▁भएमा 802
▁सम्भाव 802
न्ने 801
▁Jerusalem 801
▁resources 801
▁चीज 801
पर्ने 800
▁दिएको 800
ha 799
दर 799
सके 799
▁export 799
▁आज्ञा 799
▁prev 798
▁जाने 798
▁199 797
▁Is 797
▁रहे 797
पमा 796
▁ask 796
▁नदी 796
▁policy 795
▁save 795
▁सब 795
▁able 794
▁school 793
▁सङ्ख्या 793
▁Sc 792
▁अन्त्य 792
▁आए 792
▁इन् 792
▁गुण 792
▁ध्व 792
ther 791
▁eff 791
▁डाइरेक्टरी 791
साय 790
▁Egypt 790
▁My 790
▁didn 790
ays 789
ics 789
▁भन्नुहुन्छ 789
▁स्त्र 789
▁appro 788
▁log 788
ister 787
▁sl 786
▁खाने 786
▁संवाद 786
ished 785
▁Kathmandu 785
▁मानिसहरूको 785
▁comple 783
▁दुइ 783
▁vis 782
lection 781
vert 781
▁नष्ट 781
▁Behold 780
▁अझ 780
▁उनको 780
▁एकजना 780
▁प्रतिलिपि 780
ality 778
ex 778
ner 778
▁sec 778
▁तिनले 778
फा 777
▁चढ 777
ug 776
▁training 776
▁ख्रीष्ट 776
▁ठीक 776
▁युद्ध 776
छा 775
सम्बन्धी 775
▁pat 775
▁programme 775
▁Whether 774
▁spec 774
▁त्यसैले 774
ternal 773
▁+ 773
▁पहा 772
cted 771
K 770
▁result 770
▁sure 770
▁action 769
▁लो 769
ult 768
त्ति 767
▁mount 767
ne 766
▁much 766
▁side 766
यन 764
ृत 764
गो 763
ट्टा 763
▁मालिक 763
▁साँच 763
▁second 762
▁तरिका 762
ience 761
▁बस 761
▁योजनामा 761
ination 760
ists 760
ying 760
र्नु 760
▁rate 760
▁जी 760
नाम 759
▁situation 759
▁tw 759
▁ऋण 759
▁त्य 759
▁संख्या 759
छौ 758
▁cour 758
▁पारि 758
▁छोरो 757
▁निश्चित 757
▁words 756
▁विदेशी 756
cial 755
रिक 755
हान 755
▁Min 755
▁माग 755
टक 754
▁ass 754
▁fire 754
▁above 753
▁allow 753
ade 752
ention 752
ज्य 752
▁अन्तिम 752
▁न्याय 752
▁पर्य 752
int 751
बारे 750
▁Add 750
▁enter 750
▁त्यसलाई 750
▁सन् 750
raw 749
▁build 749
▁किसि 749
▁गएको 749
▁परियोजना 748
▁भू 748
जित 746
ल्या 746
▁whom 746
▁खेल 746
▁घटना 746
▁यसो 746
ढा 745
न्दा 745
▁Mr 745
▁wid 745
▁अधिक 745
▁रे 745
▁Thus 744
▁रहेका 744
शु 743
▁oper 743
मु 742
ैले 742
▁अति 742
ases 741
▁population 741
▁pres 741
▁दण्ड 741
▁जम्मा 740
▁धा 740
\ 739
▁employ 739
▁कति 739
aid 738
▁state 738
▁सिं 738
ief 737
irit 737
इएको 737
▁though 737
▁गर्दैन 737
▁यसै 737
टन 736
▁child 736
▁etc 736
▁exist 736
▁hundred 736
▁प् 736
▁भार 734
▁हुनेछन् 733
स्व 732
▁ज्या 732
▁थाले 732
urn 730
▁अधिकारी 730
▁sim 729
▁सोध 729
▁gu 728
▁कसरी 728
▁गति 728
▁possible 727
▁u 727
▁जति 727
▁मानिसको 727
▁सक्दैन 727
ष्टि 726
▁dele 726
▁दृश्य 726
षण 725
ारो 725
▁ser 725
▁चो 725
▁ठाउँमा 725
▁commun 724
▁saw 724
▁भई 724
▁mo 723
▁समावेश 723
iss 722
pect 722
ys 722
ेरो 722
▁पाल 722
ool 721
तिमी 721
ुर 721
▁press 721
▁विरूद्ध 721
nder 720
नौ 720
▁En 720
▁exec 720
▁उक्त 720
ेला 719
▁डा 719
50 718
▁button 718
▁पक्ष 718
▁संसार 717
▁समाप्त 717
▁sy 716
न्तरण 715
▁cannot 715
▁full 715
▁आत्मा 715
▁तालिम 715
नुभएको 714
ieve 713
डे 713
▁load 713
पत्र 712
शी 712
▁Ap 712
▁काठमाडौं 712
▁जनता 712
▁सम्बन्ध 712
र्ट 711
▁कागजात 711
▁कारणले 711
ser 710
लिक 710
▁administr 710
▁sk 710
▁ut 710
con 709
ott 709
▁बहु 709
▁Dis 708
▁अनुप्रयोग 708
▁यस्ता 708
▁Enter 707
▁rep 707
▁दिन्छ 707
▁वटा 707
▁व्यव 707
▁सानो 707
ibility 706
प्रति 706
▁सक्रिय 706
ves 705
▁खोल्न 705
▁यहो 705
▁Let 704
▁lead 704
▁neither 704
▁select 704
▁दश 704
▁पृष्ठ 704
▁साल 704
न्थ्यो 703
▁पालन 703
क्टर 702
ara 701
कालागि 701
▁special 701
▁सामान्य 700
▁investment 698
▁provide 698
▁important 697
▁असल 697
▁पू 697
ract 696
▁heard 696
▁non 696
▁संघ 696
ित्र 694
▁आउँ 694
▁मन्त्र 694
hed 693
we 693
रुप 693
▁आमा 693
▁गाउँ 693
▁जानकारी 693
▁सफल 693
▁समर्थन 691
▁छोरी 690
चाल 688
▁दो 688
▁स्तम्भ 688
▁गर्नुभयो 687
▁cap 686
▁दुवै 686
▁यसमा 686
▁सुने 686
दे 685
र्च 685
▁bro 685
▁ध्यान 685
बार 684
▁कहाँ 684
osed 683
दार 683
▁वे 683
ator 682
gan 682
▁bank 682
▁still 682
▁together 682
acy 681
▁Create 681
▁gold 681
राब 680
▁directory 680
▁सन्द 680
ined 679
ालि 679
▁फे 679
▁size 678
▁डलर 678
▁परी 677
ession 676
कर 676
नेछौ 676
▁Can 676
▁yet 676
▁टाढा 676
itor 675
▁गर्नुहुन्छ 675
कलाई 674
पर्दछ 674
▁next 674
▁short 674
▁पूजाहारी 674
▁post 672
▁कोही 672
प्ट 671
▁लागू 671
▁यही 670
▁district 669
▁जान 669
चित्र 668
▁ev 668
▁facilities 668
▁gave 668
▁जनसंख्या 668
put 667
▁ra 667
▁पठा 667
▁पर्दा 667
ense 666
▁ढाँचा 666
▁condu 665
▁light 664
▁सर 664
▁200 663
▁report 663
लन 662
▁eyes 662
▁problem 662
▁खास 662
ares 661
▁Be 661
▁dialog 661
▁print 661
डियो 660
न्नु 660
ीकरण 660
▁war 660
▁मन्दि 660
स्त्र 659
▁activities 659
▁मानिसलाई 659
ned 658
▁changes 658
▁बाँच 658
▁महत्वपूर्ण 658
▁वातावरण 658
तन 657
दिन 657
ारे 657
▁div 657
▁उपयुक्त 657
▁ठेगाना 657
▁पासवर्ड 657
▁वर्ग 657
▁instit 656
▁met 656
▁past 656
▁अनुसन्धान 656
▁उल्लेख 656
▁सरकारले 656
▁Comm 655
▁bo 655
▁top 655
aving 654
opy 654
चित 654
ीहरूको 654
▁countries 654
ral 653
न्स 653
ूर 653
▁Open 653
▁मद्दत 653
▁cr 652
▁speak 652
▁प्रमाण 652
▁सामाजिक 652
तः 651
लले 651
हरूबाट 651
ह्र 651
▁लु 651
imum 650
▁KDE 650
▁himself 650
aining 649
bers 649
ड् 649
▁specified 649
▁test 649
▁बिन्दु 649
जर 648
▁social 648
▁अवस्था 648
▁आई 648
पूर् 647
▁address 647
▁अझै 647
uth 646
बलि 646
▁भारत 646
▁सत्य 646
end 645
ret 645
▁fall 645
hen 644
साथ 644
▁Te 644
▁Your 644
▁li 644
▁बोल् 644
ript 643
▁Nepali 643
▁consum 643
alid 642
अन्तर्गत 642
▁Save 642
▁evil 642
▁increasing 642
▁झैं 642
▁मेल 642
▁लामो 642
स्थिति 641
▁14 641
▁jud 641
▁शी 641
रेको 640
▁basis 640
ich 639
▁Wh 639
▁निर्यात 639
▁सम्बन्धित 639
▁lim 638
▁विकासको 638
iqu 637
कृत 637
▁त्यस्तै 637
oose 636
चालन 636
▁खण्ड 636
▁Res 635
▁आधारमा 635
▁बटन 635
ged 634
ङ्ध 634
न्द्र 634
यु 634
▁send 634
▁sup 634
▁फर्का 634
एँ 633
कामा 633
▁Sy 633
▁१५ 633
पे 632
▁op 632
▁नियम 632
▁साइज 632
गम 631
▁exam 631
▁toward 631
▁within 631
नन् 630
य् 630
▁password 630
▁ज्ञान 630
▁प्रार्थना 630
कस 629
▁ele 629
▁जवाफ 629
▁बैं 629
▁सीमा 629
ular 628
▁Christ 628
▁live 628
▁पटक 628
▁सडक 628
▁access 627
▁mother 627
▁विद्यु 627
▁ann 626
▁thing 626
▁Ke 625
▁failed 625
▁राख्न 625
▁साधारण 625
isc 624
▁Failed 624
▁tool 624
▁ग्रामीण 624
▁यसका 624
ials 623
▁खुशी 623
युक्त 622
ाइएको 622
▁format 622
▁offer 622
पानी 621
लग 621
▁too 621
▁आयो 621
▁प्रेम 621
▁भै 621
ouse 620
▁मिल् 620
ण्ट 619
▁arm 619
▁art 619
▁seen 619
▁trade 619
▁walk 619
▁स्पष्ट 619
abled 618
line 618
▁गत 618
क्ता 617
पले 617
▁आउ 617
▁कन्फिगर 617
board 616
urb 616
रै 616
▁wat 616
▁देखे 616
▁seed 615
▁निका 615
▁&#93; 614
▁call 614
▁ve 614
▁त्यसै 614
▁यरूशले 614
▁संस 614
▁प्रकारको 613
ME 612
▁आगो 612
▁वन 612
mission 611
sh 611
्रु 611
▁face 611
AR 610
▁established 610
▁pack 610
▁search 610
▁spoke 610
amed 609
वे 609
▁estimated 609
▁fam 609
▁produ 609
▁redu 609
▁जल 609
▁बज 609
ides 608
▁आउने 608
ased 607
iter 607
यौं 607
▁सुन 607
▁– 607
एमा 606
▁12 606
▁money 606
▁z 606
▁पर 606
ground 605
pro 605
▁तापनि 605
▁रोज 605
ालय 604
▁follow 604
▁पद 604
शील 603
शो 603
▁mail 603
▁stren 603
den 602
▁capt 602
▁equ 602
▁forth 602
▁mar 602
▁path 602
▁अवस्थामा 602
▁कहिल्यै 602
▁सदस्य 602
ँग 601
▁column 601
▁source 601
▁अगमवक्ता 601
▁सँग 601
rol 600
▁Development 600
▁effect 600
▁nations 600
▁वर्णन 600
iver 599
▁righteous 599
▁फो 599
▁मर् 599
▁How 598
▁brothers 598
▁commit 598
▁घरमा 598
▁पुस्तक 598
▁भाषा 598
ble 597
▁hands 597
▁प्रविधि 597
▁समाज 597
▁समु 597
ule 596
▁दिनुहोस् 596
▁फोटो 596
पति 595
्याल 595
▁det 595
▁थिएँ 595
▁भन्द 595
▁सारा 595
▁् 595
oto 594
ured 594
फल 594
काको 593
▁completed 593
▁messages 593
टमा 592
▁five 592
▁फिल्टर 592
ier 591
oint 591
▁account 591
▁prep 591
eter 590
point 590
ural 590
▁death 590
▁home 590
▁लिन 590
पुर 589
श्च 589
हन 589
▁कर्मचारी 589
vernment 588
न्तर 588
्ट 588
▁class 588
▁environment 588
▁tab 588
▁tour 588
▁voice 588
▁पर्व 588
oss 587
वेदन 587
▁Ad 587
▁Br 587
▁interest 587
ode 586
नुह 586
▁Q 586
▁hum 586
▁थाल 586
000 585
▁His 585
▁near 585
▁जान्द 585
▁भु 585
▁साधन 585
ipl 584
▁&#91; 584
▁Spe 584
▁connect 584
ones 583
▁loc 583
▁sw 583
▁स्वचालित 583
▁Jos 582
▁गर्नुपर्छ 582
▁थप् 582
▁सोच 582
न्व 581
ूच 581
▁democr 581
▁soul 581
▁साना 581
क्षर 580
▁Don 580
▁themselves 580
▁अत्यन्त 580
▁जस 580
▁बताउ 580
▁Pl 579
▁अफ 579
▁तो 579
▁प्राथमिकता 579
▁ac 578
▁maint 578
▁तेल 578
▁प्रविष्टि 578
▁सकिएन 578
ush 577
▁happened 577
▁provided 577
▁whether 577
▁ठा 577
olution 576
▁Some 576
▁तुल्या 576
▁बै 576
धी 575
मय 575
र्भ 575
ैठ 575
▁Ed 575
▁sal 575
▁निर्णय 575
gth 574
गु 574
▁cut 574
▁नगर 574
▁बीच 574
W 573
agement 573
ately 573
ency 573
मू 573
्दा 573
षित 572
▁Sp 572
▁family 572
▁lack 572
▁mon 572
▁ri 572
▁नभएको 572
हेक 571
▁peace 571
▁मुलु 571
▁शाऊ 571
self 570
▁fin 570
▁forest 570
▁कै 570
▁दे 570
नीति 569
▁maj 569
▁polit 569
▁आएका 569
▁तिनका 569
▁पाँच 569
ount 568
▁संस्करण 568
▁woman 567
▁अगाडि 567
▁उनलाई 567
▁कहिले 567
way 566
लै 566
▁During 566
▁निकासी 566
▁प्रबन्ध 566
▁सुरक्षा 566
ology 565
ped 565
so 565
ेष 565
▁तपाईँलाई 565
▁परेको 565
▁बग 565
रुपमा 564
▁company 564
▁डो 564
▁यन्त्र 564
esh 563
ired 563
कृ 563
▁File 563
▁agricultural 563
▁hear 563
▁inst 563
▁understand 563
▁दुःख 563
▁यहूदा 563
▁वचन 563
▁हुँदै 563
lt 562
न्त्र 562
▁bas 562
▁init 562
▁sil 562
▁ई 562
▁गर्दैछ 562
▁००० 562
aut 561
लेको 561
शू 561
▁financial 561
टे 560
▁const 560
▁फन्ट 560
▁शरीर 560
ktop 559
केर 559
बल 559
र्द 559
▁@ 559
▁rul 559
▁जस्ता 559
▁हेर 559
eren 558
▁servant 558
▁मेनु 558
▁यहूदाका 558
▁स्थानमा 558
षा 557
▁Seventh 557
▁air 557
▁hist 557
▁oil 557
▁times 557
▁तर्फ 557
ential 556
थो 556
▁However 556
▁disease 556
▁unc 556
▁अस् 556
▁गयो 556
▁हिं 556
र्स 555
▁mode 555
vel 554
त्रा 554
▁young 554
▁दिनुभयो 554
माण 553
ाउँछ 553
▁problems 553
▁seven 553
▁नेपालको 553
ility 552
कृति 552
लामा 552
ीले 552
▁became 552
▁brother 552
▁गराउन 552
▁१२ 552
▁amount 551
▁fathers 551
& 550
ल्प 550
▁ach 550
▁नेपालमा 550
▁वर्षको 550
alf 549
ross 549
▁behold 549
▁destroy 549
▁since 549
▁निर्धारण 549
▁पाउ 549
ift 548
▁Rem 548
▁टा 548
▁प्रधान 548
▁anim 547
▁cult 547
▁गर्छु 547
▁गर्नुपर्ने 547
▁सङ्केत 547
ठो 546
र्षक 546
▁application 546
▁दर्श 546
▁विवाह 546
▁वी 546
day 545
▁mater 545
▁आन्तरिक 545
▁पहुँच 545
▁२०१ 545
AP 544
ply 544
गे 544
पत्ति 544
योजन 544
सिक 544
▁Conf 544
▁camp 544
▁required 544
▁सैनिक 544
ues 543
ेक्षा 543
▁god 543
▁love 543
▁page 543
▁requ 543
▁जाति 543
▁प्याकेज 543
▁विरोध 543
ification 542
्रय 542
▁pri 542
▁servants 542
▁अवैध 542
▁स्तर 542
ails 541
र्मि 541
ूह 541
▁डे 541
▁त्यस्तो 541
▁था 541
▁वर्षमा 541
वाह 540
्दै 540
▁business 540
▁सुरुआ 540
पाद 539
▁ful 539
▁less 539
▁shown 539
▁कसै 539
▁छौं 539
▁नजिक 539
X 538
aged 538
ager 538
ana 538
ever 538
▁Because 538
▁charact 538
▁large 538
▁पश्चि 538
▁भौ 538
▁राखि 538
pr 537
▁beh 537
▁उभि 537
▁दर 537
▁दिइएको 537
नुहुनेछ 536
▁किना 536
ored 535
▁addition 535
▁arr 535
▁cities 535
▁giv 535
▁पे 535
▁फु 535
डाइ 534
रिएको 534
▁gre 534
▁means 534
▁साइ 534
hu 533
लोड 533
▁invest 533
▁पछिल्लो 533
▁मध्ये 533
▁capital 532
▁village 532
▁उत्त 532
▁कार्यालय 532
▁क्रि 532
▁चिन्ह 532
र्क 531
▁Click 531
▁उपा 531
▁औष 531
▁सकिने 531
दिए 530
▁rural 530
▁supply 530
▁अग 530
▁उदाहरण 530
▁तिम्रा 530
▁न्यून 530
▁बस्ने 530
▁dom 529
▁pay 529
▁distribution 528
▁जसलाई 528
▁परमेश्वरलाई 528
▁सङ्ग 528
med 527
क्षक 527
पित 527
▁es 527
▁सभा 527
▁भेडा 526
▁माध्यम 526
▁सूच 526
mb 525
orts 525
ग्र 525
▁One 525
▁begin 525
▁दाऊदले 525
▁निकाय 525
▁यसैले 525
▁सन्तान 525
change 524
de 524
▁effective 524
▁rev 524
▁table 524
▁जान्छ 524
▁तथ्या 524
▁तुल 524
▁त्यसले 524
▁प्रभावकारी 524
▁शान्ति 524
▁शैली 524
पट्टी 523
▁गराउने 523
▁गैर 523
▁द्व 523
ication 522
ternational 522
झा 522
त्ता 522
▁offic 522
▁particip 522
▁written 522
▁नहु 522
▁माउ 522
▁व्यवहार 522
▁संरक्षण 522
▁सामग्री 522
टको 521
धन 521
▁With 521
▁expected 521
▁holy 521
▁ग्रा 521
▁बिक्री 521
ational 520
cl 520
▁happ 520
▁रिस 520
gle 519
hip 519
ley 519
पण 519
याक 519
▁certain 519
▁dead 519
▁अन्तर् 519
▁सही 519
क्षित 518
▁आकाश 518
▁थु 518
▁दाख 518
▁पर्ख 518
▁रक 518
▁राष्ट्रिय 518
▁सुले 518
ffic 517
नीय 517
▁ऐ 517
▁जन् 517
▁डाटा 517
rect 516
▁soc 516
▁पढ्न 516
▁प्लगइन 516
मुख 515
▁deter 515
▁implemented 515
▁औद्योगिक 515
▁काँ 515
▁सातौं 515
▁हार 515
oci 514
म्र 514
▁imp 514
▁prophe 514
▁step 514
▁तत्व 514
▁बनाउने 514
▁King 513
▁bread 513
▁living 513
▁opp 513
▁task 513
▁ते 513
gun 512
▁प्रस्ताव 512
▁बद 512
▁लुगा 512
hi 511
लित 511
▁click 511
▁अस्पता 511
umb 510
▁उहाँलाई 510
▁स्वतन्त्र 510
धु 509
ेत्र 509
▁industrial 509
▁चेला 509
▁मन्दिर 509
▁याकूब 509
▁हेर्न 509
▁dr 508
▁heaven 508
▁wife 508
▁त्यति 508
▁सम्भव 508
iety 507
iles 507
ron 507
काल 507
▁That 507
▁elect 507
▁अवधि 507
▁आशा 507
▁प्राविधिक 507
ork 506
बु 506
▁Japan 506
▁alt 506
▁mouth 506
▁रुप 506
▁शहरमा 506
▁सुरक्षित 506
ling 505
▁By 505
▁cause 505
▁known 505
▁position 505
▁सके 505
ारि 504
▁Or 504
▁अरु 504
▁गण 504
▁थो 504
▁पृष्ठभूमि 504
▁हेर् 504
ape 503
इनेछ 503
▁ब्र 503
▁भनेको 503
▁राष्टि्रय 503
▁सू 503
▁स्क्रि 503
दम 502
▁Check 502
▁answered 502
▁कायम 502
रिका 501
▁Even 501
ann 500
▁places 500
▁वरिपरि 500
▁हुनुपर्छ 500
▁far 499
▁fru 499
▁share 499
▁प्राय 499
ूत 498
्च 498
्रष्ट 498
▁15 498
▁Are 498
▁research 498
▁करार 498
▁दायाँ 498
aster 497
par 497
अघि 497
लेर 497
▁agriculture 497
▁created 497
▁demand 497
▁eas 497
▁hig 497
▁टो 497
▁ठूला 497
▁ढो 497
▁देवता 497
ata 496
चन 496
▁कन्फिगरेसन 496
▁नक् 496
▁विद्यार्थ 496
▁विवरण 496
▁सेयर 496
▁establish 495
▁meas 495
▁told 495
▁सन्त 495
▁सय 495
gy 494
▁Congress 494
▁auth 494
▁cost 494
▁जमी 494
▁शो 494
earch 493
ension 493
न्ति 493
▁going 493
▁छेउ 493
▁निकै 493
cept 492
irc 492
ल्ड 492
▁case 492
▁prov 492
▁अगुवा 492
▁रगत 492
ability 491
ges 491
ज्ञ 491
सम 491
▁HT 491
▁Pre 491
▁always 491
▁comes 491
▁condition 491
▁improve 491
▁sing 491
▁एका 491
▁न्य 491
anchayat 490
ched 490
ंदैन 490
क्रम 490
▁sat 490
▁चाहे 490
▁दृ 490
▁प्रभु 490
▁राजाले 490
cess 489
▁connection 489
▁pers 489
▁पञ्चा 489
▁बाबु 489
ily 488
ink 488
▁few 488
▁pol 488
▁pract 488
▁सकेको 488
▁साँ 488
amb 487
com 487
फाइल 487
ून 487
▁उपभो 487
▁समुद्र 487
itud 486
▁Ass 486
▁chang 486
▁dri 486
▁i 486
▁little 486
▁कारोबार 486
▁भन 486
rif 485
िका 485
▁poss 485
▁whole 485
▁अन्न 485
▁द्वारा 485
DM 484
ember 484
ship 484
▁National 484
▁assist 484
▁iss 484
▁port 484
▁कर्म 484
▁त् 484
▁धर्म 484
▁बनाउनु 484
▁वृ 484
▁सम्पर्क 484
hab 483
ird 483
ivers 483
पात 483
▁configuration 483
▁date 483
▁गरिरहेका 483
▁छैठौं 483
▁तर्जुमा 483
▁संलग्न 483
app 482
पाल 482
याँ 482
हरुबाट 482
▁low 482
▁values 482
▁प्रतिशतले 482
▁भविष्य 482
▁मूर्ति 482
द्धि 481
र्जा 481
सं 481
▁अभाव 481
▁उत्पन्न 481
▁भएन 481
▁सहाय 481
ope 480
ज्यू 480
मूल 480
स्थित 480
▁adv 480
▁dep 480
▁free 480
▁बनाए 480
▁सबैभन्दा 480
yle 479
िन 479
▁fact 479
▁irrigation 479
▁language 479
▁rece 479
▁tak 479
▁प्रतिमा 479
कट 478
▁Not 478
▁bord 478
▁grow 478
▁selection 478
▁कमा 478
atabase 477
दिनु 477
▁remove 477
▁अतिरिक्त 477
▁नराम्रो 477
reen 476
लाको 476
▁cle 476
▁मुख 476
▁योग्य 476
▁वर् 476
oot 475
stit 475
गर 475
परम 475
▁अनुभव 475
bar 474
lease 474
▁URL 474
▁includ 474
▁settings 474
राई 473
▁Dh 473
▁sound 473
▁ty 473
▁विद्यालय 473
▁३० 473
बै 472
भूत 472
श्व 472
▁From 472
▁commanded 472
▁night 472
▁respect 472
▁आक 472
▁ट्र 472
▁प्रवेश 472
▁मार् 472
▁२५ 472
ically 471
utes 471
▁Reg 471
▁existing 471
▁sm 471
▁valid 471
▁उचित 471
▁प्रगति 471
▁यहूद 471
▁सम्बन्धी 471
▁गर्नुभ 470
▁छोराहरू 470
▁विज्ञ 470
hing 469
इन् 469
▁active 469
▁version 469
▁गर्नेछन् 469
▁व्याप 469
▁ब्या 468
▁लुका 468
acity 467
tend 467
▁Sixth 467
▁link 467
▁{ 467
▁झू 467
▁फरक 467
▁सिका 467
▁स्वर्ग 467
ills 466
▁dist 466
▁regular 466
▁कार 466
▁सक्तैन 466
▁स्वीकार 466
मेल 465
ल्ने 465
▁lib 465
▁wa 465
▁खान 465
▁प्रे 465
▁बसे 465
uted 464
दर्श 464
▁उपचार 464
▁५० 464
gram 463
▁depart 463
▁request 463
▁stre 463
▁think 463
▁शुरू 463
▁स्वर्गदूत 463
▁हौ 463
वस्तु 462
▁Enable 462
▁mark 462
▁success 462
▁write 462
▁प्रस्तुत 462
▁मिति 462
cy 461
टु 461
▁16 461
▁num 461
▁plugin 461
▁आव 461
▁परिभा 461
शाली 460
▁> 460
▁districts 460
▁making 460
▁} 460
▁टाइ 460
▁तर् 460
mark 459
uch 459
ull 459
▁goods 459
▁wild 459
▁इतिहा 459
▁क्रो 459
ilt 458
outh 458
▁25 458
▁जारी 458
▁दाय 458
▁वास्तव 458
over 457
wn 457
म्बा 457
लोकन 457
▁Who 457
▁menu 457
▁जानु 457
▁फाइलहरू 457
▁विभाग 457
▁स्थ 457
▁lot 456
▁transport 456
▁सर्भ 456
लका 455
▁express 455
▁ident 455
▁wicked 455
▁दोस्रो 455
▁फाइलमा 455
ribe 454
बेला 454
भाग 454
वृ 454
▁billion 454
▁की 454
▁मध्य 454
▁वेदी 454
ems 453
thing 453
▁Why 453
▁act 453
▁considered 453
▁क्षमता 453
▁जन्म 453
▁मिलियन 453
▁सधैं 453
कूल 452
▁strong 452
▁अनुरोध 452
▁पूर्वाव 452
▁प्रश्न 452
▁लाइ 452
▁सञ्जाल 452
au 451
icult 451
ource 451
sc 451
▁fac 451
▁mer 451
▁sword 451
▁दी 451
कका 450
जस्ता 450
▁creat 450
▁encour 450
▁फ्रेम 450
▁यातायात 450
omatically 449
लत 449
▁appear 449
▁caus 449
▁pe 449
▁विगत 449
plic 448
न्द्री 448
▁constru 448
▁dwell 448
▁separ 448
▁str 448
▁जनशक्ति 448
▁भएकोले 448
▁मिला 448
▁हटाउन 448
very 447
कास 447
भूमि 447
्त 447
▁Cont 447
▁ic 447
▁related 447
▁पुर्खा 447
▁भन्न 447
▁हृदय 447
थम 446
▁fear 446
▁भण्डार 446
▁लाइन 446
itt 445
मेत 445
राम 445
▁activ 445
▁custom 445
▁enem 445
▁forever 445
▁industries 445
▁बायाँ 445
▁लैजा 445
▁शुद्ध 445
ek 444
उँदै 444
णि 444
लिप 444
विध 444
▁diff 444
▁grad 444
▁मुद्रा 444
pty 443
कृतिक 443
स्तै 443
▁Rep 443
▁Similarly 443
▁daughter 443
▁install 443
▁seek 443
▁अमेरिकी 443
▁जग्गा 443
▁निय 443
मन्त्र 442
यं 442
▁30 442
▁Nepalese 442
▁fut 442
▁चेता 442
▁शुरु 442
▁सृ 442
ards 441
बीच 441
▁कार्यमा 441
आब 440
धित 440
याप्त 440
सलाई 440
▁received 440
▁treat 440
▁आय 440
▁तिर 440
▁यसबाट 440
▁पुत्र 439
▁पूजाहार 439
▁भिडियो 439
▁साध 439
ering 438
ठन 438
▁Cl 438
▁additional 438
▁fell 438
▁आफै 438
▁निर 438
▁भइरहेको 438
▁समिति 438
ala 437
ison 437
प्रा 437
▁benef 437
▁clear 437
▁images 437
▁inte 437
▁nation 437
▁reached 437
augh 436
त्त्व 436
▁instead 436
▁location 436
▁यति 436
.1 435
cture 435
pendit 435
▁किलो 435
▁छन 435
▁दृष्टि 435
▁फै 435
▁सार्वजनिक 435
ith 434
wise 434
ेस्रो 434
▁val 434
▁कक्ष 434
▁कृ 434
▁ट्याब 434
▁नियमित 434
▁प्रहर 434
▁ल्याउन 434
▁स्म 434
▁ह्या 434
priate 433
लाप 433
वास 433
▁Cent 433
▁comput 433
▁depend 433
▁नम्बर 433
▁प्रमाणपत्र 433
ll 432
otion 432
दृ 432
▁18 432
▁opened 432
▁अन्तर्गत 432
▁क्व 432
▁थिच 432
▁प्राथमिक 432
▁भूमिका 432
▁मै 432
▁रूख 432
▁लागेको 432
▁११ 432
▁faith 431
▁working 431
▁आठ 431
▁एस 431
▁दृष्टिकोण 431
ances 430
itive 430
vi 430
प्लेट 430
▁] 430
▁kept 430
▁respons 430
▁बोला 430
▁यस्तै 430
▁विभा 430
▁शु 430
▁समाचार 430
▁हस्ता 430
igin 429
ंग्रे 429
र्षिक 429
वादी 429
▁needs 429
▁reason 429
▁today 429
▁त्रि 429
▁परमप्रभुलाई 429
▁राख्ने 429
aken 428
ery 428
निर् 428
▁pan 428
▁provid 428
▁tree 428
▁बाबेल 428
▁शरी 428
▁सजि 428
aking 427
काली 427
नेको 427
ारम्भ 427
िच 427
▁ground 427
▁implementation 427
▁phys 427
▁protect 427
▁एउटै 427
▁कम् 427
▁भी 427
नीको 426
ल्यु 426
▁network 426
▁stop 426
▁string 426
▁अनुकूल 426
▁डेस्कटप 426
▁रूपले 426
▁विधि 426
▁सत्र 426
▁१८ 426
्ले 425
▁Due 425
▁teacher 425
▁कतिपय 425
▁खोल्नुहोस् 425
▁तपाईंलाई 425
▁परिमार् 425
▁सुन्द 425
▁Me 424
▁economy 424
▁price 424
▁progress 424
▁कम्प्यु 424
▁क्रममा 424
▁गरें 424
▁तस् 424
▁यरूशलेम 424
enc 423
ख्या 423
र्फत 423
▁items 423
▁अब्रा 423
▁तिनलाई 423
▁दू 423
▁शास 423
arent 422
aun 422
ium 422
oved 422
semb 422
tee 422
ued 422
च्च 422
ालिका 422
▁currently 422
▁output 422
ceed 421
igned 421
जार 421
म्रा 421
्दछ 421
▁आवाज 421
▁राख्नु 421
▁स्ट्रिङ 421
aching 420
ani 420
arn 420
सम् 420
ूक 420
” 420
▁Saul 420
▁coming 420
▁consid 420
▁friend 420
▁installed 420
▁sky 420
▁तालिका 420
▁हालै 420
enty 419
ंदै 419
पक्ष 419
▁GN 419
▁based 419
▁morning 419
▁news 419
▁tradition 419
▁दोष 419
▁सम्पन्न 419
reat 418
चान 418
▁knowledge 418
▁occur 418
▁prim 418
▁आनन्द 418
▁देऊ 418
▁पङ्क्ति 418
▁फोल्ड 418
▁शासन 418
ield 417
ws 417
▁including 417
▁प्रकार्य 417
▁प्रशंसा 417
portun 416
ग्रह 416
▁plant 416
▁talk 416
▁अस्वीकार 416
▁कष्ट 416
▁गर्नेछु 416
▁ढुङ्गा 416
▁परम्परा 416
▁बीचमा 416
agn 415
aper 415
ising 415
पूर्ति 415
▁bal 415
▁mind 415
▁proper 415
▁third 415
▁इन्टर 415
▁दक्षिण 415
▁पदार्थ 415
▁संर 415
akes 414
ideo 414
ump 414
लेख 414
ेन 414
▁bless 414
▁operation 414
▁san 414
▁week 414
▁इच्छा 414
▁गरिरहेको 414
▁प्रजातन्त्र 414
▁राखिएको 414
▁सामु 414
alendar 413
क्ट 413
ङ्कन 413
▁Def 413
▁hospital 413
▁meeting 413
▁police 413
▁पैसा 413
▁प्रोत्सा 413
▁मानिसहरूका 413
▁वास्तविक 413
▁हासिल 413
ptions 412
▁hold 412
▁उम 412
box 411
ries 411
यम 411
रुद्ध 411
▁Mo 411
▁below 411
uk 410
न्ज 410
प्रभु 410
वट 410
▁box 410
▁screen 410
▁आधारित 410
▁क्यारेक्टर 410
▁टुक्रा 410
▁वस्तुहरू 410
भो 409
ृह 409
▁accept 409
▁general 409
▁trad 409
atural 408
ञ् 408
▁method 408
▁polic 408
▁मूर् 408
▁२०० 408
itch 407
▁Gener 406
▁tit 406
▁स्वत 406
ृद्धि 405
ल्यै 404
▁answ 404
▁विक 404
तन्त्र 402
▁खोल् 402
▁vari 400
ault 399
▁विस्त 399
त्म 398
▁Des 398
▁शै 398
▁संस् 398
▁fa 397
▁पूजा 395
ither 394
ूब 394
▁ट्या 394
▁प्रदर्श 394
ild 393
भु 393
▁[ 393
र्व 392
‘ 392
▁टु 392
olog 391
ubl 391
alth 390
पट्ट 390
▁dig 388
ected 387
पर 387
शक्ति 387
▁config 386
परि 385
▁indust 384
▁तपाई 384
hold 381
play 380
कन 380
फि 380
rict 377
▁प्रत्य 377
▁सङ् 377
ग्री 376
▁meet 376
▁ज्ञ 376
▁अमे 374
▁पूर् 372
pend 371
द्र 371
नुभ 370
▁योग 370
ulation 368
▁cert 367
▁pop 367
▁appe 366
▁bet 366
▁prot 365
▁पूर्वा 364
ened 363
पनि 363
ुवा 362
▁fold 362
irst 360
यार 360
रोध 358
▁ret 358
▁impro 357
stem 355
क्षम 355
पाई 353
▁कर 352
▁विद 352
ँदैन 351
क्रिया 350
▁आर् 350
▁ढु 349
्रिय 345
▁कृष 345
▁मानि 345
▁cre 344
der 342
iet 340
▁प्या 340
द्द 339
▁पुस्त 339
▁उपल 336
▁परिवर् 336
▁dest 334
▁महत्व 334
oice 333
▁सड 333
ublic 332
▁अध्य 332
▁इस्रा 332
▁सद 330
भव 329
▁काठ 329
▁विदेश 329
aul 328
▁char 328
▁कन् 326
▁बारे 326
sel 325
वै 325
nect 324
धारण 324
मति 324
▁सामा 324
other 322
छि 322
▁प्रजा 321
indow 320
gin 319
rom 318
▁av 317
ाइल 314
tal 312
arch 310
▁समर्थ 310
चालित 308
Q 307
ask 307
ctory 306
selves 306
igation 305
▁bus 304
हाँ 303
▁compan 303
anch 302
▁मुद्र 302
▁निश्च 301
cond 299
ाटा 299
▁जवा 299
ese 297
ument 297
ources 296
श्य 296
▁दक्ष 296
ec 294
लियन 294
▁सध 294
▁स्वी 294
स्य 293
uation 292
्ड 292
▁अनुस 292
rent 290
▁Whe 290
र्श 288
▁डल 287
कार्य 286
देख 286
▁kn 285
▁मृ 284
iness 283
हुँ 283
gricult 282
miss 282
▁यहू 282
वेश 281
< 279
ाँच 279
▁देव 278
ूर् 277
▁implement 276
ल्य 275
gh 274
▁कम्प 273
▁तालि 273
▁daugh 271
▁dem 271
ital 270
oke 269
अनु 266
्रोत 266
aven 264
ived 264
▁tim 264
▁सङ्के 263
iel 261
▁उद् 260
aces 258
ople 257
ैनिक 256
▁आवा 256
▁resp 255
▁काग 254
▁educ 251
▁ey 251
▁पास 251
बन्ध 250
▁Sim 250
ways 249
ोल् 248
▁er 248
▁vill 248
▁क्षम 248
ilar 247
work 246
ङ्गा 246
्वी 245
र्फ 244
क्रि 242
म्भ 242
q 241
ror 241
round 241
▁lar 241
ason 239
▁उच 239
▁तथ 239
ailed 238
न्दु 238
स्थ्य 238
▁bec 237
▁incre 236
ene 235
ton 235
roup 234
▁applic 233
▁चे 233
श्यक 232
्यालय 232
’ 232
▁नरा 232
gress 231
▁Jer 231
oly 230
▁pos 230
▁पै 230
uration 229
▁ir 229
▁occ 229
्वर 228
▁बाहि 228
ould 227
— 226
ody 225
▁net 225
गाडि 222
J 221
▁serv 221
▁चिन् 221
▁लक्ष 221
जिक 220
▁sit 220
tings 217
▁राष्टि 217
रक 215
▁partic 215
▁इस 215
venth 214
म्मा 213
▁वर्ण 213
श्र 212
▁differe 212
▁ऋ 212
▁ची 211
▁distrib 209
▁fore 209
▁कस 209
▁dise 204
uc 203
स्तु 203
म्बर 202
▁count 202
ploy 201
लेट 200
त्मा 199
▁priv 197
cessary 196
तान 195
स्या 194
▁छे 194
ached 192
▁whe 192
▁कागजा 192
▁वरि 192
rou 191
▁ढाँच 191
धारित 189
▁Acc 188
mand 187
word 187
asing 186
omat 186
▁विष 186
▁अत्य 185
alk 183
▁रेख 183
iff 182
eous 181
▁UR 181
▁एउ 181
▁निम् 181
uring 180
द्रा 180
▁estim 180
क्रिय 179
ead 177
formation 177
ध्यम 177
ेश्वर 177
▁आफ् 176
पादन 175
▁परम 174
दय 173
▁न्या 173
▁पुर् 173
fore 172
ilities 172
▁गै 172
तिहा 171
पष्ट 171
vern 169
▁उदा 169
osp 168
lud 167
डान 166
बेल 166
bo 165
oney 165
▁०० 165
stand 163
oses 161
▁फ्रे 160
टिङ 159
▁समि 159
▁अगम 157
▁उपलब् 157
हिले 155
ेदन 152
▁Jud 150
▁langu 150
क्रा 149
▁क्य 149
acher 148
ोल्ड 147
ocr 146
यास 145
वित्र 145
▁env 144
rial 143
म्रो 143
शले 142
^ 141
chn 140
ife 140
itten 138
▁mess 138
version 137
काश 137
हाय 137
conom 136
ministr 135
▁fol 135
ospital 134
ugin 132
ष्य 132
ustom 131
tc 130
लग्न 130
▁प्लग 130
abl 128
हारी 128
▁काठमा 128
औ 127
स्रो 127
▁सम्पर् 126
भिन्न 125
▁doc 124
ener 123
▁mor 123
▁कन्फिग 122
▁irr 121
योजना 120
▁उल् 120
वरण 118
rough 117
रेसन 116
▁econom 116
स्तव 115
~ 112
▁एव 112
▁hel 111
▁नियन्त्र 109
त्रु 108
DE 107
ञ्जी 107
ेरै 107
▁wom 107
▁ठे 107
cc 106
chool 106
ng 106
é 106
▁Op 106
Z 105
च्छा 104
▁दक्षि 104
istr 103
वक्ता 102
ixth 101
unction 101
aus 100
णाली 100
▁cond 100
plement 99
▁प्रस्तु 99
ause 98
रूद्ध 98
▁rese 98
▁पश्च 97
टै 96
heck 94
न्दि 94
▁tar 94
▁डेस्कट 94
पन्न 93
▁कार्यान्व 92
blem 91
▁est 91
▁financ 91
▁निकास 91
ीक 89
▁फिल्ट 89
जाल 88
सम्बन्ध 88
riend 87
▁डाइ 87
ã 86
▁unt 86
▁स्ट्रि 86
ss 82
ेख 82
_ 80
iod 80
चारी 80
umn 79
लिपि 79
संख्या 78
त्सा 76
ailable 75
í 75
▁भण्ड 75
▁पदा 74
▁बिक 74
velop 73
angu 72
▁निर्ण 72
▁सुर 72
© 70
भने 70
▁वित 70
pri 66
rought 66
निर्धारित 66
▁Yah 66
▁sou 66
▁क्यारे 66
मार् 65
▁विद्या 65
ccess 64
सिल 64
▁कारो 64
▁छैठ 64
▁लै 64
▁सिर् 64
not 63
दूत 63
▁Cre 63
▁सक्त 63
▁राष्ट 61
well 60
▁अन्ति 60
देश्य 59
र्वजनिक 59
ialog 58
▁Er 58
▁प्रावि 58
â 57
कोण 57
नन्द 57
हरण 57
apan 56
विधा 56
sw 55
यात 55
थिक 54
▁प्रार्थ 54
▁Develop 53
▁Jes 53
ironment 52
ञ 52
▁destro 52
ready 51
top 51
▁.. 51
त्यु 50
प्रयोग 50
€ 50
▁ठेगा 49
▁कार्या 48
▁यरू 48
ween 47
शत 47
ethod 46
झ्याल 46
▁औद्योग 46
▁प्रग 46
icked 45
ऊद 45
फिग 45
á 44
ंसा 44
▁Cong 44
▁अवै 44
ledge 43
र्गत 43
▁यह 42
atab 40
▁त्रु 39
अन्त 38
रिक्त 38
▁Nep 38
▁प्याके 38
घि 37
पया 37
▁programm 37
▁अनुसन्ध 37
▁काठमाड 37
▁डाइरेक्ट 37
ording 36
▁कहि 36
ousand 35
दिष्ट 35
रेक्ट 35
▁bene 35
– 34
ayat 33
डीई 33
‬ 33
▁अस्वी 32
▁शब् 32
पता 31
→ 31
▁ke 31
▁पृथ 31
erest 30
alend 29
fter 29
ittle 29
° 29
× 29
थिति 29
वर्ड 29
▁पङ् 29
▁पृ 29
ilarly 28
ñ 28
ऋ 27
द्यो 27
▁पञ् 27
रोड 26
▁Kath 26
▁भवि 26
rist 25
ेशू 25
▁ठू 25
▁प्रवि 25
जुमा 24
▁अथ 23
स्ताव 22
• 22
▁आन्त 21
Â 20
द्योग 19
्वारा 19
▁आफ्न 19
и 18
illion 16
ó 16
थमिक 16
▁नेप 16
alem 15
तावरण 15
‪ 15
▁Bec 15
ü 14
▁याक 14
♫ 14
ç 13
ú 13
॥ 13
▁मद्द 13
iron 12
а 12
ऒ 12
⁄ 12
mandu 11
undred 11
़ 11
▁establ 11
▁हृ 11
£ 10
® 10
» 10
е 10
н 10
р 10
т 10
्रीष्ट 10
ê 9
ô 9
ö 9
ग्गा 9
म्परा 9
ूमि 9
॰ 9
θ 8
М 8
ध्ये 8
मीण 8
स्कट 8
“ 8
▁Dav 8
▁अमेरि 8
▁दुः 8
« 7
ä 7
ò 7
पय 7
ऽ 7
▁ज् 7
ऐ 6
ऱ 6
▁&# 6
▁याता 6
の 6
è 5
μ 5
ر 5
र्वज 5
ॉ 5
Á 4
æ 4
ï 4
ă 4
Ş 4
ş 4
Ţ 4
ţ 4
̈ 4
Μ 4
ά 4
η 4
ρ 4
ς 4
τ 4
к 4
ц 4
ا 4
ی 4
⚡ 4
「 4
」 4
な 4
ん 4
ア 4
キ 4
ラ 4
不 4
便 4
地 4
所 4
浄 4
️ 4
💦 4
weh 3
Ä 3
É 3
Ú 3
à 3
å 3
ø 3
ý 3
ō 3
́ 3
̃ 3
م 3
ॐ 3
∶ 3
▁agricult 3
☺ 3
gypt 2
¡ 2
¢ 2
¦ 2
¬ 2
± 2
¶ 2
· 2
À 2
Ã 2
Å 2
Æ 2
Ç 2
È 2
Ê 2
Ë 2
Ì 2
Í 2
Î 2
Ï 2
Ð 2
Ñ 2
Ò 2
Ó 2
Ô 2
Õ 2
Ö 2
Ø 2
Ù 2
Û 2
Ü 2
Ý 2
Þ 2
ß 2
ë 2
ì 2
î 2
ð 2
õ 2
ù 2
û 2
þ 2
ÿ 2
Ă 2
̧ 2
π 2
в 2
з 2
л 2
у 2
ч 2
ш 2
ب 2
د 2
ن 2
ه 2
و 2
ळ 2
ॠ 2
‐ 2
‰ 2
‹ 2
› 2
₪ 2
₫ 2
▁Jerus 2
▽ 2
♣ 2
い 2
う 2
さ 2
た 2
ち 2
っ 2
に 2
め 2
ゃ 2
よ 2
れ 2
を 2
ノ 2
一 2
三 2
世 2
人 2
住 2
公 2
営 2
坊 2
型 2
大 2
宅 2
害 2
弾 2
戦 2
新 2
材 2
次 2
汚 2
溜 2
災 2
爆 2
界 2
禾 2
秒 2
第 2
肥 2
逸 2
離 2
🏻 2
😃 2
🙂 2
🤔 2
| 1
¿ 1
č 1
Ō 1
ő 1
œ 1
Ř 1
š 1
α 1
β 1
ع 1
ُ 1
हुँच 1
ॊ 1
॒ 1
॔ 1
― 1
‚ 1
∞ 1
♥ 1
✨ 1
お 1
じ 1
ょ 1
オ 1
ネ 1
京 1
力 1
族 1
暴 1
東 1
者 1
能 1
走 1
超 1
🇯 1
🇵 1
🌍 1
🎂 1
🎥 1
🐘 1
🐦 1
👏 1
🗣 1
😍 1
🙏 1
🤳 1
🥳 1
madeupword0000 0
madeupword0001 0
