▁, 185820
▁the 158954
▁. 139286
▁। 137424
▁of 87202
▁to 71251
▁and 69914
▁in 44975
; 44336
▁& 44015
▁र 34549
▁a 33960
▁is 29297
▁be 23643
apos 23093
▁for 22681
▁छ 22219
को 21903
▁- 21470
s 19484
▁you 19317
▁will 18545
quot 18229
▁The 18070
मा 18061
▁that 17971
▁) 17472
▁गर्न 17239
▁: 17096
▁( 16506
▁not 16495
▁गर्नुहोस् 16120
का 15529
▁पनि 14818
ले 14625
▁अनि 13953
▁यो 13948
लाई 13612
▁; 13339
▁on 13308
▁with 13219
▁? 12633
▁it 12416
▁I 12378
▁लागि 12326
▁are 11914
- 11784
▁this 11784
हरू 11600
▁from 11216
▁have 11158
▁was 11109
▁by 10808
▁म 10536
▁has 10225
▁as 9885
▁your 9564
बाट 9409
▁he 9203
▁his 9028
ing 8716
▁गर्ने 8676
▁हो 8635
▁तर 8548
▁भने 8306
▁“ 8261
▁भएको 8250
▁all 8128
▁who 7622
▁/ 7496
▁तथा 7481
▁थियो 7221
न 7191
▁shall 7080
▁or 6970
▁them 6964
ed 6875
▁they 6845
▁him 6798
▁Yahweh 6754
▁थिए 6632
▁गरिएको 6590
▁छन् 6457
▁प्रयोग 6362
▁एउटा 6329
t 6311
▁at 6298
▁सबै 6250
▁वा 6161
▁" 6103
▁which 6072
▁हुन्छ 6053
▁छैन 6028
▁” 6011
▁नै 6007
▁एक 5967
▁त्यो 5938
▁यस 5924
▁said 5901
▁their 5834
▁भयो 5813
▁मा 5812
▁! 5686
▁my 5593
▁' 5566
म 5535
▁ती 5407
▁also 5374
▁been 5317
▁an 5302
. 5290
क 5196
▁आफ्नो 5138
▁were 5087
▁can 4916
▁In 4900
स 4858
▁This 4852
▁% 4817
▁me 4687
▁फाइल 4681
हरु 4661
▁कुनै 4643
▁one 4604
▁out 4581
▁मेरो 4451
▁चयन 4418
▁केही 4416
▁but 4411
▁हुने 4347
▁people 4346
▁मात्र 4326
ता 4313
▁को 4293
▁He 4268
▁there 4252
▁file 4179
▁up 4179
▁गरी 4177
▁God 4142
er 4134
▁हुन 4070
ल 4006
▁A 4003
▁कि 3997
▁गर्नु 3980
▁यदि 3966
▁गरे 3883
▁गरेको 3875
हरूको 3872
▁तिनीहरूले 3864
al 3852
y 3822
▁मैले 3776
▁You 3775
▁के 3762
▁मानिसहरू 3736
▁धेरै 3704
▁It 3689
▁विकास 3686
a 3680
▁यी 3680
▁गर्दा 3638
▁when 3629
त 3599
र 3592
▁no 3588
▁मलाई 3520
▁कार्य 3489
▁निम्ति 3470
▁तपाईँले 3460
▁had 3425
▁रूपमा 3421
▁should 3419
ly 3413
ला 3389
▁development 3388
▁if 3383
▁तिनीहरू 3353
i 3352
ने 3340
▁त्यस 3335
▁made 3333
▁t 3324
▁more 3298
सँग 3297
▁s 3293
नको 3270
▁do 3255
▁कुरा 3250
ट 3239
▁नयाँ 3207
▁But 3139
प 3133
▁into 3126
▁हुनेछ 3113
an 3095
ज 3064
▁its 3034
ह 3025
ः 3005
ना 3004
हरूले 3003
▁S 2993
▁time 2986
▁only 2949
▁other 2924
▁If 2916
▁परमप्रभु 2909
▁काम 2872
▁त 2864
हरुको 2840
▁M 2829
हरूलाई 2822
▁name 2810
न् 2806
▁हामी 2801
▁man 2799
▁अ 2798
▁new 2788
▁we 2777
▁दिन 2769
▁land 2763
▁ब 2756
▁For 2752
▁भए 2751
▁न 2747
ers 2712
▁तब 2707
नमा 2692
▁जो 2676
▁जब 2672
in 2668
es 2667
▁का 2652
ए 2648
▁like 2648
▁d 2645
▁after 2641
ं 2633
▁गर्दछ 2633
व 2631
▁R 2617
m 2611
े 2595
▁आवश्यक 2589
▁Israel 2588
ी 2582
▁मानिसहरूले 2580
▁these 2573
o 2564
▁भन्ने 2564
▁अन्य 2557
▁C 2552
य 2546
▁बढी 2543
▁P 2542
or 2541
▁king 2536
▁B 2530
▁may 2520
▁D 2516
▁before 2512
यो 2506
ar 2502
▁योजना 2493
▁परमप्रभुले 2478
▁` 2474
▁१ 2473
▁day 2466
▁तिनीहरूलाई 2448
▁क 2437
▁c 2425
▁house 2425
▁children 2420
▁आ 2408
ic 2399
▁her 2397
▁नाम 2396
▁about 2387
▁स 2387
▁पर्छ 2377
▁मानिसहरूलाई 2361
▁1 2351
u 2348
▁सिर्जना 2337
▁F 2325
▁They 2324
ड 2322
▁make 2303
▁son 2278
▁so 2274
▁use 2252
▁गरिनेछ 2247
e 2246
▁year 2241
ब 2240
▁K 2239
▁आफ्ना 2232
▁Plan 2228
amp 2216
रा 2216
▁त्यहाँ 2212
▁प्राप्त 2212
▁Nepal 2209
▁यसको 2206
ँ 2195
▁समय 2195
▁राजा 2192
▁प 2191
हरूमा 2189
▁तिमीहरू 2188
द 2185
ate 2184
▁वर्ष 2179
▁two 2177
▁hand 2176
h 2175
▁even 2171
▁भएका 2166
▁जस्तै 2161
▁परमेश्वरले 2155
▁because 2154
▁सु 2153
द्वारा 2149
▁come 2140
as 2136
▁जसले 2129
▁set 2124
▁वि 2124
▁T 2123
am 2121
▁कार्यक्रम 2121
at 2119
▁बचत 2118
री 2116
▁used 2116
▁निर्माण 2109
▁over 2108
r 2102
की 2101
▁than 2096
र् 2093
एको 2092
▁ज 2091
▁मानिस 2090
▁H 2087
▁G 2081
ै 2079
▁2 2079
▁p 2076
▁country 2068
on 2067
▁came 2067
▁विभिन्न 2065
c 2061
▁रहेको 2061
▁years 2060
p 2059
▁ग 2044
▁L 2038
▁There 2031
▁तिमी 2031
छ 2030
ग 2026
▁against 2023
l 2015
नु 2012
▁प्रत्येक 2008
▁सेवा 2004
▁government 2000
▁२ 1988
▁go 1986
▁गरेर 1984
नका 1983
▁तिमीहरूले 1983
▁any 1980
▁परिवर्तन 1980
▁उ 1971
▁those 1970
▁गर्दै 1968
▁some 1967
▁our 1965
▁work 1956
▁N 1954
▁such 1948
▁तपाईँको 1943
▁उपलब्ध 1940
ई 1935
▁सेट 1934
▁ए 1932
▁भन्दा 1925
दा 1915
it 1909
▁उहाँले 1907
▁जुन 1906
b 1899
सम्म 1899
ु 1891
ित 1883
d 1882
ah 1881
▁आर्थिक 1878
▁सञ्चालन 1878
▁त्रुटि 1875
▁व 1870
▁व्यवस्था 1868
▁त्यसपछि 1864
n 1857
ation 1849
▁us 1849
▁number 1847
▁period 1845
च 1837
▁percent 1824
▁... 1818
देखि 1815
▁men 1812
ो 1805
▁होइन 1803
▁उत्पादन 1801
▁ह 1793
▁उसले 1783
स् 1778
▁’ 1771
▁किनभने 1769
उ 1766
▁under 1765
▁गरेका 1764
▁रुपमा 1763
el 1756
▁परमेश्वर 1754
नी 1751
▁सकेन 1749
▁तपाईँ 1747
▁down 1743
▁first 1743
▁प्रति 1741
▁want 1740
▁५ 1737
▁given 1736
▁m 1736
▁When 1734
▁यसलाई 1729
▁क्षेत्रमा 1726
▁selected 1725
▁same 1722
नि 1721
▁अर्को 1717
▁water 1715
▁found 1711
▁सन्देश 1710
▁छोरा 1707
▁system 1706
▁then 1697
िक 1687
▁बि 1683
▁‘ 1681
▁हुन् 1676
भ 1663
g 1661
k 1661
▁many 1659
नेछ 1654
▁does 1653
▁छु 1652
▁says 1641
▁ठूलो 1639
▁went 1637
▁स्थापना 1629
▁b 1628
▁way 1626
ेको 1624
▁n 1624
वा 1612
▁ख 1610
▁पर्ने 1609
▁रु 1608
▁भन्नुभयो 1606
लो 1605
▁यस्तो 1601
▁through 1600
▁तिमीहरूलाई 1599
▁सि 1598
▁३ 1598
▁सुरु 1597
हरुलाई 1595
इ 1592
श 1588
▁पछि 1588
▁did 1586
▁प्रतिशत 1586
ौ 1572
▁यहाँ 1571
भन्दा 1569
is 1562
▁हे 1562
ौं 1559
▁गर्छ 1557
▁नि 1557
▁परमप्रभुको 1556
▁रङ 1556
▁ 1553
▁3 1553
▁साथै 1553
▁million 1549
ति 1547
▁Could 1547
f 1543
▁image 1541
▁तिमीले 1540
एका 1539
▁गरिने 1538
▁परमेश्वरको 1538
नले 1534
▁च 1534
▁हुनुहुन्छ 1532
▁place 1523
▁g 1522
ated 1518
हरूका 1518
▁during 1518
▁फेरि 1516
▁कारण 1511
▁now 1506
▁अब 1504
▁तिम्रो 1504
▁would 1503
▁current 1502
▁पाठ 1502
▁f 1500
▁take 1499
▁could 1498
▁No 1494
▁गरिएका 1494
▁सा 1490
▁things 1489
▁यसले 1489
हरुमा 1488
able 1486
▁गर 1480
▁J 1478
या 1476
▁छवि 1474
सित 1472
▁अहिले 1472
S 1470
ad 1469
▁list 1469
कको 1467
लि 1467
▁saying 1466
एर 1464
et 1463
▁As 1459
▁कृषि 1458
ि 1456
▁what 1456
▁sector 1455
▁भ 1455
▁Select 1452
ा 1450
im 1445
en 1444
▁know 1444
▁विशेष 1443
▁ले 1441
▁good 1440
▁plan 1434
ेर 1431
▁वस्तु 1429
▁हाम्रो 1429
▁इ 1428
▁सक्छ 1426
▁बन्द 1424
पछि 1421
▁text 1421
▁उनले 1418
रि 1405
कै 1403
▁days 1403
न्छ 1402
▁केडीई 1401
▁कम 1400
ent 1391
ीहरू 1391
▁या 1388
▁प्र 1383
▁key 1381
▁am 1380
माथि 1376
▁V 1376
▁जाँच 1369
▁४ 1364
▁increase 1363
▁घर 1362
▁माथि 1361
▁सक्नुहुन्छ 1361
▁very 1360
▁इस्राएलका 1360
▁सो 1359
▁दिनु 1357
▁window 1354
ment 1352
▁विश्वास 1352
▁मेरा 1350
▁कुराहरू 1344
छन् 1341
▁0 1341
▁कुञ्जी 1340
फ 1336
▁level 1333
▁हुनु 1333
▁per 1332
▁ना 1331
▁जे 1330
▁कृपया 1329
▁प्रयास 1329
▁भाग 1329
▁great 1328
▁फेला 1328
ap 1326
ur 1325
▁उसको 1319
▁देखि 1319
▁जस्तो 1317
▁श्री 1315
▁every 1313
▁कु 1310
▁राम्रो 1310
क् 1309
▁स्थानीय 1308
वि 1306
▁available 1305
ङ्ग 1304
▁5 1303
us 1302
▁where 1301
ू 1296
▁To 1294
▁while 1294
▁क्षेत्र 1293
▁यसकारण 1293
▁open 1291
▁So 1289
ली 1288
▁father 1288
▁सक्षम 1286
रे 1285
▁फोल्डर 1285
▁folder 1284
▁तिनीहरूको 1284
▁Then 1283
▁असफल 1281
पा 1280
▁Please 1279
▁W 1279
ती 1278
▁अघि 1276
▁\ 1275
▁सूची 1275
▁तिमीलाई 1273
् 1272
▁between 1272
▁आदेश 1272
v 1271
id 1269
रको 1268
▁किन 1265
▁पानी 1263
▁अनुमति 1262
▁तपाईं 1261
सा 1260
▁see 1260
▁उहाँ 1260
▁4 1259
C 1258
▁द 1258
▁according 1257
▁गरियो 1255
▁दिए 1252
▁r 1251
ण 1248
ख 1247
▁away 1247
▁right 1247
T 1245
▁Now 1244
▁different 1244
ant 1243
नलाई 1242
▁अरू 1238
▁प्रदर्शन 1236
▁end 1235
▁get 1234
▁l 1229
▁गए 1226
le 1225
▁पूरा 1223
st 1222
▁अवधिमा 1221
ak 1219
▁give 1218
▁दुई 1218
सी 1216
▁being 1216
▁ओ 1215
▁project 1211
▁three 1210
▁production 1208
▁सरकारी 1204
▁हालको 1202
ol 1200
▁सम्म 1200
ure 1199
▁लक्ष्य 1199
▁शिक्षा 1198
▁पवित्र 1196
्न 1195
म् 1192
▁= 1192
▁files 1192
▁देखिन्छ 1192
के 1191
लमा 1187
▁local 1187
तिर 1186
ch 1185
est 1182
▁मान 1182
re 1181
1 1180
th 1175
▁Lord 1175
सि 1174
▁she 1174
▁un 1174
▁पा 1171
ist 1170
लको 1168
▁Do 1168
▁life 1166
▁तपाईंले 1166
▁निर्दिष्ट 1165
कि 1162
▁among 1161
▁खाली 1161
▁again 1160
▁h 1160
▁order 1160
▁$ 1158
▁Therefore 1158
▁David 1154
▁आएको 1154
संग 1153
▁बा 1153
▁Rs 1152
▁own 1152
▁शहर 1149
▁भनेर 1148
▁कुल 1147
▁हामीले 1146
▁information 1143
2 1142
▁well 1142
जा 1141
os 1140
▁left 1140
▁लि 1139
w 1137
▁सञ्झ्याल 1136
▁another 1135
▁क्लिक 1133
▁देश 1133
▁हाल 1133
▁# 1132
नेछन् 1131
▁put 1130
▁color 1129
▁Error 1126
▁जडान 1125
ध 1124
▁say 1124
il 1123
▁brought 1121
▁must 1121
▁वृद्धि 1121
सको 1120
▁heart 1120
▁पर्दछ 1120
▁हुँदैन 1120
▁पहिले 1118
A 1117
▁उनी 1117
▁जीवन 1117
▁पूर्वनिर्धारित 1117
▁तयार 1115
अ 1114
▁here 1114
▁city 1113
▁called 1112
▁world 1112
▁तपाईंको 1112
4 1111
▁चाहनुहुन्छ 1111
▁sons 1110
▁हामीलाई 1110
ताको 1108
ल् 1107
▁यसर्थ 1107
▁नेपाली 1105
▁मुख्य 1105
3 1104
▁सूचना 1100
▁नेपाल 1097
उने 1096
▁स्थान 1094
▁let 1090
▁type 1090
▁नीति 1090
▁य 1089
▁स्वास्थ्य 1089
▁रो 1086
▁बाहिर 1085
▁समयमा 1085
ab 1084
ऊ 1083
▁sent 1083
▁उसलाई 1080
रो 1078
▁All 1078
um 1077
दै 1074
ies 1071
ity 1070
▁* 1069
▁server 1069
▁बृद्धि 1064
▁O 1063
थ 1060
▁program 1060
▁होस् 1059
▁अथवा 1058
▁दिने 1057
▁view 1055
▁श 1055
▁स्थिति 1055
उन 1054
▁value 1053
▁दि 1052
▁यसरी 1052
▁जा 1051
▁After 1050
हा 1045
▁projects 1045
▁st 1045
▁सं 1045
▁त्यही 1044
▁भनी 1043
▁v 1041
▁प्रकार 1040
6 1039
ath 1039
▁मानिसले 1039
मको 1038
▁area 1033
▁earth 1033
▁word 1033
जी 1032
रमा 1032
▁necessary 1032
un 1030
▁message 1030
▁समेत 1030
▁part 1029
▁प्रणाली 1029
▁सुधार 1029
▁प्रविष्ट 1028
्यो 1027
▁don 1027
om 1026
▁पहिलो 1026
्ने 1025
ations 1023
ra 1022
▁public 1022
▁समस्या 1020
▁done 1018
z 1017
E 1015
▁economic 1015
ia 1014
▁power 1013
हरुले 1011
▁गरिन्छ 1010
▁विकल्प 1005
▁पार्न 1004
▁फ 1003
▁7 1002
रहेको 1001
बा 1000
8 999
ay 996
▁took 996
▁w 996
▁सकिन्छ 996
▁taken 995
ag 994
ness 994
▁E 994
▁body 994
मि 992
▁छौ 992
▁जना 992
ion 991
ite 990
▁विस्तार 990
▁९ 990
▁health 989
▁अनुमान 989
▁मि 988
▁करोड 987
▁ल 987
▁women 986
ings 985
० 985
▁X 985
▁अध्ययन 985
▁उच्च 983
5 982
7 982
▁We 982
▁प्रदान 982
▁भित्र 982
▁re 980
▁using 979
▁से 977
टा 976
▁खोजी 975
तर्फ 973
▁ch 973
्य 972
▁8 972
▁पि 972
M 970
▁old 970
▁without 968
▁शक्ति 968
▁areas 965
ir 964
ot 964
▁data 964
▁७ 963
ङ 962
▁how 961
▁option 961
टी 960
▁Use 960
▁long 960
रहेका 959
▁बेला 958
▁अनुसार 957
▁last 955
▁programmes 954
▁विषयमा 954
ive 953
x 953
▁Jesus 953
▁k 952
▁हुन्छन् 952
▁default 950
▁find 950
▁तल 950
▁create 949
▁सकिँदैन 949
▁ट 948
▁परि 947
▁ला 947
भित्र 946
▁अक्षम 946
▁बे 946
P 943
▁each 943
▁Cannot 942
▁योजनाको 940
▁Sh 939
▁नियन्त्रण 939
▁bring 938
▁त्यसको 938
B 936
ai 936
नै 935
▁स्रोत 935
gt 933
▁हा 933
▁हाम्रा 933
▁६ 931
▁खा 929
▁6 927
▁कार्यान्वयन 926
ating 924
▁high 923
▁increased 923
▁line 923
▁total 922
▁तीन 922
▁पाप 922
▁`` 920
टि 919
▁नाउँ 919
▁सम्पादन 919
▁An 918
▁सम्पूर्ण 918
▁food 917
▁help 916
कमा 915
▁error 915
▁field 915
त् 914
▁Ch 914
▁सक्ने 914
ठ 913
▁उहाँको 912
्या 911
▁service 911
▁services 911
डि 909
कले 907
▁मे 907
▁८ 907
छु 905
D 903
▁गर्यो 903
▁मु 902
▁What 901
▁due 900
▁सहयोग 900
▁लिएर 898
▁Show 896
▁education 896
▁डेटा 895
ance 894
▁१० 894
▁आदि 893
▁Re 892
▁already 891
▁प्रयोगकर्ता 890
▁both 889
▁process 889
▁चि 889
▁उद्योग 888
▁पार्नुहोस् 888
१ 887
▁e 886
▁घ 885
▁थप 884
▁बाट 884
▁मुद्रण 883
▁सहायता 883
▁हात 883
अनुसार 882
▁गरि 882
ine 881
▁command 880
▁following 880
▁पूर्ण 880
▁भएर 880
ut 878
▁started 878
▁तिनीहरूका 878
he 877
▁अवस्थित 877
ary 876
▁कसैले 876
कार 874
▁need 874
▁छैनन् 873
ish 872
▁10 872
▁गर्छन् 872
▁लोड 872
▁मूल्य 871
▁ड 870
,000 868
ig 867
ेका 867
▁According 867
▁ऊ 867
▁गा 867
▁प्रमुख 867
▁पिता 866
ul 865
ेल 865
▁जि 865
▁जहाँ 864
▁भन्नु 863
डा 862
▁read 862
▁India 860
▁लगानी 860
डी 859
▁user 858
▁क्षेत्रको 858
R 857
op 855
सले 855
▁These 855
▁offering 853
▁येशूले 853
▁रोग 852
▁लाई 852
क्स 850
▁become 850
▁थाहा 850
ार 849
▁four 849
▁देशको 849
ions 847
से 847
▁बढ 846
▁रा 845
▁-- 844
▁बनाउन 844
▁Moses 842
▁दुष्ट 842
ical 841
ip 840
▁बाटो 840
उनु 839
▁change 839
▁छा 839
▁most 838
▁various 838
▁गर्नका 838
▁around 836
▁And 835
▁तिमीहरूको 834
▁देशमा 834
▁तिमीहरूका 832
▁बो 832
गा 831
▁भूमि 831
and 829
▁सुविधा 829
ंग 828
▁आयात 828
▁market 827
▁बारेमा 827
▁construction 826
▁उपयोग 826
ाइ 825
▁अर्थ 825
▁9 824
▁Judah 823
▁therefore 823
▁गर्नेछ 822
▁देखाउनुहोस् 822
▁हजार 822
▁x 821
▁एवं 820
▁U 819
▁जन 819
▁आफ्नै 818
age 816
▁आवश्यकता 816
▁national 815
▁until 815
▁Unable 814
▁मन 814
▁growth 813
▁nor 812
▁works 812
▁ति 811
▁भएमा 811
▁हरेक 810
▁हुँदा 810
न्त 809
▁रू 809
▁लाख 808
▁At 807
▁present 806
ang 805
▁private 804
▁blood 803
▁दिएको 803
▁निम्न 802
▁Jerusalem 801
▁resources 801
▁policy 799
▁thousand 799
▁जाने 799
9 798
▁save 798
▁show 797
▁सङ्ख्या 797
ही 796
▁ता 796
कु 795
▁able 795
▁off 795
▁खर्च 795
मी 794
▁St 794
▁eat 794
▁She 793
▁foreign 793
▁समूह 793
up 791
ast 790
▁didn 790
▁dis 790
▁थिएन 789
▁भन्नुहुन्छ 789
▁० 789
कहरू 788
▁Kathmandu 786
▁मानिसहरूको 785
▁त्यसैले 783
▁प्रतिलिपि 783
▁व्यक्ति 783
▁अझ 782
▁back 781
▁उनको 781
▁नष्ट 781
▁Behold 780
▁एकजना 780
▁ठीक 780
नो 779
▁हुँ 779
▁तिनले 778
▁देखा 778
▁head 777
▁training 777
▁प्रभाव 777
▁मो 777
▁programme 776
ro 775
सम्बन्धी 775
▁+ 775
▁Whether 774
▁small 774
se 772
j 771
▁रि 771
प्र 770
▁उत्तर 770
▁side 769
▁much 768
▁निश्चित 767
▁साथ 767
जि 765
▁अधिकार 763
▁सेटिङ 763
▁योजनामा 762
ाउ 761
▁situation 761
▁support 761
▁उपकरण 761
बि 760
▁rate 760
ाउन 759
▁आज 759
ors 758
▁अन्तिम 758
▁पु 758
F 757
▁words 757
▁विदेशी 756
▁पूर्व 755
पी 754
▁above 754
▁fire 754
ण्ड 753
नाको 750
▁त्यसलाई 750
▁निजी 750
मो 749
▁गएको 749
ous 748
२ 747
▁लेख 747
▁whom 746
▁यसो 746
▁विचार 746
av 745
▁रहेका 745
▁Thus 744
▁अति 743
▁जम्मा 743
▁population 742
▁संस्था 742
हे 741
▁sh 741
▁आए 741
▁etc 740
▁कति 740
▁सम् 740
▁On 739
▁group 739
▁तिनी 739
▁Set 738
▁document 738
▁tell 738
▁लग 735
▁हुनेछन् 734
▁start 732
▁आयोजना 732
▁law 730
▁तह 730
▁display 729
▁possible 729
▁कसरी 729
▁जति 728
▁ठाउँमा 728
are 727
पूर्ण 727
▁मानिसको 727
ter 726
ain 725
पि 725
▁New 725
▁समावेश 725
५ 724
▁main 724
▁saw 724
▁भई 724
आ 723
टर 723
प् 723
▁button 723
▁व्यापार 723
O 721
ash 721
▁पुन 721
▁सक्रिय 721
्नु 720
▁उक्त 720
▁जिल्ला 719
ise 718
गत 718
▁येशू 718
▁समाप्त 718
दि 717
▁cannot 717
▁झ 717
▁डाइरेक्टरी 717
▁full 716
▁तालिम 716
▁दिन्छ 716
▁वटा 716
ाल 714
▁Z 714
▁राज्य 714
▁keep 713
▁कारणले 713
▁सानो 713
मका 712
▁कागजात 712
▁might 710
ari 709
प्रति 709
▁My 709
▁जोड 709
▁यस्ता 709
नेछु 708
▁Enter 708
▁महिला 708
▁माग 708
▁बजार 707
▁function 705
▁छोरो 705
▁सी 705
ीको 704
▁Let 704
▁neither 704
कहाँ 703
▁special 703
▁केन्द्र 703
▁खोल्न 703
▁पालन 703
कालागि 701
▁provide 700
ष्ट 699
▁उप 699
ri 698
▁important 698
▁investment 698
▁परिवार 698
▁समर्थन 698
ge 697
स्ट 697
▁असल 697
▁डलर 697
▁heard 696
▁non 696
▁उद्देश्य 696
0 693
ममा 693
दैन 692
ites 691
शा 690
▁पत्र 689
▁दुवै 688
▁यसमा 688
ard 687
▁गर्नुभयो 687
▁ने 687
▁directory 685
▁ध्यान 685
▁still 684
▁size 683
▁दण्ड 683
ac 682
▁together 682
▁हु 682
▁Create 681
▁sc 681
▁राज 681
▁control 680
▁child 679
▁next 679
▁yet 677
▁गर्नुहुन्छ 677
▁जान 676
न्ट 675
नुभयो 674
▁just 672
▁कोही 672
▁लागू 672
▁run 671
४ 670
▁यही 670
als 669
▁district 669
L 668
पर्छ 668
▁facilities 668
▁gave 668
▁ठेगाना 668
▁स् 668
G 667
em 665
▁ठाउँ 665
यन 664
▁activities 664
▁dialog 663
▁hundred 663
▁पो 663
ans 662
तमा 662
्र 662
▁eyes 662
▁problem 662
▁घट 662
▁महा 662
▁o 661
▁महत्वपूर्ण 661
▁वितरण 661
सु 660
▁मानिसलाई 659
▁राष्ट्र 659
▁changes 658
▁उपयुक्त 658
नामा 657
ाउने 657
▁sub 657
खा 656
स्त 656
▁past 656
▁अनुसन्धान 656
▁पासवर्ड 656
▁बाल 656
▁मद्दत 656
▁सरकारले 656
तामा 655
▁countries 655
N 652
▁सामाजिक 652
ally 651
हरूबाट 651
▁specified 651
▁प्रक्रिया 651
▁himself 650
ib 649
▁अझै 649
▁point 648
▁social 648
▁लामो 648
▁सक्दैन 648
कर्ता 646
दो 646
▁Egypt 646
▁Your 646
▁बटन 646
▁सत्य 646
▁Mr 645
od 644
ub 644
▁Nepali 644
▁जानकारी 644
▁Save 643
▁दु 643
▁निर्यात 643
▁basis 642
▁evil 642
▁झैं 642
▁action 641
रले 640
▁sp 640
▁शि 640
▁person 639
▁ध 639
▁सम्बन्धित 639
▁सर्भर 639
▁त्यस्तै 638
▁विकासको 638
क्ष 637
▁आधारमा 637
▁पटक 637
▁परियोजना 636
▁शब्द 636
▁हि 636
▁मूल 635
▁select 634
रका 633
ized 632
▁within 632
ach 630
न्द 630
▁आज्ञा 630
▁प्रार्थना 630
▁जवाफ 629
▁Christ 628
▁live 628
▁दृश्य 628
▁सडक 628
ile 627
▁mother 627
▁राख्न 627
समा 626
▁thing 626
▁failed 625
▁कहाँ 625
▁मृत्यु 625
ीय 624
▁Failed 624
▁ग्रामीण 624
▁घटना 624
▁मार्ग 624
▁सुन 624
▁road 623
▁खुशी 623
▁गु 623
करण 622
▁too 622
▁जी 622
जु 621
▁trade 621
▁प्रेम 621
▁object 620
▁स्पष्ट 620
▁seen 619
▁गर्नुहोस्ः 619
▁चु 619
▁&#93; 618
▁कन्फिगर 618
दछ 616
ाँ 616
छौ 615
६ 615
ङ् 613
▁प्रकारको 613
I 612
▁KDE 612
▁face 612
\ 611
▁established 610
▁spoke 610
▁estimated 609
▁light 609
▁month 609
▁आउने 609
▁अन्त्य 608
▁तापनि 608
▁– 607
▁money 606
▁अवस्थामा 606
▁गो 606
▁मह 605
तको 604
▁सामान्य 604
▁target 603
▁forth 602
▁source 602
▁अवस्था 602
▁कहिल्यै 602
▁भेट 602
▁वर्णन 602
ोस् 601
▁Development 601
▁आइ 601
ग् 600
जना 600
मै 600
▁20 600
▁nations 600
▁भाइ 599
▁भू 599
▁How 598
▁brothers 598
▁घरमा 598
ीहरूको 597
▁completed 597
▁five 597
▁hands 597
▁् 597
▁enter 596
▁दिनुहोस् 596
▁थिएँ 595
▁न्याय 594
९ 593
▁messages 593
▁rest 593
▁लिन 593
▁खेल 592
▁फिल्टर 592
▁ऋण 591
▁मेल 591
नेछौ 590
▁book 590
▁death 590
▁home 590
न्ड 589
न्न 589
▁top 589
▁&#91; 588
▁voice 588
▁टि 587
▁address 586
▁खु 586
ow 585
ीहरूले 585
▁His 585
▁गर्नुपर्छ 585
▁साधन 585
og 584
▁gold 584
▁स्वचालित 584
ize 583
▁साना 583
ue 582
तिको 582
ization 581
▁Don 580
▁j 580
▁themselves 580
▁whether 580
▁संख्या 580
▁अनुप्रयोग 579
▁काठमाडौं 579
▁विषय 579
▁००० 579
▁move 578
▁provided 578
▁अगाडि 578
▁चार 578
▁निर्णय 578
झ 577
▁access 577
▁happened 577
▁तपाईँलाई 577
मले 576
▁उठ 576
ाउनु 575
७ 575
▁बु 575
▁format 574
▁नगर 574
▁मोड 573
ुल 572
▁family 572
▁increasing 572
▁lack 572
बारे 571
ारी 571
▁@ 571
▁रेखा 571
▁साधारण 570
न्छन् 569
३ 569
▁आएका 569
▁तिनका 569
▁१५ 569
▁password 568
▁परेको 568
▁During 567
▁woman 567
▁उनलाई 567
▁यसका 567
▁हुँदै 566
भि 565
ारा 565
ीहरूलाई 565
▁speak 565
▁sure 565
▁company 564
त्मक 563
▁File 563
▁agricultural 563
▁comp 563
▁priest 563
lt 562
▁आधार 562
▁खो 562
▁गर्दैछ 562
▁However 561
▁financial 561
▁mode 560
▁times 560
▁पार् 560
▁फन्ट 560
▁स्थानमा 560
ओ 559
▁जस्ता 559
कलाई 558
▁Seventh 558
▁servant 558
▁खास 558
▁यहूदाका 558
मान 557
मे 557
▁Open 557
▁oil 557
▁ज्ञान 557
▁तर्फ 557
ire 556
▁disease 556
▁problems 556
▁गयो 556
ates 555
ial 555
▁young 554
▁दिनुभयो 554
▁page 553
▁seven 553
▁नेपालको 553
▁१२ 553
00 552
मध्ये 552
▁became 552
▁brother 552
▁search 552
▁since 552
▁गराउन 552
ism 551
▁fathers 551
▁पशु 551
▁पृष्ठ 551
▁यु 551
▁निर्धारण 550
▁नेपालमा 550
▁पी 550
▁वर्षको 550
▁Go 549
▁application 549
▁behold 549
▁पहुँच 549
टमा 548
▁12 548
▁गर्नुपर्ने 548
les 547
दी 547
▁required 547
▁गर्छु 547
▁विवाह 546
न्स 545
ष 545
हि 545
▁आन्तरिक 545
ry 544
▁स्तर 544
ens 543
▁love 543
▁servants 542
▁shown 542
▁त्यस्तो 542
▁सन् 542
ep 541
▁state 541
▁वर्षमा 541
▁संवाद 541
az 540
▁means 540
▁अवैध 540
▁यसै 540
ढ 539
र्ने 539
▁Because 539
▁large 539
▁less 539
▁छौं 539
बी 538
▁कर्मचारी 538
▁दिइएको 538
ator 537
▁addition 537
▁गर्दैन 537
▁पछिल्लो 536
▁Click 535
▁Y 535
▁cities 535
▁सब 535
▁सारा 535
्रो 534
▁मध्ये 534
ik 533
▁चिन्ह 533
हो 532
ेक 532
▁capital 532
▁village 532
▁सकिने 532
▁प्राथमिकता 531
ian 530
एल 530
▁add 530
▁rural 530
▁supply 530
▁तिम्रा 530
▁दायाँ 530
▁बस्ने 530
Y 529
ver 529
था 529
बो 529
▁distribution 529
▁war 528
▁जसलाई 528
▁परमेश्वरलाई 528
▁भाषा 528
▁school 527
त्र 526
रू 526
▁Un 526
▁जान्छ 526
अन्तर्गत 525
टको 525
▁One 525
▁दाऊदले 525
▁प्रभावकारी 525
▁यसैले 525
red 524
▁cut 524
▁sin 524
▁table 524
▁अनु 524
▁गराउने 524
▁गुण 524
▁त्यसले 524
▁expected 523
▁export 523
ail 522
ब् 522
▁written 522
▁प्रविष्टि 522
▁वन 522
ars 521
▁holy 521
▁ढाँचा 521
▁बिक्री 521
नुहुन्छ 519
▁dead 519
▁peace 519
▁सही 519
its 518
▁pre 518
▁राष्ट्रिय 518
▁औद्योगिक 517
▁सातौं 517
▁अव 516
▁प्लगइन 516
ve 515
टो 515
▁implemented 515
▁तेल 515
▁बनाउने 515
ie 514
▁Add 514
▁Some 514
▁पढ्न 514
▁साइज 514
▁living 513
▁near 513
▁दा 513
▁बिन्दु 513
▁भि 512
▁हेर्न 512
र्न 511
▁By 511
रह 510
सन 510
▁de 510
▁आशा 510
▁उहाँलाई 510
▁चा 510
▁मन्दिर 510
ting 509
▁check 509
▁industrial 509
▁result 509
▁नभएको 509
▁पर् 509
▁संस्करण 509
ob 508
▁That 508
▁wife 508
ale 507
ful 507
▁account 507
▁निकासी 507
▁प्राविधिक 507
▁विरूद्ध 507
▁सुरक्षित 507
ore 506
▁mouth 506
▁अरु 506
▁भनेको 506
▁शहरमा 506
ेश 505
▁cause 505
▁known 505
▁आत्मा 505
▁त्यसै 505
▁15 504
▁places 504
▁region 504
▁आयो 504
▁send 503
▁कन्फिगरेसन 503
▁पढ 503
▁राष्टि्रय 503
▁answered 502
▁कायम 502
▁सँग 502
ce 501
ud 501
एन 501
पर्ने 501
▁Even 501
▁share 501
▁गाउँ 501
▁बता 501
▁स्तम्भ 501
sh 500
८ 500
▁far 500
▁भनि 500
▁सदस्य 500
▁हुनुपर्छ 500
रुपमा 499
▁amount 499
ists 498
▁created 498
▁path 498
▁research 498
▁नदी 498
ines 497
▁agriculture 497
▁ठूला 497
हु 496
▁case 496
▁नियम 496
▁सकिएन 496
ments 495
▁going 495
▁told 495
▁छोरी 495
▁सय 495
▁स्ट 495
ृ 494
▁Congress 494
▁log 494
चा 493
▁always 493
▁निकै 493
▁comes 492
ick 491
▁configuration 491
▁रह 491
ell 490
ड् 490
सो 490
▁Man 490
▁राजाले 490
जन 489
▁connection 489
▁few 489
▁पर्दा 489
▁सम्पर्क 489
oc 488
▁le 488
▁पर 488
▁सकेको 488
ities 487
रु 487
▁little 487
▁mail 487
▁disc 486
▁whole 486
▁द्वारा 486
र्थ 485
ts 484
▁National 484
▁values 484
▁बनाउनु 484
▁बायाँ 484
▁संलग्न 484
▁सबैभन्दा 484
▁date 483
▁free 483
▁{ 483
▁गरिरहेका 483
▁छैठौं 483
▁तर्जुमा 483
led 482
पु 482
्रा 482
▁business 482
▁low 482
▁play 482
▁selection 482
▁प्रतिमा 482
▁प्रतिशतले 482
▁second 481
▁soul 481
▁उत्पन्न 481
▁भएन 481
ative 480
▁Be 480
▁pl 480
▁बनाए 480
टे 479
▁Not 479
▁irrigation 479
▁language 479
▁remove 479
▁योग्य 479
थि 478
▁hear 478
▁अतिरिक्त 477
▁नराम्रो 477
pl 476
▁active 476
▁se 476
▁version 476
▁} 476
▁पुर्या 476
▁शान्ति 476
W 475
ice 475
लामा 475
▁Th 475
▁settings 475
▁अनुभव 475
▁उचित 475
▁मर् 475
▁संरक्षण 475
▁सङ्केत 475
▁आई 474
▁सर् 474
oth 473
दिन 473
वार 473
▁थाले 473
▁युद्ध 473
▁सम्बन्धी 473
art 472
▁From 472
▁commanded 472
▁night 472
▁मार् 472
▁स्वीकार 472
▁existing 471
▁valid 471
▁प्रगति 471
▁फरक 471
▁सुरक्षा 471
▁16 470
▁अन्त 470
▁कहिले 470
▁गर्नेछन् 470
▁छोराहरू 470
▁forest 469
▁दुइ 469
▁Sixth 468
▁व्यवहार 468
▁सम 468
लेको 467
▁जनसंख्या 467
यर 466
▁write 466
▁चीज 466
▁मालिक 466
▁३० 466
ged 465
पो 465
लले 465
ान 465
▁column 465
▁खान 465
▁चाल 465
▁पुनः 465
▁५० 465
ered 464
▁form 464
▁उपचार 464
▁विश्व 464
▁समा 464
▁सम्झ 464
man 463
▁menu 463
▁शुरू 463
▁हौ 463
वी 462
▁Enable 462
▁drink 462
▁प्रस्तुत 462
▁फाइलहरू 462
▁मिति 462
▁लु 462
▁making 461
▁डा 461
▁डि 461
▁दर 461
▁> 460
▁districts 460
▁सरकार 460
द् 459
▁goods 459
▁जारी 459
लागि 458
▁जानु 458
▁त्यति 458
▁दुःख 458
▁भो 458
▁position 457
▁return 457
▁फाइलमा 457
ets 456
ha 456
ind 456
▁Can 456
▁class 456
▁भारत 456
▁सोच 456
▁जु 455
▁दोस्रो 455
▁पार 455
▁वचन 455
▁Check 454
▁billion 454
▁क्षमता 454
▁थ 454
▁पद 454
▁मध्य 454
ling 453
ाली 453
▁Why 453
▁considered 453
▁मिलियन 453
▁वरिपरि 453
▁शरीर 453
▁सधैं 453
जस्ता 452
रण 452
▁strong 452
▁अनुरोध 452
▁पे 452
▁बस् 452
▁i 451
▁sword 451
ill 450
कका 450
▁With 450
▁al 450
▁sl 450
घ 449
▁लाइन 449
▁सेयर 449
▁हटाउन 449
▁Ex 448
▁import 448
▁related 448
▁ठ 448
▁भएकोले 448
▁पारि 447
▁भन्न 447
H 446
▁30 446
▁fear 446
उँछ 445
▁forever 445
▁industries 445
▁शुद्ध 445
पत्र 444
▁y 444
▁रगत 444
▁सात 444
▁स्वतन्त्र 444
सलाई 443
▁Similarly 443
▁daughter 443
▁received 443
▁अमेरिकी 443
▁गर् 443
all 442
चि 442
▁Nepalese 442
▁कार्यमा 442
▁ख्रीष्ट 442
▁तिर 442
▁यन्त्र 442
▁शुरु 442
▁सार्वजनिक 442
हर 441
▁ई 441
क्त 440
▁images 440
▁यसबाट 440
▁रे 440
▁विवरण 440
नाले 439
▁additional 439
▁भिडियो 439
▁२० 439
ited 438
नुहोस् 438
▁Are 438
▁look 438
▁पक्ष 438
▁भइरहेको 438
ence 437
▁location 437
▁nation 437
▁reached 437
▁अन्तर्गत 437
out 436
▁instead 436
▁आकाश 436
▁यति 436
ake 435
▁network 435
▁res 435
▁छन 435
▁नियमित 435
▁स्व 435
हरुबाट 434
▁environment 434
▁working 434
▁नम्बर 434
▁बस 434
▁ल्याउन 434
▁१९ 434
per 433
▁18 433
▁] 433
▁दाऊद 433
▁प्रमाणपत्र 433
▁लागेको 433
▁११ 433
aw 432
गि 432
▁needs 432
▁opened 432
▁एस 432
▁टाढा 432
▁प्राथमिक 432
▁भूमिका 432
▁string 431
तो 430
▁kept 430
▁reason 430
▁बुझ 430
▁यस्तै 430
▁राख्ने 430
▁समाचार 430
ok 429
जे 429
त्य 429
भा 429
ेट 429
▁implementation 429
▁today 429
▁एउटै 429
▁देखे 429
▁परमप्रभुलाई 429
ised 428
▁car 428
▁post 428
▁tree 428
▁बग 428
ute 427
▁Al 427
▁ground 427
▁सक् 427
्रे 426
▁output 426
▁though 426
▁turn 426
▁क्रममा 426
▁डेस्कटप 426
▁भन 426
▁सत्र 426
▁१८ 426
▁Due 425
▁currently 425
▁progress 425
▁कतिपय 425
▁खोल्नुहोस् 425
▁तपाईंलाई 425
▁स्ट्रिङ 425
▁demand 424
▁economy 424
▁price 424
▁गरें 424
▁फि 424
▁वर्ग 424
ted 423
बार 423
▁bread 423
▁items 423
▁तिनलाई 423
▁रूपले 423
▁२५ 423
▁प्रविधि 422
▁राख्नु 422
hi 421
ified 421
▁installed 421
▁अस्वीकार 421
” 420
▁Saul 420
▁based 420
▁coming 420
▁fact 420
▁pass 420
▁sky 420
▁अभि 420
▁आफू 420
▁तालिका 420
▁ex 419
▁kind 419
▁knowledge 419
▁morning 419
▁पङ्क्ति 419
▁बीचमा 419
▁सम्पन्न 419
X 418
less 418
▁देऊ 418
▁प्रकार्य 418
▁शासन 418
▁शैली 418
कारी 417
लाको 417
सका 417
▁including 417
▁third 417
▁छोड 417
▁दक्षिण 417
▁प्रशंसा 417
▁फे 417
ures 416
्रि 416
▁below 416
▁गर्नेछु 416
ass 415
ष् 415
▁mind 415
▁screen 415
▁टुक्रा 415
▁राखिएको 415
▁वास्तविक 415
▁fall 414
▁meeting 414
▁operation 414
▁आमा 414
▁इच्छा 414
▁गरिरहेको 414
uk 413
▁ad 413
▁police 413
▁कार्यालय 413
▁मानिसहरूका 413
▁हासिल 413
▁lot 412
▁society 412
▁निर् 412
▁फु 412
▁Mah 411
▁box 411
▁cont 411
▁effect 411
▁management 411
▁आधारित 411
▁वस्तुहरू 411
ight 410
▁general 410
▁self 410
▁study 410
our 409
कोलागि 409
▁months 409
▁दिनेछु 409
▁भन्छन् 409
▁समाधान 409
K 408
र्या 408
▁sound 408
▁टा 408
▁मेनु 408
▁व्यवस्थापन 408
▁सम्बन्ध 408
ङ्ध 407
य् 407
▁call 407
▁priests 407
▁report 407
▁नग 407
▁प्ले 407
▁लुगा 407
iv 406
दिए 406
यौ 406
▁cast 406
▁item 406
▁चित्र 406
▁हर 406
one 405
ters 405
ज् 405
याह 405
▁con 405
▁min 405
▁खेती 405
▁दिइ 405
▁१३ 405
डे 404
▁game 404
▁half 404
▁poor 404
▁पाइ 404
hes 403
धि 403
▁develop 403
▁efforts 403
▁try 403
▁सुरुआत 403
.1 402
एस 402
धा 402
▁Am 402
▁inter 402
▁तत्व 402
▁भूमिमा 402
समेत 401
▁effective 401
▁glory 401
▁आक्रमण 401
▁उनीहरू 401
▁दश 401
▁पाउने 401
▁रहने 401
▁सीमित 401
ual 400
▁असर 400
▁उनका 400
▁कुन 400
▁गर्दछन् 400
▁सीमा 400
ished 399
काको 399
▁11 399
▁developed 399
▁office 399
▁sea 399
▁short 399
▁महिना 399
els 398
पन 398
र्ड 398
▁अस 398
▁पाल 398
▁भु 398
▁मिश्र 398
▁मेट्न 398
ana 397
ious 397
▁stood 397
▁technical 397
▁उल्लेख 397
▁गैर 397
▁लिङ्क 397
▁[ 396
▁farmers 396
▁layer 396
▁policies 396
▁पर्यटन 396
▁विस्तृत 396
लका 395
▁Ar 395
▁था 395
▁पूजा 395
▁पूजाहारी 395
▁प्रश्न 395
▁बलि 395
▁भइ 395
▁रकम 395
▁सक्छन् 395
▁50 394
▁Color 394
▁income 394
▁फल 394
ins 393
ल्या 393
▁25 393
▁Is 393
▁click 393
▁cost 393
▁ten 393
▁why 393
▁पृथ्वी 393
पे 392
वाद 392
▁interest 392
▁nothing 392
▁organization 392
▁प्रकारले 392
▁सफल 392
arm 391
iah 391
गो 391
वटा 391
▁asked 391
▁quot 391
▁regular 391
▁true 391
▁केवल 391
▁पहिला 391
▁वित्तीय 391
हरुका 390
▁hard 390
▁having 390
▁tool 390
▁तेस्रो 390
▁परेन 390
▁संयुक्त 390
▁political 389
▁अन्न 389
सँगै 388
▁changed 388
▁co 388
▁example 388
▁वार्षिक 388
द्ध 387
▁Jacob 387
▁doesn 387
▁कम्पनी 387
▁डे 387
▁१६ 387
ains 386
ics 386
्री 386
▁Of 386
▁democracy 386
▁human 386
▁अपना 386
▁प्याकेज 386
▁भवन 386
▁रक्षा 386
▁होला 386
ph 385
▁हेर 385
▁इस्राएल 384
▁नगर्ने 384
▁पुगेको 384
▁फोटो 384
▁बाँकी 384
▁flesh 383
▁येशूलाई 383
▁स्वत 383
ust 382
एँ 382
▁empty 382
▁load 382
▁तरिकाले 382
▁पार्ने 382
▁१४ 382
कल 381
भर 381
▁border 381
▁major 381
▁priority 381
▁कालो 381
मु 380
शि 380
▁carried 380
▁die 380
▁industry 380
▁keys 380
▁गत 380
▁ढ 380
▁दास 380
▁पुरानो 380
▁प्रस्ताव 380
▁altar 379
▁built 379
▁choose 379
▁exists 379
▁higher 379
▁whose 379
▁वातावरण 379
▁शहरहरू 379
जस्तो 378
▁delete 378
▁killed 378
▁कल 378
▁विज्ञान 378
▁सञ्जाल 378
▁सदा 378
▁हुनाले 378
▁हेर्नुहोस् 378
ty 377
उँदै 377
नीको 377
र्म 377
▁Con 377
▁Government 377
▁others 377
▁status 377
▁पत्नी 377
▁बहु 377
दार 376
▁cl 376
▁database 376
▁exp 376
▁feet 376
▁meet 376
▁midst 376
▁role 376
▁toward 376
▁गुप्तिकरण 376
▁मात्रामा 376
▁मोशाले 376
▁साम 376
▁Ab 375
▁Image 375
▁अधिकतम 375
▁परीक्षण 375
io 374
▁parts 374
▁sun 374
▁निर्गत 374
▁शक्तिशाली 374
योग्य 373
▁appropriate 373
▁आवाज 373
▁टो 373
▁पहिल्यै 373
▁यरूशलेम 373
▁real 372
▁चौथो 372
▁पुत्र 372
ents 371
▁previous 371
▁seed 371
▁आय 371
▁गर्नुभएको 371
▁छो 371
▁दाज्यू 371
▁दिनमा 371
▁प्रधान 371
▁महान 371
ward 370
थ्यो 370
नन् 370
▁capacity 370
▁host 370
▁programs 370
▁task 370
▁अंश 370
▁विकासमा 370
▁शत्रु 370
pt 369
ving 369
बीच 369
▁print 369
▁खाने 369
▁लगइन 369
▁वैध 369
ition 368
थे 368
▁background 368
▁chief 368
▁प्रतिवेदन 368
▁बी 368
▁बेलामा 368
▁यात्रा 368
म्प 367
ारि 367
▁Bank 367
▁age 367
▁lines 367
▁pro 367
▁क्रमशः 367
▁टे 367
▁प्रचार 367
▁बीच 367
▁भन्यो 367
▁device 366
▁future 366
▁roads 366
▁saved 366
▁गति 366
▁चो 366
▁थप्नुहोस् 366
▁परा 366
▁एकै 365
▁कष्ट 365
▁गर्यौ 365
▁जाति 365
▁पर्यो 365
▁भेडा 365
▁याद 365
▁सम्पत्ति 365
ord 364
्छ 364
▁Only 364
▁बनाउनुहोस् 364
▁समान 364
▁समिति 364
▁सामग्री 364
ages 363
▁bar 363
▁never 363
▁अत्यन्त 363
▁गलत 363
▁यातायात 363
▁साल 363
▁हालै 363
डो 362
▁fl 362
▁lived 362
▁u 362
▁पृष्ठभूमि 362
▁पैसा 362
▁प्रतिज्ञा 362
▁प्रभु 362
▁भा 362
दैछ 361
▁black 361
▁names 361
▁प्रवेश 361
▁राखे 361
▁राजाको 361
ants 360
▁HTML 360
▁began 360
▁kill 360
▁running 360
▁turned 360
▁आफूलाई 360
▁कारोबार 360
▁पाए 360
▁रोटी 360
र्य 359
लाइ 359
▁prepared 359
▁ro 359
▁stand 359
▁जसको 359
ush 358
अघि 358
उँ 358
र्स 358
ेस 358
▁Edit 358
▁XML 358
▁party 358
▁जन्म 358
▁जाऊ 358
▁डाटाबेस 358
▁तिनको 358
▁नजिक 358
▁भएपछि 358
▁clean 357
▁filter 357
▁spread 357
▁students 357
▁think 357
▁twenty 357
▁जनताको 357
ank 356
ify 356
ves 356
शी 356
▁certain 356
▁spirit 356
▁technology 356
▁कर्जा 356
▁धु 356
▁पञ्चायत 356
▁पर्दैन 356
▁मानव 356
▁विद्यालय 356
iting 355
▁burnt 355
▁करार 355
नुभएको 354
▁Aaron 354
▁computer 354
▁अफ 354
▁आउनु 354
▁प्रोफाइल 354
▁विषयवस्तु 354
ani 353
ug 353
त्त 353
सकेको 353
▁font 353
▁heaven 353
▁pay 353
▁plugin 353
▁अनुकूल 353
▁आगो 353
▁क्यारेक्टर 353
▁खुला 353
▁प्रा 353
▁विशेषता 353
यदि 352
▁100 352
▁seems 352
▁कथा 352
▁कर 352
▁पहाडी 352
▁बढाउन 352
▁भन् 352
▁शिक्षक 352
▁Search 351
▁Yes 351
▁big 351
▁तो 351
▁फ्रेम 351
ou 350
▁session 350
▁आकार 350
▁पाँच 350
▁Change 349
▁air 349
▁history 349
▁kings 349
▁news 349
▁विधि 349
▁सक्छौ 349
aj 348
वादी 348
ीले 348
▁13 348
▁appear 348
▁custom 348
▁standard 348
▁कामहरू 348
▁क्या 348
▁रचना 348
▁सम्मान 348
▁स्विच 348
बु 347
रीको 347
▁assistance 347
▁mouse 347
▁products 347
▁कार्यक्रमहरु 347
▁वास्तवमा 347
▁सार्नुहोस् 347
ically 346
ient 346
▁drinking 346
▁materials 346
▁अद्यावधिक 346
▁दै 346
▁प्रकारका 346
▁प्रशस्त 346
▁सुने 346
▁हुन्थ्यो 346
nd 345
ya 345
▁Bh 345
▁international 345
▁manpower 345
▁named 345
▁आँखा 345
▁सम्भव 345
म्ब 344
ामा 344
▁entry 344
▁video 344
U 343
ङ्क 343
जो 343
तालाई 343
वे 343
▁added 343
▁answer 343
▁en 343
▁silver 343
▁खण्ड 343
▁ट्याब 343
▁पुग्न 343
ack 342
ade 342
ix 342
स्था 342
ैं 342
▁URL 342
▁desktop 342
▁physical 342
▁sectors 342
▁करिब 342
▁घोषणा 342
▁जीवित 342
▁character 341
▁continue 341
▁windows 341
▁उत् 341
▁खाना 341
▁दिइनेछ 341
▁दो 341
▁विद्युत 341
तः 340
लु 340
▁Import 340
▁essential 340
▁fell 340
▁quality 340
▁क्रम 340
▁रूख 340
▁लागे 340
दर 339
पर् 339
▁lower 339
▁tr 339
▁कुरो 339
ort 338
नेर 338
िएको 338
▁everyone 338
▁style 338
▁कमी 338
▁की 338
▁चेतावनी 338
▁मुद्रा 338
▁राखी 338
gr 337
▁born 337
▁concerning 337
▁offer 337
▁users 337
▁आधारभूत 337
▁उभि 337
▁औषधि 337
▁कर्म 337
▁त्रुटिः 337
▁ल्या 337
▁विद्यार्थी 337
▁२०० 337
गु 336
०० 336
▁primary 336
▁एक्स 336
▁परिभाषित 336
old 335
ons 335
चित 335
▁Who 335
▁hold 335
▁leave 335
▁sign 335
▁ways 335
▁चीजहरू 335
▁ठा 335
▁प्रमाण 335
व्य 334
▁14 334
▁Minister 334
▁ask 334
▁conf 334
▁gr 334
▁अडियो 334
▁इमेल 334
▁परमेश्वरका 334
▁महत्व 334
▁यौन 334
com 333
्दै 333
▁17 333
▁least 333
▁mountain 333
▁देख 333
▁पर्याप्त 333
▁बाकस 333
.2 332
ama 332
भरि 332
ाउँ 332
▁King 332
▁अर् 332
▁त्यस्ता 332
▁मूर्ख 332
▁सह 332
▁सूचीमा 332
र्ट 331
▁dwell 331
▁व्यापक 331
ams 330
ple 330
▁90 330
▁int 330
▁struck 330
▁test 330
▁आनन्द 330
▁चढ 330
▁लो 330
end 329
्यौ 329
▁Move 329
▁bank 329
▁clear 329
▁sight 329
▁wicked 329
▁धार्मिक 329
▁भागमा 329
▁भौतिक 329
her 328
न्य 328
▁lt 328
▁आँ 328
▁गरीब 328
▁पाउँ 328
▁प्रकाश 328
▁बारे 328
▁prices 327
▁remote 327
▁आधा 327
▁खाद्य 327
▁पदार्थ 327
▁वे 327
ताले 326
पुर 326
ष्ठ 326
▁Tr 326
▁ab 326
▁calendar 326
▁members 326
▁met 326
▁spoken 326
▁thus 326
▁अवधि 326
▁टन 326
▁रहे 326
.& 325
▁Here 325
▁Res 325
▁allow 325
▁building 325
▁please 325
▁इस्राएली 325
▁किसान 325
▁देशका 325
▁स्वर्गदूत 325
▁Indian 324
▁along 324
▁common 324
▁em 324
▁enabled 324
▁supported 324
▁अप 324
▁साँचो 324
भी 323
वास 323
▁Default 323
▁build 323
▁died 323
▁energy 323
▁laid 323
▁चला 323
▁दया 323
▁धन 323
ave 322
ung 322
▁Spirit 322
▁automatically 322
▁tax 322
▁th 322
▁सरकारको 322
▁स्थिर 322
▁GDM 321
▁Son 321
▁basic 321
▁package 321
▁returned 321
▁आपूर्ति 321
▁कुरामा 321
▁तुल्या 321
▁त्यसो 321
▁हटाउनुहोस् 321
दिनु 320
▁gone 320
▁regional 320
▁गि 320
▁देखिएको 320
▁बताए 320
▁भै 320
▁माउस 320
▁हट 320
पमा 319
▁contains 319
▁internal 319
▁limited 319
▁workers 319
▁आफै 319
▁खे 319
▁मासु 319
▁यरूशलेममा 319
▁यहूदा 319
▁स्क्रिप्ट 319
ong 318
त्व 318
▁attention 318
▁contact 318
▁employment 318
▁six 318
▁गीत 318
▁चौडाइ 318
▁तरिका 318
▁भेला 318
देश 317
ूल 317
▁further 317
▁rec 317
▁understand 317
▁छिटो 317
▁राजस्व 317
ास 316
्व 316
▁administration 316
▁conducted 316
▁faith 316
▁plant 316
▁setting 316
▁treatment 316
▁walk 316
▁अगमवक्ता 316
▁इन् 316
▁ढोका 316
▁वर्तमान 316
▁सकेनः 316
▁समाविष्ट 316
▁सम्भावना 316
ide 315
▁Pr 315
▁gate 315
▁lord 315
▁temple 315
▁अस्पताल 315
▁किनकि 315
▁जनता 315
▁जल 315
▁थप्न 315
▁पहिचान 315
▁शाखा 315
▁सुन्दर 315
▁स्थितिमा 315
▁inf 314
▁tab 314
▁waters 314
▁तपाईंका 314
ces 313
ying 313
▁Father 313
▁Most 313
▁Or 313
▁Se 313
▁letter 313
▁धर्म 313
▁परिमार्जन 313
▁पर्खाल 313
▁मूल्यमा 313
ase 312
कर 312
▁While 312
▁beginning 312
▁later 312
▁revenue 312
▁अभाव 312
▁उत्पादनमा 312
▁उनीहरूले 312
▁सक्दछ 312
ely 311
पर 311
▁El 311
▁close 311
▁covenant 311
▁got 311
▁icon 311
▁none 311
▁sat 311
▁truth 311
▁wilderness 311
▁आउँ 311
▁गर्छौ 311
▁ज्यादै 311
▁पत्ता 311
▁बज 311
▁लाग्छ 311
▁विकासका 311
▁सक्तैन 311
▁सञ्चार 311
▁हुलाक 311
दको 310
स्ता 310
हार 310
▁000 310
▁Display 310
▁army 310
▁care 310
▁invalid 310
▁natural 310
▁अघिल्लो 310
▁अधिकारी 310
▁गणना 310
▁पाइन्छ 310
▁बजारमा 310
▁GNOME 309
▁break 309
▁yourself 309
▁जग्गा 309
▁त्यसमा 309
▁बसे 309
▁शीर्षक 309
res 308
ट्ट 308
▁cr 308
▁exchange 308
▁once 308
▁ref 308
▁गृह 308
▁दियो 308
▁संसार 308
▁View 307
▁transport 307
▁औ 307
▁कक्ष 307
▁पुरा 307
▁बल 307
ning 306
कास 306
मय 306
▁Under 306
▁space 306
▁उदाहरण 306
▁डाउनलोड 306
▁देख्न 306
▁मन्दिरको 306
▁सेना 306
▁”‘ 306
ace 305
air 305
▁Ad 305
▁Ah 305
▁manager 305
▁middle 305
▁लाग्ने 305
▁सन्तान 305
चार 304
वर् 304
▁19 304
▁frame 304
▁link 304
▁listen 304
▁options 304
▁outside 304
▁writing 304
▁असक्षम 304
▁ध्वंश 304
▁भोजन 304
▁मानिसहरु 304
▁सम्बन्धमा 304
राज 303
▁ल्याउनु 303
▁हृदय 303
ess 302
एमा 302
▁complete 302
▁context 302
▁map 302
▁participation 302
▁urban 302
▁उपेक्षा 302
▁निकाय 302
▁न्यून 302
▁पठाए 302
ays 301
न्थ्यो 301
▁Although 301
▁US 301
▁destroy 301
▁room 301
▁आउँछ 301
▁टाइप 301
▁सकि 301
if 300
ैन 300
▁base 300
▁center 300
▁gathered 300
▁maximum 300
▁persons 300
▁righteousness 300
▁seek 300
▁steps 300
▁अभिव्यक्ति 300
▁त्य 300
▁निको 300
▁पर्वत 300
▁पानीको 300
▁पुस्तक 300
▁प्रायः 300
▁लाग 300
▁हुनुपर्दछ 300
कन 299
कृत 299
पट्टि 299
▁Japan 299
▁righteous 299
▁अन्तर 299
▁दिएका 299
▁प्रजातन्त्र 299
.5 298
ith 298
इएको 298
दैनन् 298
र्ग 298
▁accept 298
▁fruit 298
▁अध्यक्ष 298
▁आठौं 298
▁उसका 298
▁निस्क 298
▁मूर्ति 298
▁वेब 298
▁स्त्री 298
ne 297
ru 297
▁Solomon 297
▁dev 297
▁institutions 297
▁root 297
▁types 297
▁उनीहरूको 297
▁कार्यक्रमको 297
▁किसिमको 297
▁क्षेत्रीय 297
▁ढा 297
▁प्रो 297
▁भनेका 297
▁रहन 297
▁रात 297
▁रुको 297
▁रूप 297
▁व्यवसाय 297
▁संग 297
नीय 296
हन 296
ैले 296
▁connect 296
▁river 296
▁specify 296
▁खराब 296
▁दे 296
▁राख 296
▁समाज 296
पको 295
हीन 295
▁afraid 295
▁believe 295
▁fiscal 295
▁अन 295
▁भे 295
▁म्या 295
▁रहनेछ 295
▁समन्वय 295
▁हातमा 295
ives 294
te 294
▁displayed 294
▁org 294
▁झु 294
▁ढु 294
▁ढुङ्गा 294
▁तस्वीर 294
▁पाउन 294
▁फाइलको 294
▁बनाउ 294
▁बाली 294
▁भरि 294
ax 293
कामा 293
क्र 293
गर 293
जर 293
लेर 293
ेत 293
्दा 293
▁Babylon 293
▁court 293
▁enemies 293
▁folders 293
▁mod 293
▁nature 293
▁stone 293
▁कसैलाई 293
▁खाता 293
▁टगल 293
▁परिचालन 293
▁भारतीय 293
▁महिमा 293
▁सिंह 293
.9 292
ert 292
क्रम 292
▁anything 292
▁def 292
▁wall 292
▁कम्प्युटर 292
▁त्यसरी 292
▁बिहान 292
▁स्थापित 292
ner 291
▁De 291
▁community 291
▁copy 291
▁element 291
▁entered 291
▁press 291
▁purpose 291
▁दिनको 291
▁समुदाय 291
▁Print 290
▁houses 290
▁often 290
▁port 290
▁security 290
▁आउ 290
▁खाद्यान्न 290
▁स्मृति 290
न्दा 289
वल 289
ाट 289
▁Since 289
▁better 289
▁receive 289
▁गई 289
▁प्रथम 289
qu 288
ured 288
पट्टी 288
बे 288
▁Photo 288
▁families 288
▁movement 288
▁objects 288
▁आउन 288
▁जसरी 288
▁पार्नु 288
▁योजनाकालमा 288
▁१७ 288
act 287
बद्ध 287
▁Export 287
▁door 287
▁draw 287
▁itself 287
▁mentioned 287
▁planning 287
▁reading 287
▁छेउमा 287
▁ट्याग 287
▁सेवक 287
ft 286
कार्य 286
मलाई 286
यौं 286
▁difficult 286
▁joy 286
▁offerings 286
▁sw 286
▁worship 286
▁अज्ञात 286
▁परिणाम 286
▁प्रत्यक्ष 286
▁बिना 286
▁ल्याउने 286
▁शहरको 286
▁सामान 286
▁सैनिक 286
ality 285
bar 285
▁anger 285
▁com 285
▁organizations 285
▁दायरा 285
▁प्रबन्धक 285
▁बाबु 285
▁भनिन्छ 285
▁रूपान्तरण 285
V 284
esh 284
उँछन् 284
गे 284
▁bl 284
▁expenditure 284
▁makes 284
▁north 284
▁plans 284
▁rise 284
▁उन्नत 284
▁एन 284
▁फोल्डरमा 284
▁मन्दिरमा 284
▁मोशा 284
▁सञ्झ्यालमा 284
ंदैन 283
न्द्र 283
रिया 283
ल्ला 283
▁Armies 283
▁Pre 283
▁तर्क 283
▁बच्चा 283
▁विगत 283
▁४० 283
.7 282
min 282
ँदैन 282
र्क 282
ूर 282
▁Public 282
▁deliver 282
▁index 282
▁method 282
▁points 282
▁द्रष्टव्य 282
▁परे 282
▁भन्दै 282
▁सर्भरमा 282
▁स्वा 282
ara 281
ging 281
नबाट 281
फा 281
▁constructed 281
▁resource 281
▁stock 281
▁गरा 281
▁प्रबन्ध 281
▁मन्त्रालय 281
▁लगाउने 281
राको 280
▁< 280
▁mighty 280
▁passed 280
▁rep 280
▁उपाय 280
▁कमा 280
▁फाइदा 280
▁व्यक्तिगत 280
▁संस्थान 280
▁सोध 280
ied 279
केको 279
हरूसँग 279
ाउँछ 279
▁Pharaoh 279
▁Rep 279
▁http 279
▁memory 279
▁throughout 279
▁छैनौ 279
▁फर् 279
▁लगाइ 279
▁सोधे 279
ect 278
ger 278
ke 278
गी 278
▁Copy 278
▁contain 278
▁exist 278
▁पर्न 278
▁बच 278
▁मना 278
▁संचालन 278
ened 277
▁filled 277
▁foot 277
▁height 277
▁आयोजनाहरु 277
▁कुञ्जीपाटी 277
▁पुस्तकचिनो 277
▁बद 277
▁सहायक 277
▁सुनि 277
▁1990 276
▁employees 276
▁fast 276
▁strength 276
▁उहाँका 276
▁बाँ 276
▁बैंक 276
▁मौ 276
▁विभाजन 276
▁स्टक 276
▁स्वर्ग 276
▁हिंड 276
ct 275
ll 275
▁matter 275
▁sm 275
▁survey 275
▁ल्याए 275
▁सकिदैन 275
iz 274
over 274
▁Name 274
▁delivered 274
▁pain 274
▁raised 274
▁range 274
▁गाई 274
▁पहाड 274
▁पुर्याउने 274
निम्ति 273
हित 273
▁24 273
▁List 273
▁balance 273
▁edit 273
▁favor 273
▁inside 273
▁media 273
▁pr 273
▁studies 273
▁गएर 273
▁चौ 273
▁रहन्छ 273
▁राख्नुहोस् 273
▁संसूचक 273
▁हस्ताक्षर 273
र्नु 272
▁Sc 272
▁extension 272
▁lives 272
▁rights 272
▁serve 272
▁white 272
▁अगुवा 272
▁देखाउन 272
▁प्रकाशित 272
▁साइ 272
▁स्तरमा 272
.6 271
ट् 271
लन 271
▁Invalid 271
▁best 271
▁daughters 271
▁expansion 271
▁gives 271
▁ones 271
▁गरिनु 271
▁तरवार 271
▁थु 271
▁प्राकृतिक 271
▁फो 271
▁बना 271
क्क 270
▁profile 270
▁थियौ 270
▁निमित्त 270
▁पल्ट 270
▁मोशालाई 270
▁लगाउन 270
▁सम्झौता 270
ali 269
ere 269
ory 269
रेको 269
सकेका 269
▁Project 269
▁Where 269
▁practice 269
▁removed 269
▁घृणा 269
▁तारा 269
▁ध्वनि 269
har 268
ालि 268
▁ins 268
▁week 268
▁उपलव्ध 268
▁कूल 268
▁गर्थे 268
▁चाह 268
▁पूँजी 268
▁लगाउनुहोस् 268
▁Make 267
▁Start 267
▁email 267
▁especially 267
▁really 267
▁regions 267
▁खुट्टा 267
▁गरेमा 267
▁छनौट 267
▁यि 267
▁सिका 267
तर 266
▁CD 266
▁domestic 266
▁princes 266
▁schools 266
▁stop 266
▁भइसकेको 266
▁वाणिज्य 266
▁हुनसक्छ 266
ational 265
▁birth 265
▁correct 265
▁milk 265
▁objective 265
▁theme 265
▁डरा 265
ances 264
ven 264
▁Comp 264
▁bear 264
▁hidden 264
▁km 264
▁sold 264
▁इस्राएलको 264
▁गरिदि 264
▁चिनो 264
▁दिई 264
▁बतायो 264
▁बन्न 264
▁बोल् 264
▁लाग्यो 264
▁लिने 264
▁लेख्न 264
ID 263
au 263
क्षा 263
ज्ञ 263
्यान 263
▁1, 263
▁gods 263
▁hospital 263
▁uns 263
▁wise 263
▁खरिद 263
▁देखाउने 263
▁निका 263
▁पछाडि 263
▁साधनको 263
ose 262
ँदा 262
इने 262
दान 262
िकरण 262
▁camp 262
▁fat 262
▁held 262
▁length 262
▁red 262
▁wrong 262
▁आशीर्वाद 262
▁सर्व 262
▁Those 261
▁giving 261
▁hope 261
▁husband 261
▁needed 261
▁par 261
▁permission 261
▁क्रमबद्ध 261
▁जनशक्ति 261
▁टेम्प्लेट 261
▁बनि 261
▁सबभन्दा 261
▁सेवाको 261
▁स्वयं 261
रहे 260
▁allowed 260
▁pressure 260
▁title 260
▁trans 260
▁तसर्थ 260
▁नहुने 260
▁रद्द 260
▁लुका 260
ठी 259
ाउँदै 259
▁Inc 259
▁Le 259
▁cent 259
▁condition 259
▁fields 259
▁inc 259
▁preview 259
▁reach 259
▁कोठा 259
▁दर्श 259
▁पुग्ने 259
▁बस्न 259
▁लगे 259
▁लिनु 259
ck 258
ren 258
त्ति 258
▁First 258
▁System 258
▁broken 258
▁doing 258
▁improved 258
▁lay 258
▁male 258
▁आएर 258
▁आफूले 258
▁कार्यको 258
▁नब 258
▁प्रशासन 258
▁मुक्त 258
ological 257
रेर 257
हको 257
्यु 257
▁Configure 257
▁caused 257
▁disciples 257
▁providing 257
▁story 257
▁wait 257
▁इतिहास 257
▁कार्यहरू 257
▁भण्डारण 257
▁भी 257
▁मी 257
▁संरचना 257
ric 256
▁Out 256
▁bottom 256
▁colors 256
▁disabled 256
▁fr 256
▁wine 256
▁wood 256
▁राजालाई 256
▁वस्तुको 256
▁विरोध 256
▁संघ 256
.8 255
ained 255
ata 255
ined 255
ुर 255
▁1989 255
▁22 255
▁Choose 255
▁hectares 255
▁kingdom 255
▁shows 255
▁tons 255
▁towards 255
▁अधिक 255
▁अनुसरण 255
▁जिनोम 255
▁थिइन् 255
▁बाहेक 255
▁मारि 255
▁लेखिएको 255
▁विभाग 255
▁शहरी 255
▁सबैलाई 255
▁सभा 255
ames 254
ock 254
▁Philistines 254
▁banks 254
▁greater 254
▁mon 254
▁rupees 254
▁subject 254
▁trying 254
▁कमजोर 254
▁खानु 254
▁टु 254
▁बलियो 254
▁येशूको 254
▁लाभ 254
50 253
aking 253
ular 253
▁Joseph 253
▁Levites 253
▁bad 253
▁buy 253
▁remain 253
▁saving 253
▁sexual 253
▁उपभोक्ता 253
▁करीब 253
▁काममा 253
▁घु 253
▁दिएर 253
▁पारे 253
▁वैज्ञानिक 253
ides 252
ठा 252
निक 252
रीमा 252
▁companies 252
▁credit 252
▁expl 252
▁likely 252
▁prophet 252
▁question 252
▁taking 252
▁width 252
▁ग्रहण 252
▁भएकाले 252
▁रुपले 252
ult 251
तिमी 251
परमप्रभु 251
ाइएको 251
ारे 251
ोल् 251
्नुहोस् 251
▁Delete 251
▁animals 251
▁average 251
▁bo 251
▁commercial 251
▁enough 251
▁goes 251
▁gu 251
▁im 251
▁input 251
▁kindness 251
▁छि 251
▁थिएनन् 251
▁दैनिक 251
▁निर्भर 251
▁पर्नेछ 251
▁फाइलनाम 251
▁बजेट 251
▁सुरू 251
att 250
न्थे 250
▁People 250
▁alone 250
▁assembly 250
▁audio 250
▁occurred 250
▁single 250
▁wr 250
▁कस्तो 250
▁गे 250
▁ताल्चा 250
▁नेता 250
▁पूजाहारीहरू 250
▁मार्फत 250
ery 249
बल 249
▁alarm 249
▁certificate 249
▁visible 249
▁आयोजनाहरुको 249
▁जिल्लामा 249
▁टिप्पणी 249
▁डी 249
▁तयारी 249
▁पाउ 249
▁बार 249
▁भविष्यमा 249
▁रहेछ 249
▁सङ्ग्रह 249
▁हावा 249
ication 248
ँदै 248
उनुहोस् 248
परि 248
▁Couldn 248
▁Evolution 248
▁ag 248
▁checked 248
▁destroyed 248
▁event 248
▁promotion 248
▁क्षेत्रका 248
▁चाहिं 248
▁दोष 248
▁बोला 248
▁मर्मत 248
▁शिक्षाको 248
ump 247
▁Jews 247
▁cell 247
▁creation 247
▁iniquity 247
▁lo 247
▁wisdom 247
▁किसिमका 247
▁चालु 247
▁डो 247
▁मेट 247
▁यू 247
▁हेर् 247
ability 246
ators 246
sc 246
ंदा 246
यक 246
▁Fl 246
▁Ind 246
▁Mar 246
▁Par 246
▁loss 246
▁master 246
▁multitude 246
▁teachers 246
▁understanding 246
▁गुप्त 246
▁जरुरी 246
▁ताकि 246
▁दूध 246
▁बताउनुभयो 246
▁भिन्न 246
च्छ 245
ताका 245
स्क 245
▁Fourth 245
▁Ge 245
▁IMAP 245
▁content 245
▁mountains 245
▁undertaken 245
▁wind 245
▁झूटो 245
▁तुलनामा 245
▁पूर्वावलोकन 245
▁बनाएको 245
ges 244
चो 244
सं 244
▁Abraham 244
▁agreement 244
▁deficit 244
▁ear 244
▁respect 244
▁seeds 244
▁shares 244
▁पठाउनु 244
▁र् 244
▁विदेश 244
▁१०० 244
▁२२ 244
.3 243
be 243
own 243
यी 243
र्व 243
सर 243
सार 243
▁Ctrl 243
▁Raj 243
▁drop 243
▁eight 243
▁job 243
▁ँ 243
▁आर 243
▁काठ 243
▁गर्नमा 243
▁टाढाको 243
▁ठाडो 243
▁दाऊदलाई 243
▁पठाइ 243
▁पर्यटक 243
▁रोज्नुहोस् 243
▁समुद्र 243
▁सर्वेक्षण 243
.4 242
ases 242
ode 242
दछन् 242
निया 242
▁annual 242
▁chosen 242
▁immediately 242
▁reduce 242
▁sheep 242
▁unclean 242
▁अशुद्ध 242
▁जमीन 242
▁पठाउन 242
▁सिक् 242
ear 241
ton 241
न्ने 241
▁General 241
▁ago 241
▁dig 241
▁led 241
▁proper 241
▁wrath 241
▁अपेक्षा 241
▁आधुनिक 241
▁क् 241
▁गराई 241
▁गर्नको 241
▁त्र्चाइ 241
▁पृथ्वीमा 241
▁मुख 241
▁शा 241
BAR 240
ification 240
तका 240
▁Many 240
▁Note 240
▁bound 240
▁contents 240
▁east 240
▁raise 240
▁rose 240
▁upon 240
▁काँ 240
▁पोर्ट 240
▁फर्केर 240
▁सार्न 240
ame 239
hip 239
ises 239
pur 239
श् 239
▁Server 239
▁adopted 239
▁editor 239
▁something 239
▁sources 239
▁खडा 239
▁जहाज 239
▁धन्यवाद 239
▁प्या 239
▁मुलुक 239
▁सक 239
▁हुनुहुन्थ्यो 239
ign 238
term 238
ues 238
खु 238
मैले 238
स्थ 238
▁Sub 238
▁Such 238
▁desire 238
▁evening 238
▁inheritance 238
▁objectives 238
▁script 238
▁एम 238
▁किनारा 238
▁किलोमिटर 238
▁गते 238
▁बनाइ 238
▁मान्छे 238
▁स्या 238
of 237
ress 237
ंदै 237
जको 237
जस्तै 237
ारो 237
▁Their 237
▁administrative 237
▁collection 237
▁ent 237
▁lost 237
▁modern 237
▁peoples 237
▁prophets 237
▁उपयोगी 237
▁जानुहोस् 237
▁दिशा 237
▁बनाई 237
▁यहूदी 237
▁सजिलो 237
▁सबैले 237
▁साझा 237
▁हवाई 237
ared 236
ering 236
izing 236
जमा 236
नाम 236
न्छु 236
▁147 236
▁Also 236
▁budget 236
▁channel 236
▁conditions 236
▁deal 236
▁entire 236
▁paper 236
▁एकदमै 236
▁निरन्तर 236
▁पू 236
▁बाध्य 236
▁बीउ 236
▁मित्र 236
▁वेदी 236
atic 235
शील 235
▁remember 235
▁valley 235
▁कार्यक्रममा 235
▁तिनीहरु 235
▁त्यसबेला 235
▁राख् 235
▁रुप 235
ired 234
ron 234
लै 234
▁labor 234
▁rules 234
▁एका 234
▁गराइनेछ 234
▁जसमा 234
▁तपाई 234
▁रह्यो 234
mon 233
pe 233
we 233
युक्त 233
’ 233
▁Department 233
▁Third 233
▁feed 233
▁looking 233
▁simple 233
▁क्ष 233
▁चाहन्छु 233
▁तराई 233
▁नागरिक 233
▁माथिल्लो 233
▁सुलेमानले 233
ber 232
li 232
osed 232
सम्ममा 232
▁breast 232
▁expression 232
▁follow 232
▁happen 232
▁offices 232
▁prof 232
▁उद्देश्यले 232
▁खानेपानी 232
▁जला 232
▁परास्त 232
▁पुरुष 232
▁बनाउँ 232
▁बालबालिका 232
▁मिला 232
▁यिनीहरू 232
▁राजनीतिक 232
▁सल्लाह 232
▁सामाग्री 232
▁सुन्न 232
▁६० 232
ring 231
ेन 231
▁Mark 231
▁br 231
▁either 231
▁included 231
▁row 231
▁sell 231
▁several 231
▁tourism 231
▁अलग 231
▁उपहार 231
▁कार् 231
▁गुरु 231
▁निश्चय 231
▁परीक्षा 231
▁बाटोमा 231
▁मेट्नुहोस् 231
▁सालमा 231
ense 230
val 230
प्त 230
भाव 230
वन 230
▁40 230
▁Cl 230
▁Co 230
▁arrangements 230
▁covered 230
▁generation 230
▁review 230
▁आव 230
▁कोष 230
▁गराउनु 230
▁थाल 230
▁थो 230
▁नानीहरू 230
▁पुनर् 230
▁प्रेरित 230
▁व्यवस्थाको 230
▁सपना 230
▁साथी 230
▁होस्ट 230
▁committee 229
▁original 229
▁sup 229
▁आगामी 229
▁क्षेत्रलाई 229
▁छविको 229
▁न्यूनतम 229
▁पारिएको 229
▁पुर्याउन 229
▁प्रसार 229
▁मोडमा 229
▁शहरका 229
.0 228
ible 228
ium 228
line 228
ool 228
ped 228
यम 228
ल्ने 228
▁electricity 228
▁except 228
▁external 228
▁measures 228
▁respectively 228
▁staff 228
▁terminal 228
▁उनीहरूलाई 228
▁खोज् 228
▁दुबै 228
▁परम्परागत 228
▁साह्रै 228
amb 227
ards 227
ime 227
ीहरूका 227
▁Key 227
▁Qu 227
▁Second 227
▁behind 227
▁एकल 227
▁एल 227
▁जवान 227
▁थिच्नुहोस् 227
▁दर्ता 227
▁पुग्यो 227
▁सङ्केतन 227
acy 226
hen 226
पाल 226
योग 226
लग 226
▁1991 226
▁election 226
▁groups 226
▁net 226
▁opportunities 226
▁protect 226
▁published 226
▁yourselves 226
▁अधि 226
▁ऊर्जा 226
▁कम्पनीले 226
▁तेर्सो 226
▁प्रहरी 226
▁व्य 226
cl 225
्रु 225
▁Prasad 225
▁early 225
▁followed 225
▁gl 225
▁panel 225
▁similar 225
▁structure 225
▁won 225
▁अङ्क 225
▁गरिनेछन् 225
▁नगर्नुहोस् 225
▁नारी 225
▁प्रतिक्रिया 225
▁बाँध 225
▁सुनको 225
eter 224
int 224
क्ति 224
चर 224
▁Ap 224
▁ID 224
▁Min 224
▁Remove 224
▁cons 224
▁force 224
▁rule 224
▁skin 224
▁च्यानल 224
▁दाख 224
▁दाखरस 224
▁देख् 224
▁सक्नु 224
▁स्थायी 224
J 223
ex 223
year 223
▁23 223
▁course 223
▁disk 223
▁sacrifice 223
▁tradition 223
▁गठन 223
▁द्वार 223
▁परेका 223
▁पैठारी 223
▁बढाउने 223
▁बाँच 223
▁भयोः 223
▁मत 223
▁मारे 223
▁युवा 223
▁रहनु 223
▁सिय् 223
ather 222
ys 222
पनि 222
▁central 222
▁inv 222
▁metric 222
▁normal 222
▁south 222
▁stay 222
▁trees 222
▁तथ्याङ्क 222
▁तिमीहरु 222
▁ते 222
▁धेरैजसो 222
▁नपा 222
▁मौलिक 222
▁रङ्ग 222
▁विरुद्ध 222
▁— 222
ook 221
स्थित 221
▁Send 221
▁Terai 221
▁Time 221
▁judge 221
▁levels 221
▁अल् 221
▁उचाइ 221
▁कठिन 221
▁चरण 221
▁चाँदी 221
▁छः 221
▁दिन्छु 221
▁बुद्धि 221
▁सर्टकट 221
▁हत्या 221
▁हुनेछैन 221
ination 220
ising 220
ract 220
▁Every 220
▁Joshua 220
▁May 220
▁Ram 220
▁feel 220
▁forward 220
▁initial 220
▁involved 220
▁issue 220
▁organized 220
▁rather 220
▁अवसर 220
▁काट 220
▁त्रि 220
▁फाँट 220
▁ब्या 220
▁२४ 220
ats 219
ier 219
धार 219
हरूसित 219
▁Mo 219
▁aut 219
▁carry 219
▁produce 219
▁science 219
▁stones 219
▁क्रियाकलाप 219
▁जग 219
▁धनी 219
▁फूल 219
▁समायोजन 219
▁हेक्टर 219
ark 218
ati 218
▁Fr 218
▁Sun 218
▁anyone 218
▁product 218
▁responsibility 218
▁takes 218
▁thirty 218
▁tribe 218
▁अनुरुप 218
▁अहिलेसम्म 218
▁आगत 218
▁क्यास 218
▁छलफल 218
▁थप् 218
▁दुइवटा 218
▁बै 218
▁भर 218
▁राखेको 218
▁विकसित 218
▁वितरणको 218
▁विविध 218
▁हरू 218
eth 217
ich 217
land 217
पहिलो 217
लाले 217
▁Take 217
▁pieces 217
▁poverty 217
▁specific 217
▁अत्यन्तै 217
▁जापानी 217
▁देखाउनु 217
▁भएकोछ 217
▁विशाल 217
▁सहमति 217
▁२१ 217
केर 216
नीहरू 216
रहेछ 216
साथ 216
्ट 216
▁Commission 216
▁Find 216
▁Get 216
▁Ne 216
▁Tool 216
▁secret 216
▁ट्रे 216
▁प्रतिस्थापन 216
▁रेकर्ड 216
▁लड 216
▁सञ्झ्यालको 216
▁सन्देशहरू 216
▁समक्ष 216
ased 215
ced 215
ored 215
र्ष 215
▁Folder 215
▁daily 215
▁step 215
▁आम 215
▁आर् 215
▁गरेपछि 215
▁गोली 215
▁चाहेको 215
▁पछ्या 215
▁परिवर्तनहरू 215
▁प्रारम्भ 215
▁बराबर 215
▁बीचको 215
▁विनिमय 215
▁समूहका 215
नेको 214
▁Kh 214
▁dec 214
▁dry 214
▁friends 214
▁numbers 214
▁ret 214
▁sa 214
▁teaching 214
▁चल 214
▁दाहिने 214
▁नदीको 214
▁पुननामकरण 214
▁बनेको 214
▁बैङ्क 214
▁विरूद्धमा 214
▁सर्वदा 214
▁स्कूल 214
ee 213
ern 213
orn 213
ressed 213
अगाडि 213
▁Exp 213
▁Switch 213
▁burn 213
▁clipboard 213
▁consider 213
▁establish 213
▁fixed 213
▁gather 213
▁improve 213
▁कदम 213
▁चलाउन 213
▁छुट 213
▁दक्ष 213
▁पूजाहारीले 213
▁प्रणालीमा 213
▁प्रशिक्षण 213
▁रातो 213
▁राष्टिँ्रय 213
▁वर्ण 213
▁साहित्य 213
ict 212
pro 212
द्र 212
ुवा 212
▁Health 212
▁Window 212
▁cubits 212
▁magn 212
▁music 212
▁pe 212
▁prepare 212
▁widget 212
▁क्षमा 212
▁गुणस्तर 212
▁यद्यपि 212
▁वस्तुहरुको 212
▁सृष्टि 212
arn 211
ows 211
to 211
किएको 211
णु 211
तन 211
▁Bar 211
▁Br 211
▁Group 211
▁ap 211
▁fight 211
▁pres 211
▁significant 211
▁उमेर 211
▁कै 211
▁गर्नुपर्दछ 211
▁जीवनको 211
▁तपाईँसँग 211
▁परिमाण 211
▁पहि 211
▁पुगे 211
▁प्रवाह 211
▁प्राण 211
▁मानहरू 211
▁रेडियो 211
▁हुँदैछ 211
adi 210
erv 210
ild 210
point 210
way 210
न्तु 210
्यू 210
▁pixels 210
▁store 210
▁अय्यूब 210
▁कुराको 210
▁क्रोधित 210
▁देखिने 210
▁योगदान 210
▁विश्लेषण 210
▁सम्पादक 210
▁सेतो 210
इन 209
डमा 209
णा 209
▁Toggle 209
▁direct 209
▁easy 209
▁fe 209
▁gradually 209
▁rain 209
▁sister 209
▁कस 209
▁चाहिने 209
▁छोडि 209
▁देवता 209
▁ब्राउजर 209
▁यूआरएल 209
▁यूसुफ 209
▁लिए 209
▁वार्ता 209
▁साँ 209
▁हेर्दा 209
aiah 208
aint 208
क्ट 208
नौ 208
फि 208
राम 208
▁Col 208
▁Japanese 208
▁details 208
▁request 208
▁savings 208
▁soil 208
▁wh 208
▁चालू 208
▁छेउ 208
▁ज्ञानी 208
▁पाना 208
▁योजनावधिमा 208
▁व्यक्तिले 208
▁हुनेछौ 208
▁२०२ 208
ched 207
काल 207
फो 207
हामी 207
▁Per 207
▁Text 207
▁Trans 207
▁closed 207
▁hill 207
▁keyboard 207
▁surely 207
▁trading 207
▁उत्पादनको 207
▁कतै 207
▁चाँडै 207
▁तिनीहरुले 207
▁बढ्दै 207
▁बढ्दो 207
▁बर्ष 207
▁मुद्रक 207
▁मोड्युल 207
▁यर्दन 207
▁लोक 207
▁वायु 207
OR 206
ek 206
ma 206
ved 206
दु 206
हले 206
हाल 206
▁80 206
▁En 206
▁Mount 206
▁Number 206
▁Play 206
▁friend 206
▁god 206
▁web 206
▁अस्थायी 206
▁कम् 206
▁गरेनन् 206
▁बिरामी 206
▁४७ 206
aid 205
und 205
इनेछ 205
ीत 205
▁John 205
▁Jordan 205
▁Q 205
▁Try 205
▁Up 205
▁applications 205
▁cal 205
▁dr 205
▁filename 205
▁hide 205
▁honor 205
▁inhabitants 205
▁useful 205
▁अनुहार 205
▁अनेक 205
▁औसत 205
▁कुञ्जीहरू 205
▁देखिन 205
▁पुग् 205
▁पेश 205
▁प्रजातान्त्रिक 205
▁बाह्र 205
▁भ्रमण 205
▁मल 205
▁महिनाको 205
▁लगानीको 205
▁३२ 205
law 204
ned 204
छौं 204
जनक 204
ञ् 204
हका 204
▁21 204
▁eating 204
▁flow 204
▁lib 204
▁neighbor 204
▁packages 204
▁pattern 204
▁rev 204
▁sort 204
▁su 204
▁कसले 204
▁धारणा 204
▁रुपैया 204
▁लेवी 204
ctor 203
uc 203
ते 203
नाथ 203
लाहरू 203
वर 203
▁cur 203
▁twelve 203
▁vis 203
▁अधिलेखन 203
▁अनुगमन 203
▁अनुपात 203
▁अप्र 203
▁टाउको 203
▁राखि 203
▁वैकल्पिक 203
▁साँच्चै 203
▁ह्यान्डल 203
▁२३ 203
men 202
जब 202
त्या 202
फ्ट 202
ल्ड 202
सहित 202
▁bodies 202
▁maintain 202
▁president 202
▁protection 202
▁recent 202
▁rock 202
▁trust 202
▁खुल्ला 202
▁गाउ 202
▁घण्टा 202
▁नक्सा 202
▁नोकर 202
▁पश्चिम 202
▁मानसिक 202
▁वै 202
▁४२ 202
de 201
ove 201
vi 201
डको 201
त्ता 201
ालो 201
▁battle 201
▁cry 201
▁facility 201
▁fine 201
▁permissions 201
▁presented 201
▁printer 201
▁remains 201
▁अंग 201
▁अधिकांश 201
▁कला 201
▁केन्द्रीय 201
▁खेत 201
▁घरेलु 201
▁जानेछ 201
▁प्राय 201
▁प्रोत्साहन 201
▁शे 201
▁श्रम 201
itt 200
▁defined 200
▁direction 200
▁elders 200
▁installation 200
▁soon 200
▁thought 200
▁val 200
▁अमेरिका 200
▁अर्थात 200
▁आफैं 200
▁डु 200
▁पुस्तिका 200
▁बचाउनु 200
▁माध्यम 200
iss 199
ots 199
ually 199
चु 199
लेका 199
वाह 199
्दछ 199
्वा 199
▁South 199
▁Today 199
▁ark 199
▁enable 199
▁livestock 199
▁longer 199
▁qu 199
▁चोट 199
▁डिस्क 199
▁पुरूष 199
▁पुल 199
▁मात्रै 199
▁वर्षसम्म 199
.00 198
ont 198
row 198
ulation 198
ँग 198
नात्मक 198
▁Ministry 198
▁Red 198
▁Sup 198
▁Table 198
▁ar 198
▁establishment 198
▁execute 198
▁focus 198
▁front 198
▁loan 198
▁medium 198
▁ob 198
▁replace 198
▁rid 198
▁sins 198
▁statement 198
▁units 198
▁उड 198
▁उत्तम 198
▁खि 198
▁नसक्ने 198
▁निष् 198
▁पौ 198
▁मकहाँ 198
▁सर 198
▁सरल 198
ome 197
ree 197
ule 197
vers 197
हरूमाथि 197
▁60 197
▁Pl 197
▁angel 197
▁characters 197
▁decision 197
▁drag 197
▁impact 197
▁limit 197
▁statistics 197
▁प्रकाशन 197
▁मरे 197
▁मेटि 197
▁संस्थागत 197
▁सन्दर्भ 197
ading 196
mit 196
क्षण 196
च्च 196
दे 196
ित् 196
ेरो 196
▁Bl 196
▁Exchange 196
▁Our 196
▁install 196
▁login 196
▁produced 196
▁traditional 196
▁उस 196
▁जीवनमा 196
▁नमूना 196
▁परिषद् 196
▁फिल्ड 196
▁बढेको 196
aph 195
▁Council 195
▁Desktop 195
▁Moab 195
▁Sp 195
▁World 195
▁cover 195
▁diseases 195
▁grain 195
▁importance 195
▁ind 195
▁mass 195
▁proposed 195
▁कृषक 195
▁गधा 195
▁डाक्टर 195
▁दान 195
▁नो 195
▁मापन 195
▁माया 195
▁मार्न 195
▁शास्त्र 195
▁संसारमा 195
ency 194
hel 194
खो 194
यत 194
ष्टि 194
▁Education 194
▁fourth 194
▁portion 194
▁ready 194
▁regard 194
▁अर्थात् 194
▁आयोजनाको 194
▁कार्यहरु 194
▁छोटो 194
▁पं 194
▁पार्टी 194
▁प्रारम्भिक 194
▁बस्नु 194
▁बुझ्न 194
▁सहित 194
▁हालसम्म 194
ches 193
nt 193
use 193
ओस् 193
न्ज 193
▁Com 193
▁Work 193
▁affected 193
▁aid 193
▁blessed 193
▁deleted 193
▁det 193
▁match 193
▁meal 193
▁model 193
▁song 193
▁unable 193
▁yes 193
▁औं 193
▁कलाकार 193
▁चारैतिर 193
▁जनतालाई 193
▁तँ 193
▁पेट 193
▁मनो 193
▁वैदेशिक 193
▁व्यावसायिक 193
▁समस्त 193
▁स्वागत 193
file 192
ury 192
तै 192
रुप 192
्याल 192
▁FY 192
▁Shift 192
▁handle 192
▁heads 192
▁labour 192
▁looked 192
▁rates 192
▁scale 192
▁stat 192
▁ter 192
▁क्रोध 192
▁चरा 192
▁प्रदर्शित 192
▁बूढा 192
▁भरोसा 192
▁माइ 192
▁मै 192
▁शारीरिक 192
टन 191
न्ति 191
ललाई 191
▁Dh 191
▁Peter 191
▁Ph 191
▁concerned 191
▁eye 191
▁note 191
▁offered 191
▁throne 191
▁असमर्थ 191
▁घो 191
▁दल 191
▁प्रदेश 191
▁बताउ 191
▁भण्डार 191
▁माझ 191
▁शाऊल 191
▁सन्दर्भमा 191
▁सहभागी 191
do 190
pr 190
ंच 190
णको 190
राई 190
रिएको 190
श्व 190
्यौं 190
▁28 190
▁Gr 190
▁Pro 190
▁art 190
▁attack 190
▁keeping 190
▁loving 190
▁panchayat 190
▁provision 190
▁remained 190
▁कार्ड 190
▁गल् 190
▁जगेडा 190
▁दुर् 190
▁प्रोत्साहित 190
▁बोट 190
▁सीप 190
▁२७ 190
134 189
ala 189
cess 189
ene 189
ina 189
read 189
क्ने 189
ग्र 189
बाहेक 189
हाँ 189
▁Come 189
▁Dis 189
▁Mer 189
▁attempt 189
▁darkness 189
▁effects 189
▁अस् 189
▁आश्चर्य 189
▁गरिए 189
▁दृश्यात्मक 189
▁निस् 189
▁फर्क 189
▁फिर्ता 189
▁मालिकले 189
ane 188
uth 188
िका 188
ृत 188
▁Act 188
▁United 188
▁York 188
▁author 188
▁civil 188
▁counsel 188
▁cursor 188
▁hour 188
▁lead 188
▁loading 188
▁minimum 188
▁slow 188
▁transfer 188
▁चेलाहरू 188
▁दर्शन 188
▁दूत 188
▁देखें 188
▁नभ 188
▁परम्परा 188
▁विद्युत् 188
▁शासक 188
▁हिजो 188
asing 187
day 187
uted 187
ाउनुहोस् 187
▁High 187
▁Message 187
▁ac 187
▁animal 187
▁developing 187
▁plants 187
▁results 187
▁चट्टान 187
▁जनशक्तिको 187
▁थोरै 187
▁नगरी 187
▁पठ 187
▁प्रकट 187
▁प्रमाणीकरण 187
▁बालक 187
▁युनि 187
▁समयको 187
▁ा 187
get 186
oh 186
ull 186
तीको 186
▁200 186
▁Type 186
▁myself 186
▁record 186
▁टी 186
▁ढाँचामा 186
▁दी 186
▁प्रभावित 186
▁बढेर 186
▁राजनैतिक 186
▁लगाइएको 186
▁वाल 186
▁व्या 186
▁शाऊलले 186
▁सट्टा 186
▁सफा 186
▁सुदृढ 186
णी 185
ण्ट 185
थो 185
वान 185
िन 185
▁250 185
▁Benjamin 185
▁Press 185
▁bit 185
▁code 185
▁depart 185
▁encouraged 185
▁green 185
▁mid 185
▁reign 185
▁salvation 185
▁tag 185
▁track 185
▁आम्दानी 185
▁एक् 185
▁कागज 185
▁कैद 185
▁च्या 185
▁टर्मिनल 185
▁धा 185
▁पठा 185
▁पुर्खा 185
▁भविष्य 185
▁मात्रा 185
▁मूर्तिहरू 185
▁सृजना 185
AL 184
मित 184
▁Filter 184
▁ass 184
▁associated 184
▁authority 184
▁compared 184
▁elements 184
▁judgment 184
▁justice 184
▁moving 184
▁parties 184
▁prevent 184
▁seventh 184
▁speed 184
▁success 184
▁unknown 184
▁अन्त्यमा 184
▁आऊ 184
▁ऐ 184
▁कपडा 184
▁गर्नलाई 184
▁जुट 184
▁तलको 184
▁बाह्य 184
▁लगाए 184
▁विद्यमान 184
arch 183
box 183
du 183
ink 183
ita 183
ost 183
umb 183
द्य 183
▁Moreover 183
▁browser 183
▁crops 183
▁culture 183
▁drive 183
▁experience 183
▁fifty 183
▁loans 183
▁placed 183
▁volume 183
▁अङ्ग 183
▁एल्बम 183
▁कच्चा 183
▁कर् 183
▁ट्रयाक 183
▁नदि 183
▁नभए 183
▁पढ्दा 183
▁पार्छ 183
▁बोर्ड 183
▁रहेकोमा 183
▁व्याख्या 183
▁सट्टामा 183
▁समूहमा 183
कीय 182
ढा 182
वाट 182
सके 182
ून 182
▁Kingdom 182
▁Paul 182
▁creating 182
▁er 182
▁feast 182
▁getting 182
▁improvement 182
▁maintenance 182
▁requested 182
▁visit 182
▁watch 182
▁उदाहरणका 182
▁औजार 182
▁छाला 182
▁तल्लो 182
▁तीव्र 182
▁दुख 182
▁देखाइ 182
▁देवी 182
▁धर्मी 182
▁निर्धारित 182
▁पक्षमा 182
▁वस्तुस्थिति 182
aps 181
istic 181
uring 181
न्छौ 181
प्रा 181
स्तरमा 181
▁Committee 181
▁Data 181
▁International 181
▁Prime 181
▁See 181
▁fair 181
▁however 181
▁li 181
▁positive 181
▁possess 181
▁separate 181
▁sick 181
▁startup 181
▁अवधिको 181
▁एली 181
▁नभएका 181
▁बनाएका 181
▁भरिएको 181
▁मृत 181
▁विरोधमा 181
▁स्था 181
▁हौं 181
गम 180
ङ्गो 180
चन 180
न्ध 180
प्ट 180
बारेमा 180
लिन 180
▁Corporation 180
▁Ephraim 180
▁Post 180
▁URI 180
▁archive 180
▁hours 180
▁moved 180
▁perform 180
▁religion 180
▁अनियमित 180
▁ऐन 180
▁घुस 180
▁त्यसकारण 180
▁दिनुहुन्छ 180
▁पशुहरू 180
▁बिलियन 180
▁मिल् 180
▁लगानीकर्ता 180
▁हुदैन 180
oy 179
जित 179
मूलक 179
यल 179
राइ 179
रिक 179
रेखा 179
सम् 179
▁Koirala 179
▁User 179
▁beautiful 179
▁module 179
▁reasons 179
▁seem 179
▁sleep 179
▁teacher 179
▁villages 179
▁आईडी 179
▁खोजि 179
▁घाटा 179
▁डर 179
▁थाल्यो 179
▁धूप 179
▁फर्का 179
▁राजमार्ग 179
▁शिशु 179
▁श्रेष्ठ 179
▁संख्यामा 179
▁साध 179
▁सू 179
▁हप्ता 179
pend 178
मन 178
र्फ 178
ीकरण 178
▁500 178
▁Association 178
▁Gu 178
▁Me 178
▁Right 178
▁allows 178
▁appointed 178
▁behavior 178
▁deep 178
▁else 178
▁healthy 178
▁id 178
▁profit 178
▁thousands 178
▁weight 178
▁प्रतिनिधि 178
▁भोज 178
▁वीर 178
▁सजाय 178
▁सित 178
ahar 177
नीमा 177
स्को 177
▁acc 177
▁member 177
▁patient 177
▁ph 177
▁shut 177
▁template 177
▁unit 177
▁weak 177
▁आफन्त 177
▁एकीकृत 177
▁कार्यकर्ता 177
▁घोडा 177
▁छाड 177
▁जटिल 177
▁नव 177
▁निय 177
▁परमप्रभुका 177
▁पाएको 177
▁भन्छु 177
▁भारतमा 177
▁भेक्टर 177
▁मसित 177
▁मुटु 177
▁रोक् 177
▁शक्तिको 177
▁सकेनन् 177
▁समक्रमण 177
▁सिद्धान्त 177
aries 176
itable 176
देऊ 176
बन्ध 176
▁Tent 176
▁agencies 176
▁clothes 176
▁continued 176
▁cross 176
▁fulfill 176
▁measure 176
▁opportunity 176
▁properly 176
▁sake 176
▁systems 176
▁talk 176
▁अत्यधिक 176
▁अभ्यास 176
▁करा 176
▁जन्मा 176
▁दूर 176
▁देखाउ 176
▁नौ 176
▁परित्याग 176
▁लिखित 176
▁वर्षा 176
▁सम्मिलित 176
atch 175
न्थ 175
ें 175
▁Draw 175
▁enemy 175
▁evaluation 175
▁speaking 175
▁targets 175
▁कामको 175
▁क्षेत्रहरुमा 175
▁छाउनी 175
▁तहमा 175
▁देखेर 175
▁नभई 175
▁प्रविधिको 175
▁फा 175
▁माटो 175
▁मिल्दो 175
▁संभाव्य 175
▁सफलता 175
▁समीक्षा 175
▁स्थल 175
लगायत 174
हू 174
हेर 174
▁32 174
▁Allow 174
▁Control 174
▁affect 174
▁beyond 174
▁card 174
▁fil 174
▁gre 174
▁idea 174
▁institutional 174
▁joint 174
▁printing 174
▁raw 174
▁variable 174
▁उपकरणपट्टी 174
▁कम्पनीको 174
▁चाँहि 174
▁देखियो 174
▁न्यु 174
▁पका 174
▁पठाउनुहोस् 174
▁परम 174
▁पिक्सेल 174
▁प्रतिक्षा 174
▁बेच 174
▁विश्वविद्यालय 174
▁हेरचाह 174
ff 173
ibility 173
iter 173
एनन् 173
एपछि 173
तम 173
दय 173
र्ारा 173
ल्य 173
वै 173
▁OF 173
▁Settings 173
▁bus 173
▁collect 173
▁formed 173
▁label 173
▁operating 173
▁praise 173
▁spent 173
▁teach 173
▁upper 173
▁ग्रा 173
▁तथ्य 173
▁पढ्ने 173
▁पुर् 173
▁माछा 173
▁म्याद 173
▁विमानस्थल 173
▁सञ् 173
▁होऊ 173
ails 172
कस 172
याँ 172
▁Region 172
▁dust 172
▁farming 172
▁increases 172
▁mark 172
▁officials 172
▁strike 172
▁ज्या 172
▁ज्यादा 172
▁तु 172
▁देखाउँछ 172
▁पात्रो 172
▁भाँडा 172
▁यथा 172
▁राम्ररी 172
▁लगि 172
▁शी 172
▁सजिलै 172
▁सूर्य 172
▁होमबलि 172
ction 171
ians 171
नाका 171
रहनु 171
ीहरूमा 171
▁Mon 171
▁aim 171
▁block 171
▁emphasis 171
▁library 171
▁manner 171
▁opening 171
▁pit 171
▁property 171
▁speech 171
▁कुराकानी 171
▁क्र 171
▁छुट्या 171
▁तेरो 171
▁दोषी 171
▁बाबेलका 171
▁भनिन् 171
▁मानिसहरूबाट 171
▁रंग 171
▁रोक्न 171
▁रोगको 171
▁संघर्ष 171
▁संस 171
▁सञ्चालित 171
▁२०४७ 171
IS 170
hed 170
na 170
ठो 170
बेला 170
यस 170
▁201 170
▁District 170
▁argument 170
▁democratic 170
▁imp 170
▁include 170
▁rivers 170
▁sing 170
▁sol 170
▁str 170
▁wish 170
▁इन 170
▁पूर्ति 170
▁मानि 170
▁रोजगारी 170
▁शून्य 170
▁हुनुपर्ने 170
iles 169
ries 169
डिङ 169
त्री 169
न्त्र 169
यामा 169
हल 169
▁China 169
▁Ma 169
▁activity 169
▁directly 169
▁female 169
▁leaders 169
▁presence 169
▁prev 169
▁site 169
▁surface 169
▁sweet 169
▁z 169
▁आज्ञाहरू 169
▁क्षेत्रबाट 169
▁चम् 169
▁छविहरू 169
▁छिमेकी 169
▁दिएँ 169
▁दृष्टि 169
▁प्रतिस्पर्धा 169
▁भन्छ 169
▁मानक 169
▁लिएको 169
▁सन्तानहरू 169
▁सन्दूक 169
▁समर्थित 169
▁ह्या 169
AN 168
Q 168
ables 168
aces 168
oring 168
ठित 168
न्ती 168
पति 168
पर्दछ 168
र्श 168
ेद 168
▁85 168
▁Her 168
▁President 168
▁Sabbath 168
▁Sim 168
▁achieve 168
▁cap 168
▁char 168
▁growing 168
▁occur 168
▁parse 168
▁rich 168
▁tre 168
▁whatever 168
▁youth 168
▁अना 168
▁कार्यका 168
▁चाहन्छ 168
▁त्यसका 168
▁दिनसम्म 168
▁माध्यमिक 168
▁मूल्याङ्कन 168
▁राखेर 168
▁५०० 168
AR 167
bo 167
ject 167
ops 167
क्न 167
जू 167
टु 167
डले 167
ढी 167
नुहुनेछ 167
नेछैन 167
मुख 167
रक 167
▁Dr 167
▁Sy 167
▁chemical 167
▁cried 167
▁description 167
▁minister 167
▁shortcut 167
▁कुरालाई 167
▁खबर 167
▁गराउ 167
▁डलरको 167
▁थालेको 167
▁दिदी 167
▁पस् 167
▁मुद्दा 167
▁रिस 167
▁सधैँ 167
▁सम्झना 167
▁सिक 167
▁सुझाव 167
▁२६ 167
▁२८ 167
▁८० 167
hood 166
ural 166
ंस 166
इन् 166
यु 166
्ड 166
▁92 166
▁Global 166
▁Holy 166
▁Im 166
▁certainly 166
▁expect 166
▁fill 166
▁firm 166
▁ne 166
▁temporary 166
▁tourists 166
▁und 166
▁केटी 166
▁गर्भ 166
▁दृष्टिकोण 166
▁परिचय 166
▁परिणत 166
▁पूर्वाधार 166
▁फ् 166
▁भएकोमा 166
▁लगातार 166
▁वी 166
▁व्यक्त 166
▁शरीरमा 166
▁शाही 166
▁समाजमा 166
▁सम्भाव्यता 166
▁सामुन्ने 166
▁सीडी 166
▁सुसमाचार 166
▁हाइलाइट 166
con 165
let 165
छि 165
न्या 165
रामा 165
लार्ई 165
▁00 165
▁Bahadur 165
▁House 165
▁appears 165
▁campaign 165
▁centres 165
▁col 165
▁finished 165
▁fully 165
▁implement 165
▁layers 165
▁operations 165
▁remaining 165
▁terms 165
▁yield 165
▁आदर 165
▁एउटी 165
▁एदो 165
▁घण्ट 165
▁चलिरहेको 165
▁झूटा 165
▁थपि 165
▁देव 165
▁नस 165
▁नसकेको 165
▁नाममा 165
▁पद्धति 165
▁पाएका 165
▁प्रतिफल 165
▁प्ला 165
▁यहोशू 165
▁लगाई 165
▁लाग् 165
▁लेबुल 165
▁सुना 165
▁सेटअप 165
▁१९८ 165
& 164
iel 164
igh 164
pa 164
put 164
ंछ 164
ची 164
थी 164
▁75 164
▁Art 164
▁arose 164
▁di 164
▁extent 164
▁iron 164
▁mis 164
▁pure 164
▁reigned 164
▁sanctuary 164
▁showing 164
▁tra 164
▁अधिकारीहरू 164
▁अपराध 164
▁कू 164
▁घरको 164
▁नगरिएको 164
▁बढ्न 164
▁भनें 164
▁सेन्ट 164
▁स्वभाव 164
▁स्वस्थ 164
ares 163
based 163
ping 163
रहने 163
ालय 163
ौँ 163
▁More 163
▁bore 163
▁communication 163
▁feature 163
▁grow 163
▁personal 163
▁pray 163
▁productivity 163
▁sy 163
▁term 163
▁ve 163
▁weather 163
▁अक्षर 163
▁असा 163
▁कम्प 163
▁चिच्या 163
▁ठोस 163
▁नेतृत्व 163
▁पराजित 163
▁प्रवर्द्धन 163
▁महत्त्वपूर्ण 163
▁याकूब 163
▁लागत 163
▁विनाश 163
▁सर्भरले 163
▁साँझ 163
▁४५ 163
▁७५ 163
ature 162
ching 162
iness 162
mb 162
क्रि 162
स्तर 162
ीमा 162
▁Majesty 162
▁News 162
▁across 162
▁bow 162
▁commandment 162
▁construct 162
▁depend 162
▁ever 162
▁final 162
▁rejoice 162
▁secondary 162
▁अनुवाद 162
▁उल्ट 162
▁केन्द्रित 162
▁क्वेरी 162
▁भाइहरू 162
▁मुनि 162
▁शरीरको 162
▁संकलन 162
▁संग्रह 162
▁सहकारी 162
▁३५ 162
जले 161
ल्ट 161
शु 161
सकेपछि 161
स्ती 161
▁Beth 161
▁Disable 161
▁Eighth 161
▁Its 161
▁bonds 161
▁ears 161
▁exit 161
▁false 161
▁mal 161
▁multi 161
▁multiple 161
▁reg 161
▁season 161
▁serious 161
▁signature 161
▁wear 161
▁खोज 161
▁ख्रीष्टको 161
▁गर्नेछौ 161
▁चैत 161
▁जीव 161
▁प्रि 161
▁फेस 161
▁शु 161
▁हुन्न 161
atory 160
चक 160
तिक 160
तिमीहरू 160
याली 160
▁American 160
▁Canaan 160
▁Car 160
▁Good 160
▁bed 160
▁board 160
▁charge 160
▁encoding 160
▁imported 160
▁markets 160
▁pages 160
▁played 160
▁stopped 160
▁suggest 160
▁suitable 160
▁thanks 160
▁इभोल्युसन 160
▁एन्ड 160
▁खोलि 160
▁चल् 160
▁झा 160
▁त्यहीं 160
▁दाऊदका 160
▁दृष्टिकोणबाट 160
▁नाश 160
▁पलिश्ती 160
▁मन्त्री 160
▁मानिसहरूसित 160
▁योग 160
▁वर् 160
▁सजावट 160
▁स्थ 160
▁हिस्सा 160
aut 159
der 159
me 159
org 159
ount 159
port 159
क्षित 159
टिङ 159
तिमीले 159
पूर्वक 159
बर 159
र्का 159
र्ज 159
वासी 159
▁CUPS 159
▁Other 159
▁Pal 159
▁consumption 159
▁minutes 159
▁oper 159
▁returns 159
▁sit 159
▁अर्पण 159
▁उठा 159
▁गल्ती 159
▁जान्द 159
▁जिम्मेवारी 159
▁दरले 159
▁भाव 159
▁भेट्न 159
▁माध्यमबाट 159
▁विद्यार्थ 159
▁सम्ममा 159
▁९० 159
add 158
ager 158
ba 158
ley 158
ov 158
ser 158
किन 158
चाल 158
णि 158
पक 158
प्रसाद 158
यमा 158
▁Alt 158
▁GTK 158
▁Te 158
▁Zion 158
▁beauty 158
▁fore 158
▁frames 158
▁hills 158
▁potential 158
▁shadow 158
▁terror 158
▁अनिवार्य 158
▁कार्यक्रमलाई 158
▁जिम्मा 158
▁झन् 158
▁मार्ने 158
▁शो 158
rs 157
verse 157
केा 157
चित्र 157
छिन् 157
ञ्च 157
ट्टा 157
ताहरू 157
पू 157
वाल 157
▁IP 157
▁crop 157
▁dark 157
▁design 157
▁divided 157
▁doctor 157
▁environmental 157
▁forty 157
▁gates 157
▁unc 157
▁अं 157
▁अग्र 157
▁अनन्त 157
▁कार्यलाई 157
▁केहि 157
▁गहिरो 157
▁चाहे 157
▁झण्डा 157
▁पूर्वावस्थामा 157
▁प्याकेजहरू 157
▁प्रच 157
▁बैं 157
▁ब्य 157
▁भत् 157
▁मध्यम 157
▁राम 157
▁लगा 157
▁लिइएको 157
▁लैजा 157
▁विवाद 157
▁वृ 157
▁सङ्ग 157
▁हाँ 157
▁हारून 157
▁२०४८ 157
cent 156
ij 156
isation 156
oss 156
ps 156
छा 156
टका 156
दिनेछु 156
धु 156
शक्ति 156
ह्र 156
▁197 156
▁configure 156
▁conflict 156
▁easily 156
▁reduced 156
▁scientific 156
▁wrote 156
▁अस्तित्व 156
▁आफ्नी 156
▁उल्लेखनीय 156
▁कडा 156
▁कार 156
▁गोरू 156
▁चिकित्सा 156
▁जोडा 156
▁दिइने 156
▁पक्र 156
▁परिमिति 156
▁पाउनु 156
▁पारी 156
▁प्रकृति 156
▁प्रचलित 156
▁बर् 156
▁बसेका 156
▁मुक्ति 156
▁लुकाउनुहोस् 156
▁विशेषज्ञ 156
▁शैक्षिक 156
▁संस्कार 156
▁सूचकाङ्क 156
▁४१ 156
ills 155
कृ 155
तीय 155
पाद 155
मारी 155
श्चित 155
▁Address 155
▁Agriculture 155
▁Cisco 155
▁KMail 155
▁Left 155
▁Run 155
▁Though 155
▁almost 155
▁che 155
▁fonts 155
▁girls 155
▁heavens 155
▁lifted 155
▁mercy 155
▁planned 155
▁sum 155
▁vessels 155
▁vision 155
▁अन्तर्राष्ट्रिय 155
▁अभिबृद्धि 155
▁अवरोध 155
▁कानुन 155
▁क्षति 155
▁गतिविधि 155
▁गराइ 155
▁चाहनु 155
▁चुनाव 155
▁जिल्लाको 155
▁तिनीहरुको 155
▁थिई 155
▁ध्यानमा 155
▁नं 155
▁प्रदर्श 155
▁प्रे 155
▁बनाएर 155
▁मरूभूमिमा 155
▁राजनीति 155
▁विश्राम 155
▁शपथ 155
▁संकट 155
▁सिस्को 155
▁हतियार 155
▁हैन 155
▁ि 155
ater 154
आई 154
झैं 154
रोध 154
▁Mod 154
▁actual 154
▁bug 154
▁buttons 154
▁constant 154
▁duty 154
▁expanded 154
▁reported 154
▁utilization 154
▁अवयव 154
▁खर्चको 154
▁छोडेर 154
▁परमप्रभुबाट 154
▁प्रवृत्ति 154
▁भन्सार 154
▁व्यस्त 154
▁शान्त 154
▁सम्भावित 154
▁१९९ 154
agar 153
form 153
fully 153
mi 153
por 153
ze 153
आर 153
एम 153
ञ्ज 153
धिक 153
प्ति 153
भु 153
रेका 153
लिक 153
्नेछ 153
▁Last 153
▁Local 153
▁adv 153
▁analysis 153
▁concern 153
▁destruction 153
▁extended 153
▁generations 153
▁guard 153
▁header 153
▁hum 153
▁mental 153
▁radio 153
▁rel 153
▁suffering 153
▁worth 153
▁अबी 153
▁अही 153
▁ऐतिहासिक 153
▁गरून् 153
▁तान्नुहोस् 153
▁दीर्घकालीन 153
▁परमेश्वरबाट 153
▁बृद्धिदर 153
▁बैठक 153
▁शिर 153
▁सहायताको 153
▁सोही 153
aring 152
ience 152
ility 152
नीहरूले 152
फाइल 152
फे 152
स्य 152
ीन 152
ेला 152
▁26 152
▁Sw 152
▁Will 152
▁benefit 152
▁dream 152
▁follows 152
▁funds 152
▁kn 152
▁promote 152
▁proxy 152
▁sheet 152
▁starting 152
▁ur 152
▁गइ 152
▁गर्दैनन् 152
▁त्याग 152
▁नप 152
▁पोख 152
▁प्रोक्सी 152
▁बिट 152
▁भग 152
▁भूत 152
▁मिडिया 152
▁सङ्कलन 152
▁सौ 152
anc 151
gs 151
iced 151
ily 151
तिमीहरूले 151
दका 151
शे 151
ेसन 151
▁Files 151
▁Meeting 151
▁Program 151
▁connected 151
▁imports 151
▁inst 151
▁mobil 151
▁restart 151
▁usually 151
▁आवास 151
▁उद् 151
▁उपलब्धि 151
▁चिहान 151
▁नतिजा 151
▁नी 151
▁पारेको 151
▁भित्री 151
▁यता 151
▁विश्वव्यापी 151
▁व्यापारिक 151
▁शिकार 151
▁सफ्टवेयर 151
▁सीमाना 151
ining 150
ood 150
tern 150
दाता 150
न्ना 150
षा 150
हिन 150
ाउँदा 150
▁GIMP 150
▁Jeremiah 150
▁Jud 150
▁becomes 150
▁boy 150
▁comfort 150
▁hospitals 150
▁playing 150
▁quickly 150
▁town 150
▁waste 150
▁अर्ध 150
▁उज्यालो 150
▁गर्नुको 150
▁जाग 150
▁जिल्लाहरुमा 150
▁त्या 150
▁त्र् 150
▁पठाउ 150
▁पावल 150
▁पास 150
▁प्रशास 150
▁राम्रा 150
▁सामना 150
▁स्वामित्व 150
▁हल्ला 150
▁०० 150
AT 149
aged 149
ection 149
itude 149
काश 149
केका 149
क्का 149
क्रा 149
ङ्गा 149
चना 149
पात 149
▁Oh 149
▁San 149
▁Training 149
▁University 149
▁blind 149
▁commandments 149
▁completion 149
▁exc 149
▁fled 149
▁glad 149
▁graph 149
▁missing 149
▁novel 149
▁prov 149
▁recently 149
▁shared 149
▁tongue 149
▁transportation 149
▁wild 149
▁क्य 149
▁खण्डमा 149
▁चढा 149
▁छैन् 149
▁दिनुभएको 149
▁पति 149
▁पुरस्कार 149
▁बताउनु 149
▁बिता 149
▁माथिको 149
▁राजाका 149
▁राती 149
▁लज्जित 149
▁वस्त्र 149
▁विजय 149
▁शत्रुहरू 149
▁संकेत 149
▁संस्कृति 149
▁हित 149
▁३७ 149
airs 148
back 148
hold 148
ks 148
ler 148
ology 148
ories 148
orm 148
ound 148
stitution 148
चाइ 148
फल 148
संगै 148
▁Biratnagar 148
▁LDAP 148
▁Panchayat 148
▁Su 148
▁administrator 148
▁angry 148
▁att 148
▁benefits 148
▁bookmarks 148
▁consumed 148
▁origin 148
▁seeing 148
▁successful 148
▁उस्तै 148
▁कर्सर 148
▁चढाउनु 148
▁दिनुहुनेछ 148
▁यथार्थ 148
▁शब्दहरू 148
▁सके 148
▁सार् 148
▁सुन् 148
▁२०४६ 148
▁४८ 148
, 147
IL 147
IN 147
ask 147
ices 147
नीले 147
सक् 147
ेशन 147
▁Ass 147
▁English 147
▁Konqueror 147
▁Mal 147
▁abroad 147
▁believed 147
▁burden 147
▁drawn 147
▁educational 147
▁events 147
▁expand 147
▁firstborn 147
▁fruits 147
▁individual 147
▁lest 147
▁patients 147
▁represent 147
▁rice 147
▁sought 147
▁standing 147
▁अम 147
▁अर्का 147
▁नामको 147
▁पूर्वा 147
▁प्रणालीको 147
▁प्रयत्न 147
▁प्रसारण 147
▁बनाइएको 147
▁बनाऊ 147
▁यरूशलेमका 147
▁लागेका 147
▁सक्छु 147
▁सद 147
▁सिंचाई 147
▁स्थानान्तरण 147
▁हेडर 147
ately 146
osing 146
डका 146
निय 146
पान 146
▁27 146
▁Another 146
▁Load 146
▁Manasseh 146
▁Screen 146
▁books 146
▁capt 146
▁efficient 146
▁extend 146
▁ge 146
▁lie 146
▁loaded 146
▁pot 146
▁quant 146
▁section 146
▁sk 146
▁statutes 146
▁tent 146
▁unless 146
▁अतः 146
▁आयोग 146
▁गर्दछु 146
▁घे 146
▁छनोट 146
▁तिमीहरूसित 146
▁प्रर्दशन 146
▁फर्कि 146
▁बोल्न 146
▁यहूदीहरू 146
▁लगाएर 146
▁लेख्ने 146
▁सर्वशक्तिमान 146
▁हटाइ 146
▁हेरि 146
aur 145
cut 145
अनुरुप 145
काअनुसार 145
ग्ने 145
लिङ 145
लीको 145
सम्मको 145
ोमा 145
▁Apply 145
▁Central 145
▁Internet 145
▁Joab 145
▁Parliament 145
▁Voices 145
▁ban 145
▁comm 145
▁delay 145
▁detailed 145
▁eaten 145
▁equipment 145
▁ill 145
▁literature 145
▁negative 145
▁prison 145
▁अनुक्रमणिका 145
▁आमाको 145
▁आसा 145
▁कठोर 145
▁कारखाना 145
▁घुमा 145
▁ची 145
▁जान्दछु 145
▁ट्र 145
▁नया 145
▁नराम्रा 145
▁परिवारको 145
▁पुँर्या 145
▁पूर्वी 145
▁बजारको 145
▁बादल 145
▁भूल 145
▁युद्धमा 145
▁समाप्ति 145
▁सैनिकहरू 145
OS 144
SD 144
da 144
ration 144
ज्ञा 144
मूल 144
रहन्छ 144
रीले 144
सीको 144
▁Close 144
▁MIME 144
▁Pokhara 144
▁Sal 144
▁Samuel 144
▁collected 144
▁gross 144
▁launched 144
▁letters 144
▁lock 144
▁printed 144
▁tasks 144
▁tw 144
▁wants 144
▁अगुवाहरू 144
▁आरोप 144
▁एफ 144
▁जनताले 144
▁जनसंख्याको 144
▁तिमीहरुले 144
▁दाऊदको 144
▁परिवेश 144
▁पुस्तकमा 144
▁प्रयोगमा 144
▁भोग 144
▁यहोशूले 144
▁लगाउनु 144
▁सक्नुहुन्न 144
▁सवारी 144
app 143
hem 143
चे 143
मुखी 143
म्बर 143
रुपले 143
स्तरीय 143
▁Convert 143
▁Gilead 143
▁Shrestha 143
▁bless 143
▁cottage 143
▁download 143
▁driver 143
▁edge 143
▁equal 143
▁ev 143
▁exports 143
▁feasibility 143
▁integrated 143
▁marriage 143
▁reform 143
▁trend 143
▁tried 143
▁win 143
▁wor 143
▁उपभोग 143
▁कमारा 143
▁करारको 143
▁खाए 143
▁गर्नेतर्फ 143
▁छोरीहरू 143
▁जान्दछौ 143
▁डिजाइन 143
▁थियौं 143
▁दृष्टिले 143
▁परिवारका 143
▁पश्चिमी 143
▁प्यानल 143
▁प्रोटोकल 143
▁बाँच्न 143
▁मन्त्र 143
▁व्यक्तिको 143
▁शिक्ष 143
▁७० 143
book 142
itions 142
most 142
काइ 142
जक 142
तपाईं 142
मेन्ट 142
ेली 142
्छन् 142
▁1984 142
▁Current 142
▁Pat 142
▁RGB 142
▁Yet 142
▁activ 142
▁alive 142
▁alternative 142
▁aw 142
▁department 142
▁harm 142
▁journal 142
▁mean 142
▁sad 142
▁someone 142
▁stored 142
▁util 142
▁आत्माले 142
▁एप्लेट 142
▁कृ 142
▁गएका 142
▁गरिरहे 142
▁गर्नुहुनेछ 142
▁तिमीहरुलाई 142
▁थुमा 142
▁धो 142
▁नपु 142
▁पट्टि 142
▁फोकस 142
▁बन 142
▁भयभीत 142
▁महान् 142
▁लगाएको 142
▁वेद 142
▁व्यक्तिलाई 142
▁सेनाहरूका 142
▁हरा 142
abb 141
aka 141
ough 141
rol 141
स्थान 141
▁Corp 141
▁Rana 141
▁Unknown 141
▁^ 141
▁cache 141
▁calls 141
▁convert 141
▁cooperative 141
▁del 141
▁ed 141
▁encourage 141
▁entries 141
▁fund 141
▁knows 141
▁monitoring 141
▁officer 141
▁sales 141
▁starts 141
▁traffic 141
▁uses 141
▁walked 141
▁आफैले 141
▁उपदेश 141
▁खाँ 141
▁खेलाडी 141
▁जान्न 141
▁धितोपत्र 141
▁नक्कल 141
▁नाउँमा 141
▁पट 141
▁फै 141
▁बाबेल 141
▁समर्थ 141
▁सामु 141
▁सेनापति 141
aining 140
ently 140
ony 140
uck 140
urs 140
गको 140
टले 140
नँ 140
मार 140
माले 140
▁70 140
▁Hide 140
▁Just 140
▁Sat 140
▁Speak 140
▁achieved 140
▁album 140
▁configured 140
▁encryption 140
▁fuel 140
▁probably 140
▁responsible 140
▁tribes 140
▁via 140
▁आदिको 140
▁इन्टरफेस 140
▁चाप 140
▁चिन्ता 140
▁प्रयोगकर्ताको 140
▁बहिनी 140
▁मनमा 140
▁रोगी 140
▁लेखि 140
▁सन्तुलन 140
▁सस्तो 140
10 139
RRB 139
akh 139
any 139
iled 139
दर्श 139
दले 139
धिकार 139
शो 139
षित 139
िता 139
▁91 139
▁Az 139
▁Bangladesh 139
▁Jo 139
▁appeared 139
▁article 139
▁bookmark 139
▁desired 139
▁escape 139
▁everything 139
▁factors 139
▁fallen 139
▁film 139
▁idols 139
▁mixed 139
▁उद्योगको 139
▁कोण 139
▁कोशिश 139
▁झि 139
▁प्रिय 139
▁फाइलका 139
▁बढा 139
▁माफ 139
▁ल्याउ 139
▁विकल्पले 139
▁विशिष्ट 139
▁सबैको 139
▁स्वरूप 139
aved 138
ctors 138
ray 138
रीका 138
लाप 138
लियो 138
ल्नु 138
हुँ 138
▁196 138
▁Ben 138
▁Free 138
▁Research 138
▁SSL 138
▁attribute 138
▁bel 138
▁congregation 138
▁coordination 138
▁count 138
▁currency 138
▁debt 138
▁decided 138
▁fish 138
▁former 138
▁legal 138
▁lips 138
▁prince 138
▁requires 138
▁toolbar 138
▁अल 138
▁आइमाई 138
▁आउनेछ 138
▁आर्जन 138
▁उदार 138
▁एसि 138
▁कास 138
▁क्रि 138
▁गम्भीर 138
▁चाहन्थे 138
▁जमीनमा 138
▁जान्दैन 138
▁परिस्थिति 138
▁पाठको 138
▁पिताले 138
▁फलफूल 138
▁बगैंचा 138
▁बुद्ध 138
▁मरूभूमि 138
▁रिसेट 138
▁लक्षित 138
▁शब्दकोश 138
▁स्वर्गदूतले 138
▁२९ 138
ec 137
hu 137
kh 137
ones 137
rit 137
अब 137
कालीन 137
ञ्जेल 137
नाइ 137
रै 137
षि 137
स्व 137
हीं 137
▁204 137
▁Ach 137
▁Cont 137
▁Service 137
▁Sing 137
▁Wr 137
▁adjust 137
▁brass 137
▁bull 137
▁causes 137
▁forget 137
▁garments 137
▁issues 137
▁matrix 137
▁query 137
▁symbol 137
▁vector 137
▁झन 137
▁तिनीहरुलाई 137
▁तिनीहरूसित 137
▁दायित्व 137
▁नाप 137
▁नामकरण 137
▁परिवारलाई 137
▁पूरै 137
▁पोष्ट 137
▁बिजुली 137
▁भर्ना 137
▁यहूदाको 137
▁यूहन्ना 137
▁रुमा 137
▁सिपाही 137
▁सियो 137
▁सेवामा 137
ml 136
oll 136
कर्मी 136
तु 136
▁Center 136
▁Tab 136
▁begin 136
▁centers 136
▁coll 136
▁columns 136
▁contract 136
▁departed 136
▁difference 136
▁division 136
▁forced 136
▁global 136
▁parameter 136
▁percentage 136
▁ship 136
▁west 136
▁अनुग्रह 136
▁अन्यथा 136
▁आत्म 136
▁खेतमा 136
▁गर्दथे 136
▁गर्नाले 136
▁जाँदा 136
▁झन्डै 136
▁नियमहरू 136
▁पापहरू 136
▁प्रस्तावित 136
▁बस्थे 136
▁बासिन्दा 136
▁मानचित्र 136
▁य् 136
▁ल्याइ 136
▁वंश 136
▁संस्थाको 136
▁सार 136
elled 135
निर्माण 135
प्ने 135
भूत 135
वट 135
वाइ 135
▁Buddha 135
▁Nepalgunj 135
▁arch 135
▁cases 135
▁conduct 135
▁correctly 135
▁factor 135
▁famine 135
▁interface 135
▁languages 135
▁operate 135
▁parents 135
▁rob 135
▁sim 135
▁train 135
▁tri 135
▁अन्तमा 135
▁अभियान 135
▁कम्तिमा 135
▁काटि 135
▁जम्मै 135
▁ठहर 135
▁नसकिने 135
▁निर्देश 135
▁पृथ्वीको 135
▁प्रतिकूल 135
▁प्रश 135
▁फला 135
▁फाइलबाट 135
▁बित 135
▁भेटी 135
▁मोआब 135
▁यहूदीहरूले 135
▁सकिएको 135
▁साथमा 135
▁सिं 135
▁हेरे 135
▁हेर्ने 135
60 134
LRB 134
eed 134
ral 134
vel 134
दमा 134
सेट 134
▁Hospital 134
▁PC 134
▁cultural 134
▁deb 134
▁domain 134
▁incense 134
▁inner 134
▁layout 134
▁mus 134
▁photo 134
▁scheme 134
▁shout 134
▁switch 134
▁आठ 134
▁केटाकेटी 134
▁गार्हस्थ्य 134
▁गाली 134
▁गुमा 134
▁चक्र 134
▁जनावर 134
▁तैंले 134
▁दिन्छन् 134
▁पार्दछ 134
▁बहि 134
▁भन्दछु 134
▁महिनामा 134
▁मौसम 134
▁व्यवसायी 134
▁व्यवस्थामा 134
▁शोक 134
▁सम्भाव्य 134
▁सुन्नु 134
▁स्टे 134
MP 133
ably 133
anch 133
eds 133
ital 133
nder 133
oke 133
work 133
उँदा 133
किने 133
डिएको 133
डिया 133
धान 133
धी 133
नुभ 133
भो 133
मेल 133
म्बा 133
र्ण 133
साथै 133
िय 133
्यास 133
▁45 133
▁Asia 133
▁Cons 133
▁Keep 133
▁Rec 133
▁corner 133
▁ended 133
▁exceed 133
▁hair 133
▁indeed 133
▁knew 133
▁moment 133
▁religious 133
▁sending 133
▁showed 133
▁slain 133
▁till 133
▁अह 133
▁उत्पादकत्व 133
▁कोड 133
▁क्षमताको 133
▁ग्र 133
▁चलाउनुहोस् 133
▁जाँ 133
▁पठाउने 133
▁पुनप्राप्त 133
▁फोल्डरहरू 133
▁बनाउँछ 133
▁बाँन्की 133
▁ब्र 133
▁ब्राउज 133
▁भार 133
▁माउन्ट 133
▁मिटर 133
▁विजेट 133
▁विष 133
▁समु 133
▁हरियो 133
▁होइनन् 133
af 132
ann 132
ctions 132
ंक 132
ट्टै 132
पले 132
बाटै 132
वाला 132
शै 132
ष्य 132
▁Ham 132
▁URLs 132
▁backup 132
▁cash 132
▁clicking 132
▁learn 132
▁modify 132
▁notes 132
▁perfect 132
▁pol 132
▁release 132
▁requirements 132
▁response 132
▁suffer 132
▁thick 132
▁trained 132
▁ver 132
▁अब्शालो 132
▁आकर्षित 132
▁क्रमिक 132
▁खोल् 132
▁गाह्रो 132
▁तत् 132
▁दुईवटा 132
▁बद् 132
▁बसेर 132
▁भुक्तानी 132
▁भौगोलिक 132
▁मेरी 132
▁याकूबले 132
▁रथ 132
▁रहि 132
▁वातावरणीय 132
▁सूचीबाट 132
▁स्त्रीहरू 132
▁४९ 132
amed 131
ange 131
for 131
itor 131
rop 131
जनको 131
त्मा 131
नुभन्दा 131
मत 131
मुनि 131
म्री 131
हमा 131
िन् 131
▁195 131
▁300 131
▁35 131
▁BAR 131
▁Ed 131
▁Mor 131
▁Would 131
▁busy 131
▁commission 131
▁double 131
▁ensure 131
▁looks 131
▁material 131
▁preparation 131
▁productive 131
▁rad 131
▁therein 131
▁अल्प 131
▁असफलः 131
▁अस्पष्ट 131
▁इन्टरनेट 131
▁कोरि 131
▁छायाँ 131
▁छे 131
▁जबसम्म 131
▁तहको 131
▁तीस 131
▁तुरही 131
▁निमन्त्रणा 131
▁निर्देशन 131
▁निर्दोष 131
▁पालको 131
▁प्रमाणित 131
▁प्रशासनिक 131
▁भारतको 131
▁मानिसहरुलाई 131
▁मान्यता 131
▁यहोशापात 131
▁राणा 131
▁विच्छेद 131
▁स्तरीय 131
▁हस्तान्तरण 131
AS 130
aching 130
akes 130
apt 130
erence 130
ifier 130
list 130
uch 130
ux 130
क्सी 130
डर 130
भे 130
मेरो 130
रल 130
वाको 130
सँगको 130
▁Dec 130
▁HTTP 130
▁Shah 130
▁av 130
▁clothing 130
▁cou 130
▁info 130
▁kinds 130
▁lies 130
▁majority 130
▁po 130
▁properties 130
▁refuge 130
▁reward 130
▁successfully 130
▁update 130
▁उही 130
▁केटा 130
▁कोठामा 130
▁गरिएमा 130
▁ग्रे 130
▁चर्चा 130
▁बदल्नुहोस् 130
▁बुबा 130
▁मिल्ने 130
▁रोकि 130
▁लेखा 130
▁ल्याएको 130
▁वर्षे 130
▁सघ 130
▁समूहको 130
▁सहज 130
▁सूच 130
-- 129
aging 129
by 129
rate 129
उन् 129
गरी 129
डाको 129
ध्य 129
राख 129
लित 129
वृ 129
▁Possible 129
▁Two 129
▁bre 129
▁determine 129
▁icons 129
▁introduced 129
▁ld 129
▁located 129
▁questions 129
▁transl 129
▁welfare 129
▁wound 129
▁अग्लो 129
▁अपेक्षित 129
▁अर्थतन्त्र 129
▁आराधना 129
▁गरिन् 129
▁चाड 129
▁चाहन्छन् 129
▁तथ्याङ् 129
▁दिनेछ 129
▁दृष्टान्त 129
▁पत्रमञ्जूषा 129
▁पै 129
▁प्रष्ट 129
▁बीस 129
▁लिइ 129
▁व्यवस्थाप 129
▁सड 129
▁सम्भार 129
▁सहभागिता 129
▁सुरुआतमा 129
▁स्रोतको 129
OL 128
eb 128
ously 128
overed 128
so 128
बलि 128
शन 128
हान 128
हारी 128
▁Download 128
▁Goes 128
▁Have 128
▁Isaac 128
▁License 128
▁March 128
▁Stud 128
▁Water 128
▁actions 128
▁arri 128
▁branches 128
▁bur 128
▁cloud 128
▁committed 128
▁highway 128
▁medical 128
▁medicines 128
▁nine 128
▁popular 128
▁pur 128
▁reb 128
▁safe 128
▁served 128
▁अध्या 128
▁आजको 128
▁किल्ला 128
▁क्यामेरा 128
▁क्लिपबोर्डमा 128
▁चलचित्र 128
▁दिशामा 128
▁धान 128
▁नेपालका 128
▁पोखरा 128
▁पोषण 128
▁बचा 128
▁बटनमा 128
▁बढि 128
▁बाख्रा 128
▁मोटर 128
▁ये 128
▁राष्ट्रपति 128
▁रिसाइज 128
▁वाक्य 128
▁व्यापारी 128
▁समस्याको 128
▁सुख 128
▁सुलेमान 128
apped 127
aun 127
ype 127
क्नु 127
जाऊ 127
म्रा 127
ल्यान्ड 127
▁Ammon 127
▁Any 127
▁Automatically 127
▁Ba 127
▁CVS 127
▁GUI 127
▁Han 127
▁Hezekiah 127
▁Test 127
▁Valley 127
▁buried 127
▁completely 127
▁determined 127
▁flock 127
▁generated 127
▁loved 127
▁medicine 127
▁posts 127
▁royal 127
▁strengthened 127
▁wa 127
▁worked 127
▁अम् 127
▁अलि 127
▁आन्दोलन 127
▁कसै 127
▁कांग्रे 127
▁कुराहरु 127
▁घाउ 127
▁छोड्न 127
▁दिला 127
▁देवताहरू 127
▁नु 127
▁पुराना 127
▁बस्तु 127
▁बहिनीहरू 127
▁भावना 127
▁भूमिको 127
▁मुलुकको 127
▁रेल 127
▁लगभग 127
▁शत्रुहरूले 127
▁साझेदारी 127
▁स्थानको 127
▁३६ 127
hand 126
iation 126
oser 126
par 126
ढो 126
परेको 126
भार 126
याको 126
ाइन 126
▁Agricultural 126
▁Insert 126
▁Institute 126
▁Int 126
▁Med 126
▁Next 126
▁Specify 126
▁begun 126
▁burned 126
▁hot 126
▁initiated 126
▁investors 126
▁lion 126
▁meaning 126
▁methods 126
▁provides 126
▁revealed 126
▁telephone 126
▁wickedness 126
▁wives 126
▁अक्ष 126
▁अनुदान 126
▁क्लाइन्ट 126
▁गैरसरकारी 126
▁ग्रह 126
▁जित 126
▁डोर्या 126
▁ड्राइभर 126
▁त्यहाँबाट 126
▁देखिएका 126
▁द्वि 126
▁नानी 126
▁पपअप 126
▁पर्ख 126
▁पीडित 126
▁फ्या 126
▁बजे 126
▁ब् 126
▁मसँग 126
▁मार्नु 126
▁योआब 126
▁लगाउ 126
▁विच 126
▁सफलतापूर्वक 126
▁हिर्का 126
40 125
ific 125
ken 125
otion 125
तान 125
ध्या 125
नुहुन्न 125
न्नु 125
प्न 125
स्प 125
▁Custom 125
▁Sar 125
▁TRANSLATORS 125
▁Women 125
▁ate 125
▁backward 125
▁comment 125
▁curse 125
▁destination 125
▁effectively 125
▁fulfilled 125
▁numbered 125
▁picture 125
▁pop 125
▁possibility 125
▁random 125
▁risk 125
▁shame 125
▁sinned 125
▁strengthen 125
▁कल्याण 125
▁कवि 125
▁गै 125
▁घटाउन 125
▁चे 125
▁झर् 125
▁पाट 125
▁प्रयोगकर्ताले 125
▁महत्त्व 125
▁योजनाले 125
▁राजाहरू 125
▁लाइ 125
▁शत्रुहरूलाई 125
▁शहरहरूमा 125
▁हेक्टरमा 125
aven 124
ees 124
ond 124
set 124
ंश 124
त्यस 124
धन 124
नुहोस 124
माको 124
लिएको 124
विरुद्ध 124
हलाई 124
▁Aut 124
▁Blessed 124
▁Em 124
▁birds 124
▁conc 124
▁council 124
▁decentral 124
▁elect 124
▁fix 124
▁garden 124
▁married 124
▁paid 124
▁relationship 124
▁san 124
▁sitting 124
▁software 124
▁tem 124
▁treat 124
▁इजाजत 124
▁उत्तरी 124
▁कले 124
▁कार्यक्रमहरुको 124
▁गाडी 124
▁घा 124
▁चल्ने 124
▁चेलाहरूले 124
▁तथ्या 124
▁दुःखी 124
▁नियुक्त 124
▁बोल्नु 124
▁मज 124
▁रही 124
▁लाइब्रेरी 124
▁व्यवस्थित 124
▁शिक्षण 124
▁स्थित 124
▁हुनुभयो 124
▁२०४१ 124
ener 123
gh 123
iling 123
ipur 123
rated 123
reat 123
view 123
ware 123
क्ता 123
प्रो 123
ल्ल 123
साइ 123
िया 123
▁Jonathan 123
▁Necessary 123
▁Prov 123
▁Sec 123
▁aspects 123
▁branch 123
▁celebr 123
▁expensive 123
▁ha 123
▁hearts 123
▁kde 123
▁margin 123
▁mor 123
▁neck 123
▁politics 123
▁regarding 123
▁rows 123
▁tourist 123
▁trash 123
▁whoever 123
▁इस्राएलमा 123
▁उन् 123
▁कन्फिग 123
▁कमि 123
▁गिदो 123
▁घटनाहरू 123
▁छुट्ट 123
▁जन्मि 123
▁जान्छन् 123
▁जोग 123
▁तुलना 123
▁दृष्टिगत 123
▁धर् 123
▁पत्रकार 123
▁पाइने 123
▁फुट 123
▁ल्याई 123
▁संविधान 123
▁सर्वोच्च 123
▁२०१ 123
cher 122
ott 122
raw 122
reg 122
rypt 122
uff 122
उँछु 122
जसो 122
टिक 122
तक 122
भाग 122
यको 122
र्सि 122
ालमा 122
▁.250 122
▁Ag 122
▁Baal 122
▁Comm 122
▁Connect 122
▁Enc 122
▁Over 122
▁Whoever 122
▁acqu 122
▁besides 122
▁cells 122
▁complex 122
▁engine 122
▁fit 122
▁grace 122
▁greatly 122
▁honey 122
▁loc 122
▁pat 122
▁pred 122
▁sides 122
▁sn 122
▁student 122
▁sugar 122
▁tabernacle 122
▁अख 122
▁अन्धकार 122
▁इस्राएलीहरू 122
▁उत्साह 122
▁एसाव 122
▁चलन 122
▁ज्योति 122
▁धूलो 122
▁नआ 122
▁नाफा 122
▁निरा 122
▁पर्व 122
▁फागुन 122
▁बलिदान 122
▁भनिएको 122
▁भैरहेको 122
▁भोल्युम 122
▁यरूशलेमको 122
▁लाश 122
▁लिई 122
▁सङ्गीत 122
▁स्क्यान 122
▁१९७ 122
ips 121
itting 121
ority 121
अनु 121
तिमा 121
पक्ष 121
बू 121
योजना 121
र्नुहोस् 121
▁Assyria 121
▁Before 121
▁Eli 121
▁IN 121
▁Object 121
▁Programme 121
▁River 121
▁ant 121
▁decline 121
▁hate 121
▁identify 121
▁infrastructure 121
▁modified 121
▁opposition 121
▁कांग्रेस 121
▁किलो 121
▁खालका 121
▁छोड्नुहोस् 121
▁त्रिभुवन 121
▁दौ 121
▁पत्रुस 121
▁पीडा 121
▁बसि 121
▁ब्रि 121
▁भएँ 121
▁भाषामा 121
▁मानिन्छ 121
▁रासायनिक 121
▁लैजाने 121
▁वरिपरिका 121
▁सिमा 121
▁हाइ 121
▁२०१८ 121
acing 120
ariah 120
icate 120
ision 120
ively 120
lect 120
urb 120
wood 120
न्यो 120
विक 120
सिन 120
ाटा 120
िएका 120
▁Book 120
▁Chief 120
▁GNU 120
▁Give 120
▁Information 120
▁Office 120
▁Samaria 120
▁Special 120
▁avoid 120
▁bond 120
▁bringing 120
▁consumer 120
▁cour 120
▁expenditures 120
▁mat 120
▁mer 120
▁require 120
▁scattered 120
▁sens 120
▁skill 120
▁super 120
▁unf 120
▁wealth 120
▁www 120
▁उपर्युक्त 120
▁एमाले 120
▁कोर् 120
▁चालि 120
▁चाहन्छौ 120
▁ताल 120
▁प्रधानमन्त्री 120
▁फैला 120
▁भेटि 120
▁मिनेट 120
▁लडाइँ 120
▁वर्षहरुमा 120
▁शास 120
▁हुनेछु 120
governmental 119
ius 119
ka 119
ope 119
ret 119
ulate 119
किङ 119
क्षेत्र 119
जहरू 119
जिक 119
ण्डा 119
द्धा 119
पार 119
रीहरू 119
▁2000 119
▁Bir 119
▁Birgunj 119
▁Day 119
▁Har 119
▁Inter 119
▁arguments 119
▁bu 119
▁containing 119
▁cub 119
▁earlier 119
▁grie 119
▁highest 119
▁isn 119
▁parameters 119
▁protocol 119
▁restore 119
▁seconds 119
▁taught 119
▁te 119
▁thread 119
▁आपसमा 119
▁आफैलाई 119
▁कक्षा 119
▁कसैको 119
▁क्षण 119
▁चाहा 119
▁चाहि 119
▁जुम 119
▁डरले 119
▁डाँडा 119
▁बोसो 119
▁यसैकारण 119
▁राख्छ 119
▁रानी 119
▁सामरिया 119
oration 118
zer 118
क्कै 118
योस् 118
सम 118
िन्छ 118
ूर्ति 118
▁April 118
▁Black 118
▁CC 118
▁Dev 118
▁NO 118
▁Remember 118
▁cold 118
▁delight 118
▁doctors 118
▁earnings 118
▁glor 118
▁golden 118
▁hur 118
▁incident 118
▁relating 118
▁rulers 118
▁secure 118
▁ser 118
▁sur 118
▁team 118
▁techniques 118
▁zoom 118
▁अनपेक्षित 118
▁अब्राहाम 118
▁गिम्प 118
▁नोक्सान 118
▁प् 118
▁प्रजा 118
▁प्रत्या 118
▁बेत 118
▁यूसुफले 118
▁सधै 118
▁सांस्कृतिक 118
▁साइट 118
▁साट 118
▁स्तरको 118
▁स्त्र 118
▁हिजकियाह 118
20 117
aming 117
bed 117
eral 117
ider 117
map 117
rom 117
uation 117
कृति 117
पूर्व 117
यू 117
श्री 117
सभा 117
▁Ash 117
▁Commun 117
▁Hear 117
▁Irrigation 117
▁Path 117
▁Year 117
▁act 117
▁alle 117
▁attend 117
▁brings 117
▁camera 117
▁campus 117
▁felt 117
▁flag 117
▁grass 117
▁horses 117
▁meat 117
▁parent 117
▁piece 117
▁postal 117
▁sense 117
▁shot 117
▁smooth 117
▁आहाब 117
▁एलिया 117
▁केन्द्रमा 117
▁खानेकुरा 117
▁खुबै 117
▁द्रुत 117
▁पापको 117
▁प्रहरीले 117
▁बटु 117
▁मू 117
▁मौका 117
▁संसारको 117
▁सङ्कुचन 117
▁सत्ता 117
▁साँढे 117
▁सेनाहरू 117
▁स्तम्भको 117
▁स्तुति 117
▁३८ 117
▁३९ 117
down 116
etic 116
ift 116
mitted 116
इँ 116
उँदछ 116
ग्राम 116
जन्य 116
जीव 116
डियो 116
धित 116
र्फत 116
लीमा 116
स्या 116
हरुमध्ये 116
्ले 116
००० 116
▁Command 116
▁July 116
▁Line 116
▁Mid 116
▁Replace 116
▁Singh 116
▁UML 116
▁UTF 116
▁accepted 116
▁acts 116
▁alcohol 116
▁bridges 116
▁captivity 116
▁concept 116
▁contribution 116
▁ext 116
▁fool 116
▁gets 116
▁instance 116
▁leaves 116
▁mailbox 116
▁perish 116
▁produ 116
▁reforms 116
▁songs 116
▁stage 116
▁stayed 116
▁अन् 116
▁अवश्य 116
▁उदा 116
▁एलीशा 116
▁गरौं 116
▁ढि 116
▁तत्काल 116
▁तालीम 116
▁दगु 116
▁दाउरा 116
▁देखाइएको 116
▁नामक 116
▁निर 116
▁परिश्रम 116
▁बसेको 116
▁राजधानी 116
▁शै 116
▁सातवटा 116
▁हिन्दू 116
▁४३ 116
body 115
five 115
ilities 115
inc 115
ऊँ 115
कियो 115
ठन 115
फाइ 115
लाल 115
सहरू 115
▁Again 115
▁Char 115
▁Network 115
▁Page 115
▁Plugin 115
▁Script 115
▁apply 115
▁approach 115
▁beloved 115
▁el 115
▁faithful 115
▁flee 115
▁formulated 115
▁heavy 115
▁hurt 115
▁late 115
▁mem 115
▁popup 115
▁satisf 115
▁tomb 115
▁vertical 115
▁walls 115
▁अधिकृत 115
▁अरब 115
▁कागजातको 115
▁कोइराला 115
▁चलाइ 115
▁चलाउने 115
▁जनाएको 115
▁तुल्याउन 115
▁देखेको 115
▁नाउँको 115
▁परिभाषा 115
▁पारेर 115
▁प्रजातन्त्रको 115
▁प्राप्ति 115
▁फिरऊ 115
▁बोलाए 115
▁मर्ने 115
▁मान्नु 115
▁मृत्युको 115
▁वर्षका 115
▁वहाँ 115
▁शुल्क 115
▁सघाउ 115
▁सचेत 115
▁सर्वसाधारण 115
▁स्मरण 115
▁हद 115
▁हस्त 115
ait 114
cted 114
gan 114
heet 114
ients 114
oot 114
ples 114
ribe 114
rif 114
room 114
sec 114
कुल 114
तले 114
ब्या 114
याहका 114
लियन 114
लिया 114
सनको 114
ाइट 114
ाउँछन् 114
▁199 114
▁Air 114
▁Camp 114
▁Clear 114
▁Dan 114
▁Each 114
▁Fil 114
▁Ob 114
▁Read 114
▁Reset 114
▁Sign 114
▁Western 114
▁ball 114
▁component 114
▁determines 114
▁execution 114
▁ignored 114
▁jobs 114
▁join 114
▁mult 114
▁offline 114
▁operated 114
▁poured 114
▁prayer 114
▁relative 114
▁requirement 114
▁restrict 114
▁separ 114
▁struggle 114
▁tim 114
▁viol 114
▁wheat 114
▁अदाल 114
▁आंशिक 114
▁आउँदा 114
▁उनीहरुको 114
▁कार्यकारी 114
▁किताब 114
▁चासो 114
▁चाहिन्छ 114
▁चिनि 114
▁जेल 114
▁डरलाग्दो 114
▁तर् 114
▁थम्बनेल 114
▁नजिकै 114
▁पर्वतमा 114
▁पिताको 114
▁बहुविध 114
▁बुट 114
▁भएता 114
▁लिएका 114
▁संवादमा 114
▁सिँचाइ 114
▁सुम्पि 114
▁हातले 114
ER 113
bers 113
bon 113
eph 113
ided 113
ote 113
क्षक 113
बेल 113
यता 113
रूपमा 113
ल्प 113
▁Besides 113
▁End 113
▁Fin 113
▁Gener 113
▁Hindu 113
▁Shall 113
▁aud 113
▁brow 113
▁chariots 113
▁claim 113
▁corporations 113
▁extra 113
▁leaving 113
▁overwrite 113
▁pen 113
▁probability 113
▁publ 113
▁square 113
▁streets 113
▁अधिकारीहरूले 113
▁आरो 113
▁उद्योगहरुको 113
▁कामदार 113
▁खरीद 113
▁गन्तव्य 113
▁घुम् 113
▁चेलाहरूलाई 113
▁जलस्रोत 113
▁डाटा 113
▁ताजा 113
▁निजीकरण 113
▁प्रतिनिधित्व 113
▁बप्तिस्मा 113
▁बसोबास 113
▁बोल 113
▁भाई 113
▁मापदण्ड 113
▁मास्क 113
▁राखेका 113
▁वाली 113
▁वेदीमा 113
▁शहरलाई 113
▁संयोजन 113
▁सकारात्मक 113
▁सकिँदैनः 113
▁सन 113
▁हुंदैन 113
▁ह्रास 113
▁३१ 113
-200 112
alk 112
apes 112
aves 112
ien 112
level 112
oo 112
ship 112
utes 112
क्टर 112
गार 112
तीमा 112
दानको 112
नुहु 112
परमप्रभुले 112
मण्डल 112
रोग 112
लर 112
▁About 112
▁Always 112
▁Bas 112
▁Bhaktapur 112
▁Job 112
▁Land 112
▁POP 112
▁Requ 112
▁Tim 112
▁belong 112
▁blue 112
▁broke 112
▁client 112
▁commun 112
▁consciousness 112
▁dist 112
▁distance 112
▁div 112
▁farmer 112
▁formulation 112
▁institution 112
▁kid 112
▁lamp 112
▁matching 112
▁occasion 112
▁pick 112
▁proceed 112
▁ratio 112
▁stars 112
▁thoughts 112
▁zone 112
▁~ 112
▁अद 112
▁आकर्षक 112
▁आगोमा 112
▁इस्राएलीहरूले 112
▁उद्धार 112
▁ऋणको 112
▁एकदम 112
▁क्षमतामा 112
▁चलि 112
▁छरि 112
▁छविमा 112
▁जान्नु 112
▁तँलाई 112
▁तातो 112
▁तोकिएको 112
▁दीर्घ 112
▁पाइएको 112
▁फोल्डरको 112
▁बाढी 112
▁भयानक 112
▁मैदान 112
▁यिनै 112
▁राज्यमा 112
▁रुपान्तरण 112
▁लोग्ने 112
▁वाध्य 112
▁वेश्या 112
▁सरा 112
aced 111
go 111
ody 111
q 111
urn 111
ग्नु 111
थान 111
नुपर्छ 111
सू 111
▁Background 111
▁Log 111
▁PGP 111
▁Short 111
▁Trade 111
▁apart 111
▁arrangement 111
▁authentication 111
▁backend 111
▁bind 111
▁citizens 111
▁dictionary 111
▁encamped 111
▁implementing 111
▁indic 111
▁mainly 111
▁official 111
▁particular 111
▁phase 111
▁sale 111
▁suburbs 111
▁van 111
▁wave 111
▁अनलाइन 111
▁आँग 111
▁उत्सव 111
▁उद्धरण 111
▁करोडको 111
▁केन्द्रको 111
▁खतरा 111
▁खर्चमा 111
▁घनत्व 111
▁चढाए 111
▁चिनी 111
▁ज्ञ 111
▁ट्रि 111
▁नदेख 111
▁प्रवेशद्वार 111
▁प्राधिकरण 111
▁बचाउन 111
▁बन्ने 111
▁भ्या 111
▁मकै 111
▁मिश्रमा 111
▁राज्यको 111
▁वर्षदेखि 111
▁साह 111
▁सुनेर 111
▁स्प 111
▁२०१७ 111
80 110
adh 110
cast 110
ew 110
itation 110
ls 110
rec 110
काम 110
कू 110
खे 110
दिन्छ 110
वत 110
वस्तु 110
सेर 110
▁Dharan 110
▁Kal 110
▁Lab 110
▁Pri 110
▁Small 110
▁Us 110
▁Used 110
▁Various 110
▁Wall 110
▁Written 110
▁blank 110
▁clearly 110
▁conservation 110
▁desolate 110
▁du 110
▁effort 110
▁excessive 110
▁imm 110
▁integer 110
▁journey 110
▁lands 110
▁permanently 110
▁pillars 110
▁player 110
▁rot 110
▁signs 110
▁stomach 110
▁stream 110
▁अगमवक्ताहरू 110
▁अज 110
▁अत्यावश्यक 110
▁अन्तर् 110
▁आङ्ग 110
▁इकाई 110
▁उता 110
▁एकाइ 110
▁किनारमा 110
▁कुञ्जीले 110
▁गण 110
▁छर् 110
▁छविलाई 110
▁छैनौं 110
▁ठिक 110
▁त्यसबाट 110
▁देख्नु 110
▁देशबाट 110
▁ध्व 110
▁पट्टी 110
▁पुर्खाहरूले 110
▁प्रहार 110
▁फ्याँ 110
▁बोल्ने 110
▁ब्रा 110
▁भनाइ 110
▁रेखाचित्र 110
▁वास्तवमै 110
▁विज्ञापन 110
▁विराटनगर 110
▁व्यक्तिहरू 110
▁साझेदार 110
▁सालको 110
▁सुन्द 110
▁सुस्त 110
▁हटाउने 110
▁हेर्नु 110
,4 109
atter 109
gin 109
iff 109
lock 109
oph 109
other 109
une 109
vert 109
क्षेत्रमा 109
ज्यू 109
थें 109
पथ 109
पाई 109
यरको 109
रूप 109
र्च 109
▁2016 109
▁65 109
▁America 109
▁Both 109
▁Rel 109
▁Remote 109
▁Sur 109
▁Tourism 109
▁Union 109
▁adult 109
▁angle 109
▁beg 109
▁corrupt 109
▁den 109
▁disable 109
▁discussion 109
▁distributed 109
▁highlight 109
▁max 109
▁ordinances 109
▁plain 109
▁prop 109
▁proposal 109
▁recorded 109
▁repair 109
▁trespass 109
▁ut 109
▁अग 109
▁अनुमानित 109
▁अफलाइन 109
▁आन्दोल 109
▁आराम 109
▁इन्कर्पोरेटि 109
▁उनीहरु 109
▁किशोर 109
▁गर्भवती 109
▁जसो 109
▁ढाल 109
▁तत्त्व 109
▁तरकारी 109
▁तीनवटा 109
▁थिच 109
▁थुप्रै 109
▁ध्वंस 109
▁परिचित 109
▁पानीमा 109
▁प्राणी 109
▁बढाउ 109
▁बृ 109
▁मनश्शे 109
▁मरेको 109
▁मिलाउन 109
▁लाग्न 109
▁लेवीहरू 109
▁सडकको 109
▁साँच्चिकै 109
▁साता 109
▁सूचक 109
▁सेकेन्ड 109
▁स्वयंलाई 109
▁हाले 109
11 108
ES 108
TP 108
ble 108
ey 108
imp 108
ira 108
ishing 108
ribute 108
teen 108
war 108
जका 108
तापूर्वक 108
मर 108
म्या 108
वारी 108
सिस 108
हरूमध्ये 108
ुन 108
ेरै 108
▁84 108
▁Construct 108
▁Date 108
▁Industrial 108
▁Part 108
▁Val 108
▁ability 108
▁ancient 108
▁cy 108
▁digiKam 108
▁discuss 108
▁extract 108
▁fail 108
▁nnn 108
▁online 108
▁plugins 108
▁purch 108
▁ruler 108
▁shape 108
▁trouble 108
▁western 108
▁अभावमा 108
▁अवि 108
▁अश्शूरका 108
▁इरा 108
▁उत्पादक 108
▁एक्लै 108
▁खानी 108
▁खोज्न 108
▁गतिशील 108
▁घाँस 108
▁चिया 108
▁चेष्टा 108
▁जोखिम 108
▁तपाईँका 108
▁तार 108
▁थि 108
▁दिनुपर्छ 108
▁पात्र 108
▁पारदर्शी 108
▁फ्रे 108
▁बन्ध 108
▁बाजा 108
▁भन्नुभएको 108
▁लगिनेछ 108
▁लेखक 108
▁वचनहरू 108
▁विकल्पहरू 108
▁सँ 108
▁समूहलाई 108
▁साटोमा 108
▁स्वतः 108
▁हजारौं 108
▁हुनुको 108
▁हेरो 108
,7 107
30 107
DE 107
ML 107
anging 107
aper 107
era 107
oned 107
owed 107
raction 107
ression 107
गल 107
जग 107
ट्या 107
डामा 107
डिएका 107
तार 107
नुसार 107
पाइ 107
प्ले 107
मति 107
मिन 107
मोन 107
वन्ध 107
साई 107
स्थितिमा 107
५० 107
▁29 107
▁Absalom 107
▁CRL 107
▁Home 107
▁Men 107
▁captain 107
▁costs 107
▁girl 107
▁mask 107
▁organisations 107
▁otherwise 107
▁processing 107
▁rejected 107
▁ri 107
▁ring 107
▁sufficient 107
▁surv 107
▁teeth 107
▁thinking 107
▁traveled 107
▁wide 107
▁अत्या 107
▁कन्या 107
▁ग्रेडियन्ट 107
▁ट्या 107
▁ठाँउ 107
▁ठे 107
▁डक 107
▁थालनी 107
▁देखेका 107
▁निस्तार 107
▁बात 107
▁भक्त 107
▁मिश्रदेश 107
▁मुलुकमा 107
▁वर 107
▁शरीरलाई 107
▁समितिको 107
▁समूहले 107
▁सम्पाद 107
▁सामुदायिक 107
ON 106
agi 106
bit 106
cc 106
co 106
het 106
ief 106
lean 106
ng 106
pose 106
é 106
खि 106
घात 106
द्व 106
न्टी 106
म्म 106
लिने 106
ल्न 106
स्थापना 106
ाइने 106
▁Arab 106
▁Mus 106
▁Pers 106
▁Selected 106
▁September 106
▁Tem 106
▁anointed 106
▁conducting 106
▁cor 106
▁der 106
▁executed 106
▁failure 106
▁gener 106
▁happy 106
▁har 106
▁household 106
▁insert 106
▁laws 106
▁maintained 106
▁med 106
▁obey 106
▁quantity 106
▁signed 106
▁आवा 106
▁इस्राएलीहरूलाई 106
▁कार्यले 106
▁कार्यान्वयनमा 106
▁गर्छन 106
▁दानिय 106
▁दृढ 106
▁दोहोर्या 106
▁निम् 106
▁पाकिस्ता 106
▁पूजाहारीहरूले 106
▁प्रादेशिक 106
▁फ्याँकि 106
▁बास 106
▁बाहिरी 106
▁बैंकले 106
▁ब्लग 106
▁महारा 106
▁मानिसहरुले 106
▁मुद्राको 106
▁यिनी 106
▁लम्बाइ 106
▁ल्याऊ 106
▁विकासकर्ता 106
▁वित्त 106
▁विरोधी 106
▁व्याज 106
▁सगरमाथा 106
▁सन्ता 106
▁सुत् 106
,2 105
Z 105
fer 105
ials 105
ield 105
ison 105
lies 105
ued 105
घर 105
टिभ 105
धै 105
पक्षीय 105
बारी 105
ात्मक 105
▁Bo 105
▁Configuration 105
▁Edom 105
▁Ext 105
▁Keyboard 105
▁Look 105
▁Sikkim 105
▁Sm 105
▁advert 105
▁awareness 105
▁bas 105
▁breath 105
▁buildings 105
▁bul 105
▁crowd 105
▁dam 105
▁declared 105
▁diff 105
▁efficiency 105
▁encrypted 105
▁famous 105
▁festival 105
▁floor 105
▁gain 105
▁grew 105
▁instruments 105
▁mill 105
▁pan 105
▁paths 105
▁solution 105
▁stri 105
▁unexpected 105
▁walking 105
▁अन्धा 105
▁आग्रह 105
▁छुट्टै 105
▁जाभा 105
▁थालि 105
▁दृष्टिकोणले 105
▁नहर 105
▁पञ्चायती 105
▁पाइप 105
▁पात 105
▁पृथ्वीका 105
▁प्रया 105
▁बनायो 105
▁बेंसी 105
▁भीड 105
▁मिसि 105
▁राम्रोसँग 105
▁रोज 105
▁लुगाहरू 105
▁वेदीको 105
▁संसाधन 105
▁सहर 105
▁सायद 105
▁हाँसो 105
AP 104
IC 104
ae 104
dir 104
inter 104
ivers 104
more 104
pect 104
pet 104
uel 104
कला 104
च्छा 104
झा 104
त्तर 104
नान 104
पानी 104
बाद 104
लिस 104
्ा 104
२० 104
▁Apart 104
▁Je 104
▁KW 104
▁Rename 104
▁Ser 104
▁Sri 104
▁Turn 104
▁White 104
▁aff 104
▁affects 104
▁artist 104
▁bones 104
▁brush 104
▁centre 104
▁continu 104
▁daemon 104
▁editing 104
▁emer 104
▁enhance 104
▁enjoy 104
▁flour 104
▁gradient 104
▁heat 104
▁hom 104
▁irrig 104
▁plague 104
▁possession 104
▁prior 104
▁ran 104
▁round 104
▁salt 104
▁separated 104
▁spring 104
▁swe 104
▁अर्ब 104
▁इत्यादि 104
▁केश 104
▁खासगरी 104
▁चाहनुभएको 104
▁टेवा 104
▁ट्री 104
▁थ्रेड 104
▁धैर्य 104
▁पिउन 104
▁प्रशि 104
▁फड् 104
▁भागको 104
▁महेन्द्र 104
▁मान्य 104
▁विगतमा 104
▁व्यापारको 104
▁शीर्ष 104
▁सञ्चालनमा 104
▁सदस्यता 104
▁समयसम्म 104
▁सम्भवत 104
▁सिदकियाह 104
▁३३ 104
OM 103
ached 103
ape 103
ilot 103
ior 103
low 103
ओटा 103
कूल 103
क्या 103
त्यो 103
दिने 103
नकोलागि 103
बाल 103
र्द 103
ल्दै 103
वाणी 103
स्त्र 103
▁Att 103
▁Bab 103
▁Which 103
▁appearance 103
▁aside 103
▁bill 103
▁broad 103
▁captains 103
▁choice 103
▁communities 103
▁consist 103
▁constit 103
▁defin 103
▁eighth 103
▁fifth 103
▁flat 103
▁grid 103
▁moon 103
▁ox 103
▁pra 103
▁reports 103
▁skills 103
▁spend 103
▁visited 103
▁womb 103
▁अपरि 103
▁अरूलाई 103
▁उपत्यका 103
▁उर्जा 103
▁उल्लेखित 103
▁खपत 103
▁घाइते 103
▁जस 103
▁टेलिफोन 103
▁डलरमा 103
▁ढल 103
▁दुइजना 103
▁नर 103
▁नहु 103
▁निग 103
▁नेपालगञ्ज 103
▁पाउँछ 103
▁पुर्याउनु 103
▁प्रशोधन 103
▁फिल्म 103
▁बाला 103
▁बोकेर 103
▁भित् 103
▁मरि 103
▁यकिन 103
▁रोज्न 103
▁लहर 103
▁वाक्यांश 103
▁संस्थाहरुको 103
▁सन्धि 103
▁स्कुल 103
▁हिड 103
cept 102
ession 102
mark 102
ox 102
rou 102
rupt 102
unt 102
wan 102
wr 102
नकालागि 102
मन्त्र 102
र्थी 102
ूर् 102
ेलको 102
्च 102
▁1961 102
▁62 102
▁Access 102
▁Among 102
▁Bal 102
▁Call 102
▁Foreign 102
▁Jeroboam 102
▁Services 102
▁Sets 102
▁accordance 102
▁appro 102
▁comb 102
▁devices 102
▁director 102
▁documents 102
▁drug 102
▁ends 102
▁feeling 102
▁goal 102
▁grave 102
▁hint 102
▁lab 102
▁lambs 102
▁owner 102
▁protest 102
▁provisions 102
▁rename 102
▁replaced 102
▁shell 102
▁station 102
▁testimony 102
▁अँध्यारो 102
▁अन्तर्राष्टि्रय 102
▁अन्वेषण 102
▁अस्पतालमा 102
▁आउँछन् 102
▁आयोगको 102
▁उत्पादित 102
▁ओर् 102
▁कान्तिपुर 102
▁किसिमले 102
▁कुना 102
▁खम्बा 102
▁गरिदिनु 102
▁गरेन 102
▁गर्नुहु 102
▁डीपीआई 102
▁ड्राइभ 102
▁दशक 102
▁न्यू 102
▁पठाएको 102
▁प्य 102
▁प्रथा 102
▁प्रसिद्ध 102
▁फेरी 102
▁बट 102
▁भोलि 102
▁रहबा 102
▁राष्ट्रको 102
▁लिनुहोस् 102
▁लेखिएका 102
▁वृक्षारोपण 102
▁वृत्त 102
▁व्यापारमा 102
▁समुद्रको 102
▁स्वामी 102
000 101
8226 101
ems 101
enc 101
ension 101
igned 101
imal 101
omet 101
rah 101
एफ 101
ख्य 101
मध्य 101
रिङ 101
वाही 101
शू 101
्छु 101
▁31 101
▁Airport 101
▁Centre 101
▁Elijah 101
▁School 101
▁commit 101
▁customs 101
▁dri 101
▁enc 101
▁equ 101
▁fin 101
▁flood 101
▁functions 101
▁gedit 101
▁gnome 101
▁huge 101
▁linen 101
▁monetary 101
▁mort 101
▁moves 101
▁panchayats 101
▁planted 101
▁sets 101
▁stick 101
▁surpr 101
▁yesterday 101
▁अभिवृद्धि 101
▁आस 101
▁उहां 101
▁कम्युनिष्ट 101
▁कहिलेका 101
▁कारबाही 101
▁कालमा 101
▁गर्व 101
▁गिला 101
▁ग्या 101
▁घुसाउनुहोस् 101
▁चारै 101
▁चौकी 101
▁चौडा 101
▁छोडे 101
▁दिंदै 101
▁दृश्यमा 101
▁निर्माणको 101
▁पहिलेको 101
▁पावलले 101
▁पिउने 101
▁पैदा 101
▁महीना 101
▁योजनाहरू 101
▁शिमशो 101
▁सँगै 101
▁सँधै 101
▁सहि 101
▁सामान्यतया 101
▁स्तन 101
▁स्वर्गमा 101
▁३४ 101
aus 100
br 100
dom 100
izer 100
plement 100
rew 100
wise 100
ङको 100
चय 100
न्डर 100
रित 100
लब 100
लोन 100
ल्ली 100
स्ने 100
ूत 100
▁8226 100
▁Asian 100
▁British 100
▁Bus 100
▁Facebook 100
▁Ins 100
▁Install 100
▁Like 100
▁Mrs 100
▁Sam 100
▁Width 100
▁closing 100
▁commands 100
▁deposits 100
▁executive 100
▁hy 100
▁improvements 100
▁onto 100
▁parliament 100
▁publicity 100
▁raising 100
▁saints 100
▁souls 100
▁ste 100
▁subjects 100
▁अगमवाणी 100
▁अल्फा 100
▁अवास्तविक 100
▁आउँदै 100
▁आकर्षण 100
▁उठाउन 100
▁उठाउने 100
▁एकातिर 100
▁एड 100
▁किन्न 100
▁कृपा 100
▁गतिमा 100
▁गर्छौं 100
▁गिरिजा 100
▁ट्वी 100
▁ठाउ 100
▁तथापि 100
▁दर्शक 100
▁द् 100
▁नारा 100
▁पत् 100
▁प्रशासकीय 100
▁फरिस 100
▁फर्काउँछ 100
▁भेडाहरू 100
▁मिठाई 100
▁मुद्र 100
▁मृत्युबाट 100
▁यहोयाकी 100
▁विना 100
▁श्रृ 100
▁संगठन 100
▁सङ्लग्न 100
▁सन्देशको 100
▁सां 100
action 99
aniah 99
arge 99
eration 99
going 99
oid 99
ols 99
ployment 99
ream 99
urning 99
देव 99
न्नुहोस् 99
न्ह 99
पना 99
पित 99
फी 99
ब्य 99
लिप 99
श्र 99
्नेछन् 99
▁600 99
▁DTD 99
▁Gad 99
▁Maximum 99
▁Must 99
▁Prom 99
▁applied 99
▁arm 99
▁banking 99
▁bridge 99
▁circ 99
▁demonst 99
▁donkey 99
▁finance 99
▁foundation 99
▁injured 99
▁leader 99
▁machine 99
▁oriented 99
▁ram 99
▁sixth 99
▁studying 99
▁substantial 99
▁teen 99
▁tit 99
▁towns 99
▁usage 99
▁आदिवासी 99
▁उडान 99
▁उपा 99
▁ऋ 99
▁क्याम्पस 99
▁गरिब 99
▁गर्नुभ 99
▁गर्यौं 99
▁गह 99
▁घाम 99
▁डुङ्गा 99
▁दोश्रो 99
▁धारा 99
▁नियन्त्रणमा 99
▁निष्पक्ष 99
▁पचास 99
▁पानीले 99
▁फर 99
▁फ्रेमहरू 99
▁बिमा 99
▁बेहो 99
▁भर् 99
▁मेटा 99
▁मौद्रिक 99
▁लक्षण 99
▁सक्छौं 99
▁सचिव 99
▁साथसाथै 99
▁हुनै 99
,6 98
ada 98
apping 98
ause 98
cing 98
ening 98
ima 98
ique 98
isters 98
itive 98
ms 98
ption 98
ta 98
गमा 98
टै 98
न्दै 98
बाहिर 98
भूमि 98
रस 98
रूद्ध 98
लाइन 98
श्य 98
▁Database 98
▁December 98
▁Port 98
▁Reg 98
▁acceler 98
▁alarms 98
▁arise 98
▁beneficial 98
▁cloth 98
▁consult 98
▁coordinate 98
▁decl 98
▁density 98
▁expressed 98
▁fellow 98
▁indigenous 98
▁lift 98
▁liter 98
▁op 98
▁pane 98
▁poll 98
▁remembered 98
▁unique 98
▁whereas 98
▁zero 98
▁अर्कोतिर 98
▁आउट 98
▁आह्वान 98
▁कानून 98
▁कुराहरूको 98
▁ख्रीष्टमा 98
▁गइरहेको 98
▁गराए 98
▁ग्रि 98
▁घडी 98
▁चिसो 98
▁झगडा 98
▁तिर्नु 98
▁दाजु 98
▁दिनहरूमा 98
▁देखिन्छन् 98
▁देवताहरूको 98
▁धनु 98
▁नत्र 98
▁नभएमा 98
▁निहु 98
▁नीतिको 98
▁प्यान 98
▁बत्ती 98
▁बस्छन् 98
▁बाँण 98
▁मण्ड 98
▁मुलु 98
▁मेमो 98
▁यशैया 98
▁लैजान 98
▁वस्तुहरु 98
▁विद्यु 98
▁श्रीमती 98
▁संघीय 98
▁सङ्ध 98
acity 97
aver 97
eal 97
formed 97
gal 97
ki 97
ld 97
rence 97
wide 97
ंगा 97
काउ 97
कालमा 97
कालिन 97
च्छेद 97
जार 97
बहादुर 97
मल 97
र्दा 97
विना 97
▁Back 97
▁Bel 97
▁Board 97
▁Connection 97
▁Cur 97
▁Daniel 97
▁Format 97
▁Link 97
▁OpenPGP 97
▁Rem 97
▁Return 97
▁Tam 97
▁adequate 97
▁advice 97
▁arrested 97
▁cattle 97
▁cre 97
▁depends 97
▁fly 97
▁gt 97
▁hydro 97
▁instru 97
▁lakh 97
▁officers 97
▁palette 97
▁preparing 97
▁prime 97
▁prostitute 97
▁queen 97
▁relevant 97
▁rising 97
▁scroll 97
▁selling 97
▁seventy 97
▁spoil 97
▁struct 97
▁tools 97
▁wanted 97
▁अड 97
▁अर्थतन्त्रमा 97
▁इतिहासमा 97
▁कर्मचार 97
▁कान 97
▁क्लिपबोर्ड 97
▁खतना 97
▁गारो 97
▁घटेको 97
▁ङ 97
▁जर्म 97
▁झुण्ड 97
▁डिग्री 97
▁ढाँचाबद्ध 97
▁तिनीहरूमाथि 97
▁धरा 97
▁नापी 97
▁पश्च 97
▁पुनसुरु 97
▁पुस्ता 97
▁बह 97
▁बौ 97
▁भन्द 97
▁भय 97
▁महसुस 97
▁मान्न 97
▁युद्धको 97
▁राख्दछ 97
▁शमूएल 97
▁संसारका 97
▁सक्नेछ 97
▁सञ्झ्याललाई 97
▁सरकारबाट 97
▁साक्षर 97
▁साक्षी 97
cul 96
ented 96
irl 96
ndra 96
only 96
oud 96
urity 96
एनौ 96
ङ्गी 96
न्दैन 96
रूपले 96
शय 96
ालु 96
्रिक 96
्स 96
▁Construction 96
▁Esau 96
▁Exec 96
▁Ir 96
▁Options 96
▁Size 96
▁State 96
▁Warning 96
▁achievement 96
▁atmosphere 96
▁attain 96
▁borders 96
▁crisis 96
▁earn 96
▁eternal 96
▁factory 96
▁goat 96
▁healed 96
▁hit 96
▁hon 96
▁invol 96
▁partial 96
▁pet 96
▁poet 96
▁quit 96
▁riches 96
▁screens 96
▁stir 96
▁treated 96
▁utterly 96
▁vine 96
▁अञ्चल 96
▁अधिराज्यका 96
▁अन्नबलि 96
▁अब्रा 96
▁अर्थतन्त्रको 96
▁आदान 96
▁इलाका 96
▁कन् 96
▁काँग्रे 96
▁क्रे 96
▁खालको 96
▁गन्ती 96
▁गरेकी 96
▁गौ 96
▁चुम्ब 96
▁जलविद्युत् 96
▁तिमीसित 96
▁तै 96
▁दक्षिणी 96
▁देख्ने 96
▁नहो 96
▁निन्दा 96
▁न्या 96
▁परामर्श 96
▁पर्दाको 96
▁प्रक्रियामा 96
▁प्रसन्न 96
▁बिन्ती 96
▁भाँच 96
▁ममाथि 96
▁मानिसहरूसँग 96
▁मोटो 96
▁मोशाको 96
▁म्याट्रिक्स 96
▁म्यानुअल 96
▁लागु 96
▁वस्तुमा 96
▁विश्वका 96
▁विश्वासी 96
▁सडकमा 96
▁सरकारलाई 96
▁साइन 96
▁हटाउ 96
▁होस 96
▁६४ 96
ache 95
een 95
key 95
ura 95
मात्र 95
म्र 95
याहले 95
लोमा 95
शले 95
सक्ने 95
सिया 95
हरूद्वारा 95
ाँउ 95
ून् 95
▁1983 95
▁Document 95
▁East 95
▁Egyptians 95
▁Gur 95
▁Norm 95
▁Shem 95
▁Sk 95
▁accompl 95
▁airport 95
▁auto 95
▁bitter 95
▁capable 95
▁chat 95
▁consideration 95
▁cru 95
▁ele 95
▁fet 95
▁forms 95
▁formul 95
▁helped 95
▁horizontal 95
▁instruction 95
▁insurance 95
▁joined 95
▁manufact 95
▁occup 95
▁payment 95
▁pleasant 95
▁pleasure 95
▁plot 95
▁priv 95
▁records 95
▁reflect 95
▁ritual 95
▁serv 95
▁severe 95
▁threat 95
▁understood 95
▁अधिराज्य 95
▁अधीनमा 95
▁आगमन 95
▁आप 95
▁उनीहरूका 95
▁एलीशाले 95
▁कुलसमूह 95
▁कैदी 95
▁खाँचो 95
▁खाएर 95
▁खुद 95
▁खेलको 95
▁खोज्ने 95
▁गर्नै 95
▁जन्मेको 95
▁डिजिटल 95
▁तिनि 95
▁दरमा 95
▁दिगो 95
▁देशहरूमा 95
▁नेट 95
▁प्राचीन 95
▁प्रेष 95
▁बसिरहेका 95
▁भन्छौ 95
▁मरियम 95
▁मानाङ्कन 95
▁योआश 95
▁रोप 95
▁लाल 95
▁विक 95
▁विकल्पमा 95
▁विकेन्द्रीकरण 95
▁शेल 95
▁संगठ 95
▁सरस 95
▁सुदूर 95
▁सुरक्षाको 95
▁हराइरहेको 95
▁हिसाबले 95
▁३०० 95
13 94
ailed 94
cle 94
cy 94
ended 94
erve 94
gun 94
inst 94
ival 94
oon 94
ores 94
resh 94
tt 94
wal 94
ंत्र 94
अर् 94
उछ 94
काई 94
तल 94
नेका 94
न्दि 94
पूर्ति 94
वात 94
शास्त्र 94
षण 94
सूची 94
▁Brah 94
▁CPU 94
▁Dist 94
▁Gand 94
▁Jag 94
▁October 94
▁Otherwise 94
▁Ref 94
▁Sum 94
▁although 94
▁anti 94
▁attract 94
▁carrying 94
▁contacts 94
▁discipline 94
▁identity 94
▁imag 94
▁independent 94
▁intercourse 94
▁lying 94
▁precious 94
▁pressing 94
▁principal 94
▁tar 94
▁tenth 94
▁touch 94
▁traders 94
▁vessel 94
▁views 94
▁violence 94
▁wash 94
▁असं 94
▁उपरोक्त 94
▁एच 94
▁कप 94
▁कार्यरत 94
▁किरिङ 94
▁कुलका 94
▁गाँ 94
▁गुणा 94
▁घातक 94
▁चलेको 94
▁चिकित्सक 94
▁जन्मेका 94
▁जानुभयो 94
▁जापान 94
▁जोडी 94
▁झ्याल 94
▁तौल 94
▁दिल्ली 94
▁दोहो 94
▁पज 94
▁पत्रिका 94
▁पालमा 94
▁पासफ्रेज 94
▁पृष्ठमा 94
▁प्रौढ 94
▁बढ्ने 94
▁बिरुवा 94
▁महीनाको 94
▁माझमा 94
▁मोह 94
▁लाम 94
▁विश्रामको 94
▁सकिंदैन 94
▁सङ् 94
▁समस्याहरु 94
▁सवै 94
▁सहयोगी 94
▁सिद्ध 94
▁सूत्र 94
▁सोभियत 94
▁स्वच्छ 94
▁हानि 94
▁हुनुहु 94
▁हृदयमा 94
19 93
atives 93
ived 93
ivity 93
oses 93
plies 93
rib 93
utions 93
vent 93
wards 93
कर्म 93
जेर 93
टिस 93
डाई 93
न्टि 93
पण 93
पत्रको 93
पन्न 93
रहित 93
रिएका 93
र्याह 93
▁Krishna 93
▁Layer 93
▁Mail 93
▁Mich 93
▁States 93
▁abundance 93
▁amb 93
▁circle 93
▁drawing 93
▁foolish 93
▁freedom 93
▁grains 93
▁grown 93
▁historical 93
▁impart 93
▁links 93
▁ministry 93
▁nin 93
▁pour 93
▁prompt 93
▁rem 93
▁residents 93
▁rooms 93
▁swore 93
▁techn 93
▁अंग्रेजी 93
▁अञ्च 93
▁अनुमतिहरू 93
▁अहिलेको 93
▁आहार 93
▁उल्टो 93
▁कल्पना 93
▁काल 93
▁केस 93
▁क्षेत्रहरुको 93
▁खण्डको 93
▁ग्राफ 93
▁ग्लोबल 93
▁झण्डै 93
▁तालिकामा 93
▁तिमीहरुको 93
▁धन्य 93
▁निर्वाचन 93
▁पाँचवटा 93
▁पुनरा 93
▁प्वाल 93
▁बाकसमा 93
▁बू 93
▁महि 93
▁मार्च 93
▁मेनुमा 93
▁विज्ञ 93
▁संस् 93
▁सामा 93
▁स्क्रोल 93
,9 92
ATH 92
aling 92
amm 92
board 92
ident 92
ils 92
oj 92
ruct 92
ti 92
ution 92
ँ्रय 92
कित 92
पादन 92
पेर 92
प्ती 92
मिति 92
यारी 92
हिले 92
▁Auto 92
▁Fifth 92
▁KA 92
▁Planning 92
▁Prot 92
▁Secretary 92
▁Source 92
▁corporation 92
▁dep 92
▁doors 92
▁flight 92
▁foreigner 92
▁harvest 92
▁invest 92
▁quarter 92
▁relations 92
▁schema 92
▁sorrow 92
▁storage 92
▁tracks 92
▁utility 92
▁आउनेछन् 92
▁इन्टिजर 92
▁एलाजार 92
▁एशि 92
▁कर्तव्य 92
▁चिन्तित 92
▁छिन् 92
▁जङ्गली 92
▁जानेछन् 92
▁ट्याबमा 92
▁थालेका 92
▁थाह 92
▁देब्रे 92
▁धागो 92
▁नक्कली 92
▁निःशुल्क 92
▁निर्देशक 92
▁प्रत्य 92
▁फैलि 92
▁बहुमूल्य 92
▁बिला 92
▁भन्नेछन् 92
▁माइम 92
▁मानिसहरूमा 92
▁रङदानी 92
▁रूखहरू 92
▁वच 92
▁विधवा 92
▁सता 92
▁सर्भरबाट 92
▁सातौँ 92
▁साथीहरू 92
▁सुनेका 92
▁सुलेमा 92
▁सेवालाई 92
▁स्तरका 92
▁स्थितिको 92
▁हामीहरू 92
▁हिमाल 92
EL 91
aded 91
ael 91
anced 91
ancy 91
ech 91
gl 91
ields 91
iri 91
ole 91
rad 91
unk 91
किए 91
ग्रह 91
घा 91
तृ 91
दल 91
धिकारी 91
नीहरूको 91
पर्नेछ 91
भित्रै 91
साको 91
ाउँदछ 91
ोज 91
▁47 91
▁Ahab 91
▁Certificate 91
▁Cop 91
▁Girija 91
▁Gl 91
▁Instead 91
▁Nebuchadnezzar 91
▁Ter 91
▁War 91
▁bid 91
▁config 91
▁corresponding 91
▁decades 91
▁ep 91
▁est 91
▁garment 91
▁ident 91
▁jud 91
▁leadership 91
▁liberal 91
▁noise 91
▁photos 91
▁preservation 91
▁retrieve 91
▁sand 91
▁sec 91
▁succeed 91
▁supp 91
▁ton 91
▁अपमान 91
▁अबीमेले 91
▁आफु 91
▁उत्त 91
▁उद्योगहरु 91
▁उभिए 91
▁कदमहरु 91
▁करूणा 91
▁कान्छ 91
▁खेल्न 91
▁चन्द्र 91
▁टाइ 91
▁तुलनात्मक 91
▁दुर्गम 91
▁नला 91
▁निकास 91
▁निरीक्षण 91
▁निस्क्रिय 91
▁न्यायको 91
▁न्युयोर्क 91
▁प्रहर 91
▁फर्म 91
▁फलस्वरुप 91
▁फाट 91
▁बंगलादेश 91
▁बाक 91
▁बिग्र 91
▁भागे 91
▁मतलब 91
▁माने 91
▁वनस्पति 91
▁शोषण 91
▁षड 91
▁सकेका 91
▁सौन्दर्य 91
▁हटा 91
▁हदसम्म 91
▁हार 91
▁हू 91
IG 90
ancing 90
arsh 90
ding 90
fr 90
ille 90
imize 90
onal 90
oriented 90
plication 90
ram 90
खेटा 90
त्ती 90
द्धि 90
न्च 90
प्राप्त 90
म्बरमा 90
र्ता 90
लेख 90
लोक 90
हत 90
ाई 90
्वी 90
▁Bug 90
▁Commerce 90
▁Conf 90
▁Def 90
▁Delhi 90
▁JPEG 90
▁Sort 90
▁Tuesday 90
▁ahead 90
▁angels 90
▁approved 90
▁bought 90
▁breadth 90
▁competition 90
▁exported 90
▁fought 90
▁generate 90
▁grand 90
▁identified 90
▁illness 90
▁personnel 90
▁revolution 90
▁servers 90
▁spaces 90
▁vain 90
▁आइरहेको 90
▁कार्यक्रमले 90
▁क्यालेन्डर 90
▁गर्नुभन्दा 90
▁गोप्य 90
▁चाँ 90
▁जक 90
▁ठो 90
▁डबल 90
▁डिस्कमा 90
▁तरल 90
▁तिर् 90
▁तैपनि 90
▁नियोजन 90
▁पथ 90
▁परिवर् 90
▁पुँजी 90
▁फर्के 90
▁बचाउँ 90
▁बैंकको 90
▁विन 90
▁सकेसम्म 90
▁सङ्क 90
▁सरदर 90
▁सेप्टे 90
▁स्वर्गबाट 90
12 89
born 89
encies 89
ese 89
omin 89
time 89
कारि 89
घन 89
ङ्कन 89
टरमा 89
डाइ 89
दियो 89
निएको 89
प्ता 89
फ्रे 89
बास 89
मेरा 89
हण 89
िकै 89
ीक 89
▁Del 89
▁Doc 89
▁Font 89
▁Further 89
▁Internal 89
▁Pakistan 89
▁Science 89
▁Sen 89
▁Social 89
▁Stand 89
▁Ved 89
▁XDMCP 89
▁atonement 89
▁attached 89
▁automatic 89
▁cents 89
▁changing 89
▁circum 89
▁confidence 89
▁elimin 89
▁fac 89
▁feasible 89
▁foods 89
▁foreigners 89
▁highly 89
▁largest 89
▁leading 89
▁mar 89
▁motor 89
▁pack 89
▁particip 89
▁performance 89
▁pictures 89
▁proud 89
▁reality 89
▁registered 89
▁remnant 89
▁sacrifices 89
▁sam 89
▁stocks 89
▁wings 89
▁अधिकारीले 89
▁अवलोकन 89
▁उपन्यास 89
▁एजेन् 89
▁एवम् 89
▁औपचारिक 89
▁क्व 89
▁गराइने 89
▁गहुँ 89
▁छक्क 89
▁छोराहरूलाई 89
▁झो 89
▁ठाउँको 89
▁डेस्कटपमा 89
▁तपाईले 89
▁तलब 89
▁दाबी 89
▁पाउनेछन् 89
▁फर्काउनुहोस् 89
▁फिरऊन 89
▁फिल्ट 89
▁बुझे 89
▁भैसकेको 89
▁माउ 89
▁मानचित्रमा 89
▁मुनाफा 89
▁राखिएका 89
▁वैद्य 89
▁शमूएलले 89
▁समुद्रमा 89
▁सामग्रीहरू 89
▁साव 89
▁सिफारिस 89
▁सुम्प 89
▁ही 89
▁हुदा 89
▁६५ 89
,3 88
ME 88
TE 88
ife 88
ini 88
ires 88
iveness 88
lay 88
off 88
omb 88
print 88
एक 88
एलका 88
काले 88
कासाथै 88
ढे 88
नकी 88
नीहरूलाई 88
न्ता 88
पट 88
मान्य 88
राखेको 88
राले 88
र्भ 88
वित 88
सम्बन्ध 88
ाँट 88
ूब 88
▁150 88
▁ASCII 88
▁Additional 88
▁Deb 88
▁Gibe 88
▁Highway 88
▁Level 88
▁Nevertheless 88
▁Oper 88
▁PNG 88
▁Pharisees 88
▁Pur 88
▁Put 88
▁SM 88
▁Setup 88
▁Surely 88
▁Word 88
▁Zer 88
▁absence 88
▁announced 88
▁articles 88
▁aware 88
▁compet 88
▁contribute 88
▁conv 88
▁evalu 88
▁housing 88
▁island 88
▁listed 88
▁notification 88
▁overall 88
▁permanent 88
▁preferences 88
▁publication 88
▁recommend 88
▁released 88
▁shekels 88
▁silent 88
▁stations 88
▁street 88
▁upright 88
▁worthy 88
▁आइपु 88
▁आनन्दित 88
▁उत्पाद 88
▁कचौरा 88
▁क्रान्ति 88
▁खोजे 88
▁खोल्ने 88
▁चामल 88
▁चुनौती 88
▁चेक 88
▁जंग 88
▁जिल्लाका 88
▁डाइ 88
▁थिइन 88
▁थै 88
▁थोक 88
▁नकारात्मक 88
▁पदार्थको 88
▁पुनरावृत्ति 88
▁पुस्त 88
▁प्रकृया 88
▁फर्की 88
▁फोन 88
▁बिर 88
▁ब्याकइन्ड 88
▁भइरहेका 88
▁भक्तपुर 88
▁भट्ट 88
▁रहोस् 88
▁लाग्नु 88
▁शोधनान्तर 88
▁संसूच 88
▁सतह 88
▁सन्देशमा 88
▁समूहबाट 88
▁सर्वो 88
▁सहमत 88
▁सुविधाको 88
▁सेनाले 88
▁हिं 88
▁हिसाब 88
▁हुनुहोस् 88
,8 87
aim 87
ako 87
aving 87
den 87
elect 87
elt 87
ithm 87
iver 87
izes 87
name 87
vious 87
yr 87
उनेछ 87
टीहरू 87
त्तिकै 87
त्न 87
पल्ट 87
बिन्दु 87
रत 87
लत 87
वामा 87
स्टो 87
▁Editor 87
▁GDP 87
▁Incre 87
▁Library 87
▁Management 87
▁Pack 87
▁Pol 87
▁Rai 87
▁Reuben 87
▁Windows 87
▁bowed 87
▁calcul 87
▁census 87
▁curt 87
▁declare 87
▁elected 87
▁elections 87
▁errors 87
▁estimate 87
▁fun 87
▁goats 87
▁lif 87
▁outer 87
▁passphrase 87
▁performed 87
▁practical 87
▁reve 87
▁sixty 87
▁speaks 87
▁standards 87
▁star 87
▁tags 87
▁travel 87
▁virgin 87
▁warning 87
▁अभिलेख 87
▁असन्तुल 87
▁आफैंलाई 87
▁इन्डेन्ट 87
▁कम्तीमा 87
▁कुञ्जीको 87
▁क्याप् 87
▁क्षेत्रगत 87
▁गरिरहनु 87
▁घरबाट 87
▁घिउ 87
▁जान् 87
▁थियोः 87
▁दाग 87
▁नहुनु 87
▁निरन्तरता 87
▁पर्दामा 87
▁पार्नेछु 87
▁पुस्तकालय 87
▁प्रयोगकर्तालाई 87
▁प्रान्त 87
▁फर्काउन 87
▁बलिया 87
▁बलिहरू 87
▁बाँधि 87
▁बिस्तारै 87
▁भारी 87
▁भिन्नता 87
▁मातृ 87
▁यातायातको 87
▁रिसर्च 87
▁लियो 87
▁शिविर 87
▁सन्तुष्ट 87
▁सभामा 87
▁सातौ 87
▁स्त्रीले 87
EC 86
St 86
acc 86
aul 86
han 86
idence 86
ji 86
oun 86
ume 86
urse 86
where 86
दम 86
न्तर 86
पत 86
वस्था 86
िने 86
▁-1 86
▁36 86
▁400 86
▁Ak 86
▁August 86
▁Di 86
▁Everyone 86
▁GnuPG 86
▁Ignore 86
▁Jehoshaphat 86
▁Narayan 86
▁Pan 86
▁Party 86
▁Selection 86
▁Tell 86
▁Woe 86
▁arrow 86
▁attractive 86
▁commodities 86
▁cow 86
▁creat 86
▁cup 86
▁degrees 86
▁designed 86
▁displaying 86
▁drew 86
▁exercise 86
▁faces 86
▁filters 86
▁gall 86
▁hunt 86
▁inputs 86
▁keyword 86
▁knowing 86
▁larger 86
▁launch 86
▁listened 86
▁loud 86
▁nav 86
▁opp 86
▁particularly 86
▁phrase 86
▁prophesy 86
▁quiet 86
▁respond 86
▁rod 86
▁sequence 86
▁surplus 86
▁sus 86
▁unt 86
▁upload 86
▁waiting 86
▁wid 86
▁workspace 86
▁worshiped 86
▁अश् 86
▁उठे 86
▁उनीहरुले 86
▁काँसा 86
▁काठको 86
▁कुट 86
▁कुनामा 86
▁चढाउन 86
▁चमत्कार 86
▁छोरालाई 86
▁तालिमको 86
▁त्यहाँका 86
▁दाइ 86
▁देशलाई 86
▁नाति 86
▁पञ्चवर्षीय 86
▁पत्रुसले 86
▁पाउनेछौ 86
▁पृष्ठभूमिमा 86
▁प्राप्ताङ्क 86
▁बने 86
▁बाँचेका 86
▁बाँच्ने 86
▁बानी 86
▁बुझ् 86
▁बोलि 86
▁भक्तजन 86
▁यात्रु 86
▁रक्त 86
▁लडाई 86
▁विकासलाई 86
▁व्यवस्थालाई 86
▁व्यवस्थाले 86
▁शेकेल 86
▁सकिन्न 86
▁सुन्ने 86
▁स्ट्रि 86
▁स्वाभाविक 86
▁४४ 86
aled 85
amma 85
bs 85
bsp 85
eless 85
iant 85
ilk 85
med 85
mination 85
oe 85
used 85
ंगो 85
किलो 85
कुमार 85
टक 85
टिन 85
प्रि 85
रिने 85
र्दै 85
शास 85
सेज 85
स्तरको 85
▁33 85
▁Ask 85
▁Horizontal 85
▁Listen 85
▁Sharma 85
▁abort 85
▁anyway 85
▁bars 85
▁constitution 85
▁continually 85
▁crown 85
▁devour 85
▁dom 85
▁draft 85
▁establishing 85
▁flocks 85
▁foodgr 85
▁forces 85
▁headers 85
▁hearing 85
▁horse 85
▁mount 85
▁phys 85
▁ru 85
▁selecting 85
▁supplied 85
▁tabs 85
▁tape 85
▁targeted 85
▁tele 85
▁username 85
▁weeks 85
▁winter 85
▁अन्तर्राष्टि 85
▁अभिभाव 85
▁अभिया 85
▁अवसरमा 85
▁उत्कृष्ट 85
▁एण्ड 85
▁कर्पोरे 85
▁कृष 85
▁छाडे 85
▁छिमेक 85
▁जोन 85
▁देखिए 85
▁पीठो 85
▁पुग 85
▁प्रसाद 85
▁बुझ्ने 85
▁मासिक 85
▁मुखबाट 85
▁म्याक 85
▁म्यानमा 85
▁लक्ष्यको 85
▁लडे 85
▁वना 85
▁विजार्ड 85
▁विदेशमा 85
▁व्यावहारिक 85
▁श्रेणी 85
▁सक्तैनन् 85
▁सङ्घ 85
▁सञ्जालमा 85
▁सर्भरको 85
▁सिकाई 85
▁सुगन्धित 85
▁सुरुमा 85
▁स्त 85
▁हल 85
▁हामीसित 85
▁हिज्जे 85
▁२०४० 85
▁२०४६ङ्ग४७ 85
,5 84
-8 84
45 84
alf 84
angle 84
click 84
fold 84
head 84
held 84
ica 84
imate 84
imes 84
isc 84
ither 84
light 84
oked 84
oti 84
path 84
uit 84
ंमा 84
इएका 84
देवी 84
निर्देश 84
नेट 84
पका 84
राहरू 84
ष्टिक 84
हरा 84
ाँच 84
ाउँछु 84
ात 84
▁Ac 84
▁Ant 84
▁Asher 84
▁Capital 84
▁Industry 84
▁Likewise 84
▁Mode 84
▁Mult 84
▁Neither 84
▁Recent 84
▁accounts 84
▁assist 84
▁ble 84
▁burning 84
▁comparison 84
▁defe 84
▁depth 84
▁descend 84
▁disappointed 84
▁divine 84
▁envisaged 84
▁mine 84
▁organ 84
▁proclaim 84
▁reliable 84
▁repro 84
▁seat 84
▁sees 84
▁series 84
▁shoot 84
▁sweets 84
▁tomorrow 84
▁vacc 84
▁अपवित्र 84
▁अवलम्बन 84
▁गणेश 84
▁गरिरह 84
▁गाड 84
▁चेला 84
▁जनसङ्ख्या 84
▁ट्रया 84
▁दां 84
▁नदीमा 84
▁नाच 84
▁पढाइ 84
▁पर्नु 84
▁पर्यावरण 84
▁पार्नेछ 84
▁पुगेका 84
▁प्रतिवेद 84
▁फिरऊनले 84
▁फोटोः 84
▁बाँड 84
▁बाधा 84
▁बेलु 84
▁ब्रुस 84
▁भनाई 84
▁भर्खरै 84
▁मण्डली 84
▁मार्गमा 84
▁मिस 84
▁मुखमा 84
▁रद्दीटोकरीमा 84
▁रिसा 84
▁विपरित 84
▁विमान 84
▁विलम्ब 84
▁विवेक 84
▁संगीत 84
▁संचार 84
▁सञ्चालक 84
▁साँच्च 84
▁सेवकहरू 84
▁स्वदेश 84
▁स्वीका 84
▁े 84
gest 83
iding 83
nal 83
raft 83
ror 83
stand 83
two 83
इन्छ 83
गण 83
चौ 83
च्चा 83
टेड 83
दायी 83
दिएको 83
परी 83
पाको 83
प्नु 83
भरी 83
रबाट 83
लेट 83
वृत्ति 83
वो 83
▁37 83
▁Elect 83
▁Hence 83
▁Icon 83
▁Mic 83
▁Point 83
▁Transport 83
▁UN 83
▁adding 83
▁annum 83
▁applet 83
▁belief 83
▁blog 83
▁certificates 83
▁classes 83
▁condem 83
▁consumers 83
▁cooperation 83
▁fig 83
▁folk 83
▁fort 83
▁gas 83
▁gift 83
▁hilly 83
▁locked 83
▁memo 83
▁pollution 83
▁pow 83
▁reducing 83
▁sharp 83
▁sometimes 83
▁tents 83
▁touched 83
▁vari 83
▁variety 83
▁अग्रिम 83
▁इन्ड 83
▁इस्राएललाई 83
▁कृष्ण 83
▁क्याम्प 83
▁गी 83
▁घमण्ड 83
▁चाँदीको 83
▁चालीस 83
▁जङ्ग 83
▁जनजा 83
▁दक्षता 83
▁दर्ुइ 83
▁दवा 83
▁दिइयो 83
▁देखाए 83
▁नगरेको 83
▁नमि 83
▁निषेध 83
▁नीतिहरु 83
▁पूर्वस्थितिमा 83
▁पृष्ठको 83
▁भङ्ग 83
▁भाडा 83
▁भेटघाट 83
▁भ्वाइ 83
▁मानिसका 83
▁यारोबा 83
▁र्स 83
▁लक्ष 83
▁लामा 83
▁लेखन 83
▁श्रोत 83
▁सकिनेछ 83
▁समतल 83
▁सरह 83
▁सहभागि 83
▁स्टा 83
▁स्वदेशी 83
▁०४ 83
DI 82
IF 82
aks 82
ami 82
arya 82
aziah 82
ertain 82
icious 82
inary 82
parent 82
side 82
ss 82
ster 82
stit 82
uw 82
न्दु 82
माण 82
रहरू 82
रीलाई 82
लक 82
वादको 82
वेश 82
स्ले 82
ेख 82
ेष 82
▁2001 82
▁43 82
▁Adjust 82
▁Administration 82
▁Auth 82
▁Bad 82
▁Chinese 82
▁DTEP 82
▁Devi 82
▁Gentiles 82
▁Kar 82
▁Mahendra 82
▁Myanmar 82
▁Policy 82
▁Simon 82
▁Sol 82
▁Through 82
▁Using 82
▁Village 82
▁achievements 82
▁beat 82
▁beaten 82
▁compl 82
▁contrib 82
▁couldn 82
▁counter 82
▁cultiv 82
▁declined 82
▁denied 82
▁discard 82
▁earthquake 82
▁enh 82
▁examination 82
▁floating 82
▁holding 82
▁influence 82
▁issued 82
▁marketing 82
▁mist 82
▁nick 82
▁perspective 82
▁por 82
▁producing 82
▁prot 82
▁relatives 82
▁talks 82
▁अपर्याप्त 82
▁आक 82
▁आका 82
▁आकाशमा 82
▁काठमाडौंमा 82
▁कानूनी 82
▁ग्राहक 82
▁चाँडो 82
▁जमा 82
▁ठाँउमा 82
▁तलका 82
▁नुह 82
▁नोड 82
▁पुर्खाहरू 82
▁फैलिएको 82
▁बटनले 82
▁भन्दछन् 82
▁भल्भ 82
▁मनि 82
▁रस 82
▁रोज्नु 82
▁लगत 82
▁शरण 82
▁संसदीय 82
▁सकिएनः 82
▁सक्ति 82
▁समारो 82
▁सहयोगको 82
TER 81
aches 81
ailing 81
akers 81
anda 81
arily 81
dle 81
ental 81
erate 81
ifying 81
imately 81
iod 81
mer 81
ntax 81
ola 81
pers 81
plicate 81
rel 81
tes 81
yn 81
गेको 81
ण् 81
तब 81
नालाई 81
प्रतिको 81
बन्द 81
माई 81
यान 81
रहेछु 81
वती 81
वत् 81
सक्यो 81
स्के 81
स्थिति 81
िकल 81
ैंचा 81
्रय 81
▁02 81
▁198 81
▁83 81
▁Chit 81
▁Missing 81
▁Nations 81
▁Organization 81
▁Philip 81
▁Police 81
▁Should 81
▁Tele 81
▁bal 81
▁buffer 81
▁captive 81
▁consolid 81
▁constr 81
▁desp 81
▁diet 81
▁handled 81
▁initi 81
▁lose 81
▁mechanism 81
▁mour 81
▁pair 81
▁payments 81
▁pun 81
▁seeking 81
▁sites 81
▁upgr 81
▁willing 81
▁अध 81
▁अरामी 81
▁अलिकति 81
▁अवधारणा 81
▁आगोले 81
▁आयु 81
▁इला 81
▁उज् 81
▁उत्सा 81
▁उपस्थित 81
▁उपाध्यक्ष 81
▁कर्मी 81
▁किशो 81
▁गरिन्छन् 81
▁गर्नुपर्नेछ 81
▁चरणमा 81
▁चित 81
▁चिन् 81
▁छाडि 81
▁जिम्मेवार 81
▁जुत्ता 81
▁टायल 81
▁ढिलो 81
▁नवी 81
▁नारायण 81
▁पश्चि 81
▁पासो 81
▁प्रस 81
▁प्रेमी 81
▁फार्म 81
▁फौ 81
▁फ्रा 81
▁बेर 81
▁बेल 81
▁बोले 81
▁भन्छिन् 81
▁मधु 81
▁माइक्रो 81
▁माओवादी 81
▁रुलाई 81
▁लू 81
▁वर्षीय 81
▁विच्छेदन 81
▁शत्रुलाई 81
▁श्रे 81
▁सक्दैनन् 81
▁सम्पदा 81
▁सम्मेल 81
▁सहुलियत 81
▁सित्र्चाइ 81
▁सुक् 81
▁हुंदै 81
▁हुनुहुनेछ 81
▁१९९० 81
▁५५ 81
▁६२ 81
UL 80
abh 80
ales 80
case 80
ention 80
erves 80
gress 80
like 80
osis 80
rent 80
standing 80
ulf 80
uting 80
इस्राएलका 80
उत् 80
खत 80
चारी 80
तन्त्र 80
ब्बा 80
भू 80
रामले 80
वद्ध 80
शाला 80
सल 80
स्क्रिप्ट 80
ाइल 80
ासँग 80
्दो 80
▁2003 80
▁39 80
▁Bu 80
▁Cartr 80
▁Des 80
▁Finance 80
▁Game 80
▁Id 80
▁Lim 80
▁Madh 80
▁Magn 80
▁Po 80
▁Track 80
▁_ 80
▁alpha 80
▁beside 80
▁cere 80
▁covering 80
▁delivery 80
▁discussed 80
▁enterprises 80
▁everlasting 80
▁manually 80
▁obst 80
▁pride 80
▁recon 80
▁regime 80
▁straight 80
▁stre 80
▁talked 80
▁timber 80
▁trig 80
▁witness 80
▁worried 80
▁अँ 80
▁अनुचित 80
▁अर्काको 80
▁अर्कालाई 80
▁आदेशहरू 80
▁इन्जिन 80
▁इन्टर 80
▁उद्देश्यहरु 80
▁एकपटक 80
▁एयर 80
▁करूब 80
▁कार्यक्रमहरू 80
▁कोशी 80
▁खालि 80
▁गराउँछ 80
▁गुनासो 80
▁घुमाउनुहोस् 80
▁चारवटा 80
▁चौध 80
▁ज्याला 80
▁टेप 80
▁डाइरेक्टरीमा 80
▁तामा 80
▁दू 80
▁नगर्नु 80
▁नसक्नु 80
▁नोट 80
▁पठाएका 80
▁परिपाटी 80
▁पसे 80
▁पाएँ 80
▁पेशा 80
▁प्रतीक 80
▁प्रत्येकले 80
▁प्रयोगका 80
▁प्रशासक 80
▁फलाम 80
▁बाँडफाँड 80
▁बिन्यामीनका 80
▁मिलेर 80
▁मिश्रबाट 80
▁यर्मिया 80
▁यहो 80
▁रक्सी 80
▁राउ 80
▁वाइ 80
▁विद्रो 80
▁विभागले 80
▁सन्तोष 80
▁समकक्ष 80
▁समाजको 80
▁सम्झौ 80
▁सीमान्त 80
▁हिउँ 80
▁४६ 80
agr 79
akim 79
bal 79
cer 79
chi 79
gments 79
hing 79
ilt 79
kes 79
oes 79
oman 79
orah 79
ource 79
इन्ड 79
उनेछन् 79
खन 79
च्या 79
छी 79
छे 79
जीको 79
तिम्रो 79
द्द 79
धक 79
बाली 79
मन्त्री 79
मबाट 79
याक 79
र्यो 79
लान 79
ल्स 79
वक 79
वर्ग 79
वली 79
शेर 79
सक्छ 79
स्की 79
हास 79
▁Asa 79
▁Cor 79
▁Det 79
▁Far 79
▁ICC 79
▁Info 79
▁Mat 79
▁None 79
▁Paper 79
▁Programmes 79
▁Royal 79
▁Stock 79
▁Trash 79
▁Twitter 79
▁advanced 79
▁agency 79
▁authorities 79
▁canceled 79
▁challenge 79
▁comple 79
▁concent 79
▁cumulative 79
▁decade 79
▁dece 79
▁deceit 79
▁encouraging 79
▁existence 79
▁farm 79
▁figure 79
▁furn 79
▁grad 79
▁grant 79
▁hor 79
▁ideas 79
▁keeps 79
▁messengers 79
▁obtained 79
▁ourselves 79
▁park 79
▁perhaps 79
▁pip 79
▁purchase 79
▁sack 79
▁sustainable 79
▁throw 79
▁vineyard 79
▁wouldn 79
▁अब्राहामले 79
▁असि 79
▁अहज्या 79
▁आहाज 79
▁कब्जा 79
▁कैयौं 79
▁खै 79
▁ख्या 79
▁गराएको 79
▁टिकट 79
▁डाँ 79
▁दब 79
▁दयालु 79
▁दशमलव 79
▁दिनका 79
▁धातु 79
▁धोका 79
▁नजा 79
▁नीतिगत 79
▁पर्खि 79
▁प्रतीक्षा 79
▁प्रयोगशाला 79
▁फार 79
▁बढाउनुहोस् 79
▁बताएका 79
▁बन् 79
▁बसाइ 79
▁बाहि 79
▁मल् 79
▁रहन्छन् 79
▁रहेकेा 79
▁रहेछन् 79
▁रोजगार 79
▁व्यर्थ 79
▁संझ 79
▁सम्मा 79
▁सर्वप्रथम 79
▁स्क 79
▁स्क्रिन 79
▁स्थितिलाई 79
▁स्वीकृति 79
▁हुँदैनन् 79
▁५९ 79
▁६३ 79
▁९५ 79
IM 78
anga 78
ason 78
cision 78
cles 78
ev 78
gen 78
ifications 78
ili 78
now 78
oga 78
order 78
tle 78
ufficient 78
uls 78
ways 78
काहरू 78
कुनै 78
क्रिया 78
चार्य 78
निर् 78
न्द्रिय 78
फु 78
मानी 78
विकास 78
संख्या 78
सनले 78
समक्ष 78
▁Contact 78
▁Despite 78
▁Had 78
▁KO 78
▁Kantipur 78
▁Net 78
▁Syn 78
▁Total 78
▁Web 78
▁activate 78
▁adverse 78
▁array 78
▁becoming 78
▁blessing 78
▁bricks 78
▁channels 78
▁conven 78
▁des 78
▁desc 78
▁employ 78
▁executable 78
▁features 78
▁handmaid 78
▁households 78
▁kil 78
▁lu 78
▁mach 78
▁maintaining 78
▁mo 78
▁mutual 78
▁reset 78
▁safety 78
▁sensitive 78
▁smoke 78
▁squ 78
▁states 78
▁talking 78
▁tour 78
▁troubled 78
▁upward 78
▁whe 78
▁wik 78
▁अग्ला 78
▁अनुकूलन 78
▁अप्ठ 78
▁अभिषेक 78
▁अमस्या 78
▁अर्कै 78
▁आलोचना 78
▁कथ 78
▁गएँ 78
▁गरीबी 78
▁छोराहरूले 78
▁जान्ने 78
▁जापानको 78
▁डोमेन 78
▁ढङ्ग 78
▁ढुवानी 78
▁तहहरू 78
▁त्यहां 78
▁दिनलाई 78
▁देखाएको 78
▁दौड 78
▁नम्र 78
▁पदवर्णन 78
▁परिचाल 78
▁परिमाणमा 78
▁परिवर्तनको 78
▁परिवारमा 78
▁पहाडमा 78
▁पारिएमा 78
▁पार्यो 78
▁प्रतिशतमा 78
▁प्रस्तुति 78
▁फ्लो 78
▁बताउनुहुन्छ 78
▁बाक्लो 78
▁बिन्दुको 78
▁बेंसीमा 78
▁भर्या 78
▁भारतले 78
▁भेटे 78
▁मनु 78
▁मिश्रका 78
▁यसैगरी 78
▁युरोप 78
▁योशि 78
▁रहनेछन् 78
▁रहस्य 78
▁विधान 78
▁विभाजित 78
▁विलाप 78
▁सहन 78
▁सैन्य 78
▁स्त्रीको 78
▁हड्ड 78
▁हात्ती 78
▁हारूनले 78
▁हिजकियाहले 78
▁हिमाली 78
▁५२ 78
▁६०० 78
▁“‘ 78
IT 77
ander 77
ected 77
elling 77
ffice 77
ground 77
hy 77
ias 77
idents 77
ijah 77
ika 77
king 77
lud 77
oad 77
ota 77
ried 77
rim 77
ula 77
ulated 77
ushed 77
yan 77
खर 77
ङमा 77
तया 77
तिरको 77
न्सि 77
बलिको 77
भूति 77
रम 77
शेष 77
सेवा 77
स्थापित 77
हेल 77
ियो 77
िल 77
्दछन् 77
▁42 77
▁82 77
▁AN 77
▁Ann 77
▁Brazil 77
▁Bring 77
▁Farm 77
▁Ganesh 77
▁Hebron 77
▁James 77
▁Levi 77
▁Location 77
▁Passover 77
▁Perhaps 77
▁ang 77
▁band 77
▁begins 77
▁cancel 77
▁compound 77
▁continues 77
▁definition 77
▁desert 77
▁disp 77
▁fierce 77
▁guide 77
▁helps 77
▁hungry 77
▁ignor 77
▁lady 77
▁millions 77
▁monitor 77
▁patterns 77
▁pleased 77
▁quick 77
▁recur 77
▁ren 77
▁resulting 77
▁specifies 77
▁substance 77
▁surveys 77
▁sync 77
▁topic 77
▁truck 77
▁yours 77
▁अचानक 77
▁अनुक्रम 77
▁अब्राहा 77
▁उत्पादनशील 77
▁एला 77
▁काँसाको 77
▁कागजातमा 77
▁कारागार 77
▁कार्यान्वयनको 77
▁खनिज 77
▁खोल्दा 77
▁घरहरू 77
▁जता 77
▁जाँदै 77
▁जाल 77
▁तिन 77
▁तिमीहरूकहाँ 77
▁दरबार 77
▁नभएसम्म 77
▁न्याया 77
▁पाठा 77
▁पावललाई 77
▁पोशाक 77
▁प्रावधान 77
▁भन्यौ 77
▁मौन 77
▁रङको 77
▁लाज 77
▁लिन्छ 77
▁लुकेका 77
▁विद 77
▁विधिहरू 77
▁विभा 77
▁शक्तिले 77
▁शिव 77
▁शेष 77
▁सिलसिलामा 77
▁स्टो 77
▁२००० 77
▁२०४८ङ्ग४९ 77
OV 76
aji 76
ault 76
government 76
iph 76
oices 76
olution 76
ricity 76
ription 76
text 76
the 76
क्की 76
जीले 76
डेल 76
दाका 76
प्ला 76
बद्धता 76
माञ्च 76
वर्ष 76
स्तु 76
ौला 76
▁1981 76
▁34 76
▁Africa 76
▁Ang 76
▁Bre 76
▁Creat 76
▁Eng 76
▁January 76
▁Kos 76
▁Lebanon 76
▁Soviet 76
▁Teacher 76
▁Tribhuvan 76
▁Ve 76
▁abominations 76
▁appoint 76
▁aren 76
▁cards 76
▁chairman 76
▁comments 76
▁conference 76
▁cook 76
▁damage 76
▁dependent 76
▁distress 76
▁dock 76
▁exalted 76
▁expanding 76
▁expenses 76
▁inserted 76
▁judges 76
▁lamb 76
▁listening 76
▁loves 76
▁neg 76
▁node 76
▁nutrition 76
▁opinion 76
▁opposite 76
▁paddy 76
▁parsing 76
▁pressed 76
▁reaching 76
▁recommended 76
▁regularly 76
▁reproach 76
▁shed 76
▁solve 76
▁spending 76
▁split 76
▁synchron 76
▁temperature 76
▁vers 76
▁widow 76
▁अगुवाहरूले 76
▁अच 76
▁अनिकाल 76
▁अनुपातमा 76
▁अफिस 76
▁अभिमुख 76
▁आँधी 76
▁आत 76
▁आफैंले 76
▁एचटीएमएल 76
▁कम्प्युटरमा 76
▁किलोवाट 76
▁कुकी 76
▁केन्द्रहरु 76
▁गाउँमा 76
▁गोरखा 76
▁घटाउने 76
▁चलाउनु 76
▁जात 76
▁टाँ 76
▁तरवारले 76
▁तास 76
▁दिइन्छ 76
▁दिएनन् 76
▁द्वन्द्व 76
▁नदेऊ 76
▁नसके 76
▁निम्त्या 76
▁पिक्सेलमा 76
▁प्रभुको 76
▁बसो 76
▁भात 76
▁मबाट 76
▁मिल 76
▁मूर् 76
▁यहूदीहरूलाई 76
▁राखिनेछ 76
▁लगाएका 76
▁लगेर 76
▁वातावरणको 76
▁विमानस्थ 76
▁संक्षिप्त 76
▁संस्थाले 76
▁सङ्केतक 76
▁सत् 76
▁सेवन 76
▁स्त्रीलाई 76
▁हामीसँग 76
▁हिंडे 76
▁हुनुहुन्न 76
US 75
agement 75
ailable 75
apur 75
aster 75
atible 75
ception 75
inn 75
iters 75
lin 75
ocr 75
oint 75
ower 75
pent 75
roll 75
thern 75
under 75
urance 75
usted 75
yle 75
í 75
कुर 75
क्सन 75
चाई 75
दरमा 75
दोस्रो 75
न्तै 75
पटक 75
फ् 75
मान् 75
रेस 75
विश्वास 75
हामीले 75
ेश्व 75
▁1980 75
▁2002 75
▁255 75
▁Arch 75
▁Attach 75
▁CM 75
▁Collection 75
▁Copyright 75
▁Jhapa 75
▁Manager 75
▁Max 75
▁Pand 75
▁Shri 75
▁Sorry 75
▁Uzz 75
▁abs 75
▁accident 75
▁attach 75
▁concrete 75
▁define 75
▁differences 75
▁doub 75
▁equally 75
▁finger 75
▁govern 75
▁hundreds 75
▁includes 75
▁inform 75
▁interf 75
▁learning 75
▁manual 75
▁nearly 75
▁numer 75
▁observe 75
▁photograph 75
▁principles 75
▁prosper 75
▁rams 75
▁reference 75
▁sal 75
▁sanct 75
▁scripts 75
▁sole 75
▁stability 75
▁suspension 75
▁tea 75
▁thirst 75
▁yen 75
▁अनावश्यक 75
▁आवधिक 75
▁ईश्वर 75
▁उहाले 75
▁एल् 75
▁कन्क्वेरर 75
▁कानुनी 75
▁कार्यक्षेत्र 75
▁कार्यसम्पादन 75
▁कृषिमा 75
▁ख्रीष्टले 75
▁गन्ध 75
▁गराइएको 75
▁गरिन 75
▁गरेनौ 75
▁चुनिएका 75
▁जाडो 75
▁टोली 75
▁तपाइँ 75
▁तिनै 75
▁नजी 75
▁निकट 75
▁नेपालले 75
▁पप 75
▁पर्थ्यो 75
▁प्रकृ 75
▁प्रतिबन्ध 75
▁प्रतियोग 75
▁प्राप 75
▁फोटोग्राफ 75
▁बढाउनु 75
▁बनेका 75
▁भण्ड 75
▁भाग् 75
▁भाग्य 75
▁मर्नु 75
▁मानिसहरुको 75
▁रुख 75
▁रोजगारीको 75
▁लगाऊ 75
▁विधे 75
▁शके 75
▁शैता 75
▁श्रमिक 75
▁संघको 75
▁सन्तुलित 75
▁समस्याहरू 75
▁सोझै 75
▁स्ट्रो 75
▁स्प्रे 75
▁स्वीकृत 75
▁हारूनका 75
▁हेरी 75
▁१९३ 75
-2 74
DM 74
astic 74
atha 74
hon 74
ih 74
ike 74
mble 74
ogram 74
ouse 74
pace 74
round 74
ँड 74
काका 74
ग्न 74
त्रो 74
पनको 74
म्स 74
याहलाई 74
वाँ 74
सक्नु 74
सूच 74
ित्तिकै 74
▁Action 74
▁Changes 74
▁Drag 74
▁Eleazar 74
▁Ep 74
▁Hetauda 74
▁Janakpur 74
▁Jez 74
▁Ken 74
▁Lumbini 74
▁Stop 74
▁Survey 74
▁Three 74
▁adopt 74
▁affliction 74
▁agreed 74
▁arrows 74
▁bath 74
▁brick 74
▁cheap 74
▁cho 74
▁clock 74
▁consum 74
▁convention 74
▁corruption 74
▁demands 74
▁despite 74
▁ec 74
▁encrypt 74
▁experim 74
▁fre 74
▁games 74
▁goddess 74
▁hop 74
▁ide 74
▁improving 74
▁innocent 74
▁justified 74
▁minute 74
▁mix 74
▁mobilisation 74
▁mourning 74
▁neighb 74
▁newly 74
▁pix 74
▁preliminary 74
▁proportion 74
▁rect 74
▁risen 74
▁scan 74
▁sex 74
▁simply 74
▁styles 74
▁tower 74
▁transit 74
▁अगाडी 74
▁असुर 74
▁आलु 74
▁उठाउनु 74
▁एक्सचेन्ज 74
▁ओगट 74
▁औषधी 74
▁खाइ 74
▁गरिसकेको 74
▁गर्द 74
▁घाँ 74
▁चेताउनी 74
▁जनकपुर 74
▁जू 74
▁तनाव 74
▁ताररहित 74
▁दर् 74
▁दावी 74
▁दिनेछन् 74
▁दिव 74
▁धरान 74
▁धारण 74
▁नदेखाउने 74
▁पंक्ति 74
▁पक्का 74
▁पदा 74
▁पापी 74
▁पुरै 74
▁प्रतिशतको 74
▁बराबरको 74
▁बिक 74
▁बीऊ 74
▁बोध 74
▁मन्द 74
▁महल 74
▁मार 74
▁मिल्दैन 74
▁मुकुट 74
▁रङहरू 74
▁लाइब्रे 74
▁लेखे 74
▁लेख्नुहोस् 74
▁वर्षअघि 74
▁विभागको 74
▁वीउ 74
▁शब्दमा 74
▁संस्थानको 74
▁संस्थाहरु 74
▁समितिले 74
▁सर्प 74
▁सश 74
▁सूचि 74
▁सेनाका 74
▁स्वार्थ 74
▁१ः 74
▁१९६ 74
▁५४ 74
25 73
CH 73
itter 73
lection 73
lets 73
ohan 73
omy 73
orial 73
pired 73
plet 73
rast 73
ript 73
ronic 73
sl 73
velop 73
version 73
खेर 73
गन 73
ग्रस्त 73
चालित 73
दैनौ 73
न्याह 73
पूर् 73
भेद 73
रियो 73
ल्लो 73
शमा 73
हेक 73
ारीको 73
▁148 73
▁59 73
▁Browse 73
▁Chaldeans 73
▁Did 73
▁Diff 73
▁Fe 73
▁Foundation 73
▁Isn 73
▁Lay 73
▁Loading 73
▁Lock 73
▁Meanwhile 73
▁Met 73
▁Rotate 73
▁Selah 73
▁absol 73
▁agree 73
▁arc 73
▁asking 73
▁beds 73
▁beh 73
▁competitive 73
▁contin 73
▁eth 73
▁fav 73
▁forgotten 73
▁grants 73
▁hectare 73
▁instit 73
▁linked 73
▁mand 73
▁marked 73
▁negoti 73
▁nutr 73
▁pace 73
▁ple 73
▁possib 73
▁prefer 73
▁prey 73
▁promoting 73
▁q 73
▁rare 73
▁reader 73
▁requests 73
▁residential 73
▁route 73
▁sheets 73
▁strengthening 73
▁taxes 73
▁thereby 73
▁whenever 73
▁आइतबार 73
▁उत्ते 73
▁एमोरी 73
▁कक्षमा 73
▁काटेर 73
▁कारोबारमा 73
▁कार्यान्वित 73
▁खुव 73
▁जग्गामा 73
▁ज्ञानको 73
▁ढुङ्गाहरू 73
▁तिनीहरूबाट 73
▁तीनजना 73
▁तुरुन्तै 73
▁दर्जन 73
▁दाज्यु 73
▁द्ध 73
▁नहुन 73
▁नियुक्ति 73
▁निर्वाचित 73
▁निवारण 73
▁परिक्रमण 73
▁परिवारले 73
▁पिछ 73
▁पुग्छ 73
▁प्रतिव्यक्ति 73
▁प्रापक 73
▁फाइललाई 73
▁बाबुको 73
▁बाहु 73
▁बिग्रि 73
▁बृह 73
▁भावी 73
▁भाषण 73
▁माटोको 73
▁मानिसहरूमाथि 73
▁मेशिन 73
▁याकूबलाई 73
▁रहेर 73
▁ल्याएर 73
▁शेयर 73
▁संवाददाता 73
▁सक्यो 73
▁सदैव 73
▁सम्मेलन 73
▁सोचे 73
▁स्मा 73
▁२०३८ 73
,0 72
LS 72
acher 72
adab 72
ball 72
cha 72
cond 72
ds 72
eps 72
fall 72
hot 72
icide 72
icing 72
ieve 72
igation 72
mission 72
olog 72
place 72
plicit 72
rav 72
uly 72
ँ्र 72
आत 72
कता 72
जनमा 72
ज्ञान 72
तित 72
थर 72
दारी 72
नगर 72
न्जा 72
पोर्ट 72
बिक 72
बीचको 72
मार्ग 72
याका 72
रहेछन् 72
रिका 72
र्ु 72
लाग्दो 72
श्रम 72
स्टिक 72
▁61 72
▁Audio 72
▁Ban 72
▁Count 72
▁Forest 72
▁MP 72
▁SVG 72
▁addresses 72
▁analy 72
▁bag 72
▁boat 72
▁coordin 72
▁decre 72
▁dem 72
▁described 72
▁dies 72
▁dignity 72
▁easier 72
▁fif 72
▁flowers 72
▁flu 72
▁invitation 72
▁invited 72
▁latest 72
▁latter 72
▁magazine 72
▁mir 72
▁older 72
▁pipe 72
▁powerful 72
▁reduction 72
▁registration 72
▁resol 72
▁respons 72
▁singing 72
▁sleeping 72
▁soldiers 72
▁spot 72
▁stretched 72
▁weakness 72
▁अपलोड 72
▁अमे 72
▁अर 72
▁अलावा 72
▁इन्च 72
▁उब्ज 72
▁कलेज 72
▁कार्यालयमा 72
▁खन्या 72
▁खारेज 72
▁खोलिएको 72
▁गरिएन 72
▁गरिबी 72
▁गोदाम 72
▁चर्च 72
▁चाहने 72
▁चाहिँ 72
▁छात्रा 72
▁जसबाट 72
▁जेठा 72
▁तहका 72
▁तिनीहरूमा 72
▁तुल्याउनु 72
▁धू 72
▁नगद 72
▁नभएर 72
▁निकाल् 72
▁नैतिक 72
▁पाँचौं 72
▁पिसाब 72
▁पुगि 72
▁प्रतिदिन 72
▁प्रदाय 72
▁फलक 72
▁फू 72
▁बन्दी 72
▁बिभिन्न 72
▁मसिनो 72
▁मानले 72
▁मूल्याङ्न 72
▁यहाँको 72
▁रजस्व 72
▁रोक 72
▁लगायत 72
▁लोकप्रिय 72
▁वक्र 72
▁वहु 72
▁वाट 72
▁सर्वा 72
▁सल्लाहकार 72
▁सुनें 72
▁सुर 72
▁सूचीको 72
▁स्क्रिनसेभर 72
▁हुदै 72
▁हेड 72
▁५८ 72
AND 71
ED 71
TA 71
aints 71
aly 71
ety 71
flow 71
ham 71
iful 71
inding 71
ishment 71
ja 71
ney 71
play 71
rary 71
right 71
scape 71
sing 71
tr 71
ules 71
viation 71
wing 71
कालको 71
कुरा 71
क्सको 71
टान 71
टीमा 71
डान 71
ण्डो 71
ताबाट 71
द्या 71
धीश 71
पछाडि 71
फर 71
बै 71
मण्ड 71
मह 71
माथिको 71
योजन 71
लीय 71
लू 71
ल्यु 71
समूह 71
सिङ 71
हाज 71
ेत्र 71
ैमा 71
▁Amen 71
▁Ayurved 71
▁Bookmark 71
▁Democr 71
▁Dep 71
▁Force 71
▁Gh 71
▁HMG 71
▁Hor 71
▁Jan 71
▁Offic 71
▁Pad 71
▁Pe 71
▁Syria 71
▁Talk 71
▁Without 71
▁assigned 71
▁assum 71
▁belongs 71
▁clothed 71
▁converted 71
▁crying 71
▁debug 71
▁emphasized 71
▁entrance 71
▁horns 71
▁integr 71
▁keyring 71
▁literacy 71
▁marvel 71
▁obtain 71
▁persec 71
▁promise 71
▁rebell 71
▁receiving 71
▁recognized 71
▁solar 71
▁spec 71
▁spite 71
▁sprink 71
▁suddenly 71
▁swall 71
▁symptoms 71
▁tender 71
▁vag 71
▁vice 71
▁अनुप्रयोगको 71
▁अनेकौं 71
▁असमान 71
▁असहाय 71
▁अहि 71
▁आत्मनिर्भर 71
▁उपासना 71
▁एनिमेसन 71
▁कपाल 71
▁कांग्रेसको 71
▁गोठाला 71
▁चाहना 71
▁चिकित्स 71
▁छात्र 71
▁टुहु 71
▁ड्र 71
▁तापक्रम 71
▁द्र 71
▁नपढ 71
▁नामाकरण 71
▁परी 71
▁पाठमा 71
▁प्रयोगकर्ताका 71
▁फाइ 71
▁बनिएको 71
▁बाबुले 71
▁बिन्यामीन 71
▁मनश्शेका 71
▁महस 71
▁मिलि 71
▁मिश्रको 71
▁याकूबको 71
▁योआबले 71
▁रोजगारीका 71
▁ल्याटिन 71
▁वरि 71
▁वाञ्छ 71
▁वातावरणमा 71
▁वाह्य 71
▁विदा 71
▁शब्दको 71
▁शिमोन 71
▁शिरमा 71
▁संशोधन 71
▁सम्बद्ध 71
▁सावधान 71
▁ह्यु 71
▁२०१६ 71
▁२०३१ 71
.50 70
AM 70
SQL 70
aughter 70
cised 70
duct 70
elf 70
ensions 70
iction 70
onia 70
ords 70
orting 70
ross 70
uzz 70
क्षेत्रको 70
ङ्कर 70
टीपी 70
ण्डल 70
ण्य 70
नेछौं 70
बको 70
भने 70
भ्या 70
राष्ट्रिय 70
व्यव 70
व्यवस्था 70
शिल 70
सीमा 70
सेको 70
ारण 70
िकृत 70
ैन् 70
▁1974 70
▁Arise 70
▁European 70
▁Galilee 70
▁Haz 70
▁Jeh 70
▁Long 70
▁Mary 70
▁Ra 70
▁Reload 70
▁Si 70
▁Sir 70
▁Software 70
▁TRUE 70
▁Thank 70
▁Welcome 70
▁West 70
▁XSL 70
▁Zoom 70
▁accused 70
▁afforestation 70
▁analyst 70
▁ann 70
▁app 70
▁arranged 70
▁believes 70
▁cancer 70
▁catalog 70
▁commitment 70
▁committees 70
▁composition 70
▁connections 70
▁courage 70
▁dilig 70
▁dried 70
▁dwelling 70
▁educated 70
▁entering 70
▁futures 70
▁gar 70
▁habit 70
▁happiness 70
▁hat 70
▁heritage 70
▁increasingly 70
▁jealous 70
▁leads 70
▁license 70
▁locally 70
▁lod 70
▁macro 70
▁newsp 70
▁passes 70
▁plug 70
▁proved 70
▁recogn 70
▁refused 70
▁rejo 70
▁removing 70
▁rent 70
▁repl 70
▁salary 70
▁segment 70
▁solid 70
▁species 70
▁stands 70
▁stead 70
▁stories 70
▁timely 70
▁undo 70
▁viewer 70
▁wat 70
▁© 70
▁अंक 70
▁अक् 70
▁अभ 70
▁अविश्वास 70
▁इन्ट 70
▁उन्नति 70
▁एप्रैम 70
▁ओब 70
▁कनानी 70
▁कप्तान 70
▁कुराहरूमा 70
▁क्वा 70
▁क्षेत्रले 70
▁खोला 70
▁गर्नुहोस 70
▁गुणात्मक 70
▁ग्रन्थ 70
▁जापानमा 70
▁जोनाथन 70
▁ठी 70
▁थाल्छ 70
▁दाखको 70
▁नगरिएका 70
▁निर्माता 70
▁निश्च 70
▁पठाइएको 70
▁पाइलट 70
▁पुर्खाहरूलाई 70
▁प्रवाहित 70
▁फर्किए 70
▁फाल 70
▁बजा 70
▁भाषाको 70
▁भैरहवा 70
▁माग् 70
▁याकूबका 70
▁रक 70
▁रेखाको 70
▁लागेर 70
▁वस्तुका 70
▁वित 70
▁वैशाख 70
▁सक्तैनौ 70
▁सञ्चालनको 70
▁समझदारी 70
▁सहयोगमा 70
▁सांसद 70
▁साम्बा 70
▁स्तनको 70
▁स्तम्भहरू 70
▁स्वतन्त्रता 70
▁स्वि 70
▁२००७ 70
▁७२ 70
IP 69
bars 69
ector 69
erved 69
four 69
oles 69
peg 69
pes 69
resent 69
scribe 69
उनेछु 69
ञ्चित 69
टरको 69
टीको 69
न्जेल 69
पश्चात् 69
माइ 69
मू 69
याहको 69
रलाई 69
वेयर 69
सक 69
सुकै 69
ुक 69
ेरी 69
्त 69
▁2007 69
▁Attempt 69
▁Buddh 69
▁Cal 69
▁City 69
▁Communist 69
▁Details 69
▁Directory 69
▁Div 69
▁Event 69
▁Everest 69
▁Food 69
▁HotSync 69
▁PDA 69
▁Prepar 69
▁Projects 69
▁Russ 69
▁Spe 69
▁Street 69
▁Wa 69
▁abomination 69
▁abuse 69
▁aston 69
▁butterf 69
▁cease 69
▁compassion 69
▁decrease 69
▁directories 69
▁documentation 69
▁doubt 69
▁electric 69
▁exceedingly 69
▁familiar 69
▁farms 69
▁federal 69
▁fold 69
▁inherit 69
▁judged 69
▁lim 69
▁mater 69
▁merc 69
▁motiv 69
▁periodic 69
▁preserve 69
▁professional 69
▁purposes 69
▁rebu 69
▁recipients 69
▁rope 69
▁skilled 69
▁snap 69
▁spices 69
▁summer 69
▁synagog 69
▁tables 69
▁unem 69
▁ven 69
▁widely 69
▁wool 69
▁अधिकारको 69
▁अम्मोनी 69
▁अहँ 69
▁आमालाई 69
▁आयमा 69
▁इसहाक 69
▁उनीहरुलाई 69
▁काग 69
▁खानेपानीको 69
▁गरिदिए 69
▁गर्नुका 69
▁गाउँले 69
▁गुरू 69
▁गोष्ठी 69
▁चढाएको 69
▁चित् 69
▁छाडेर 69
▁जमिन 69
▁जोडाइ 69
▁तुरू 69
▁दिनपछि 69
▁देखिँदैन 69
▁नखा 69
▁नजिकको 69
▁निर्वाच 69
▁नेभिग 69
▁पत्नीहरू 69
▁परमेश्वरसित 69
▁पलिश्त 69
▁पशुको 69
▁पाइला 69
▁पुनरावलोकन 69
▁प्रक्षेपण 69
▁बन्यो 69
▁बाइ 69
▁बेन 69
▁बेरो 69
▁ब्राजि 69
▁मुस् 69
▁यकीन 69
▁यसपछि 69
▁यसप्रकार 69
▁रिपोर्ट 69
▁रीस 69
▁लाइनको 69
▁लाबान 69
▁लैजानु 69
▁ल्याउनुहोस् 69
▁ल्याउनेछु 69
▁विद्यालयको 69
▁विन्दु 69
▁शीत 69
▁शू 69
▁संक 69
▁सम्पर् 69
▁सम्मको 69
▁साइजमा 69
▁सोच्छ 69
▁हक 69
▁२०१५ 69
▁६६ 69
EN 68
aired 68
antly 68
icians 68
ird 68
oice 68
pan 68
pass 68
pri 68
usion 68
yani 68
काएर 68
खान 68
च् 68
ट्स 68
नीति 68
नेस 68
पास 68
माका 68
मीको 68
यास 68
र्ख 68
र्षक 68
लिंग 68
वश 68
वीय 68
स्र 68
ेश्वर 68
ोन 68
▁Assembly 68
▁Bethel 68
▁Big 68
▁Class 68
▁Currently 68
▁Eastern 68
▁Full 68
▁Fund 68
▁Mc 68
▁Midian 68
▁Praise 68
▁Preferences 68
▁Reform 68
▁Top 68
▁abund 68
▁actually 68
▁aspect 68
▁authent 68
▁bulls 68
▁clay 68
▁clos 68
▁connecting 68
▁console 68
▁contributed 68
▁cop 68
▁creatures 68
▁crimin 68
▁eng 68
▁exam 68
▁experts 68
▁fertilizers 68
▁gpg 68
▁herbs 68
▁highlighted 68
▁histor 68
▁invested 68
▁lament 68
▁laugh 68
▁learned 68
▁matters 68
▁mention 68
▁needy 68
▁overl 68
▁palace 68
▁participate 68
▁pointer 68
▁practices 68
▁remed 68
▁reminder 68
▁repeated 68
▁sil 68
▁socket 68
▁suffered 68
▁tells 68
▁termin 68
▁thr 68
▁translate 68
▁tray 68
▁trumpet 68
▁turns 68
▁unnecessary 68
▁upd 68
▁website 68
▁अधिराज्यको 68
▁अनुक्रमण 68
▁अनुप्रयोगले 68
▁आत्महत्या 68
▁आत्माको 68
▁आयुर्वेद 68
▁इट 68
▁इतिहासको 68
▁इन्टरने 68
▁उम्र 68
▁एकत्रित 68
▁कटौती 68
▁किनारामा 68
▁कुराले 68
▁कुलबाट 68
▁क्यु 68
▁क्युमुलेटिभ 68
▁क्षेत्रहरूमा 68
▁गेट 68
▁ग्राम 68
▁घटाउ 68
▁चाहेका 68
▁चिल्लो 68
▁छोराको 68
▁जन्मे 68
▁जमीनको 68
▁जेने 68
▁टाइम 68
▁ट्रक 68
▁डराए 68
▁तन्तु 68
▁तुल्याउने 68
▁देशले 68
▁धर्मशास्त्र 68
▁नगरे 68
▁पब्लिक 68
▁परिप्रेक्ष्यमा 68
▁पार्टीका 68
▁पुनप्रयास 68
▁प्रतिष्ठ 68
▁प्रदूषण 68
▁प्रसङ्ग 68
▁फर्काई 68
▁बङ्ग 68
▁बनाएँ 68
▁बाछा 68
▁बाद 68
▁बाबा 68
▁भव 68
▁मन्दिरका 68
▁मर्न 68
▁मित 68
▁मिल्दछ 68
▁मुख्यतया 68
▁मैदानमा 68
▁मोर्द 68
▁राजी 68
▁रेखदेख 68
▁लगानीमा 68
▁लाभदायक 68
▁वचत 68
▁विक्री 68
▁विश्वमा 68
▁वीरगञ्ज 68
▁व्यभिचार 68
▁व्यहो 68
▁संर 68
▁सिंहासनमा 68
▁सुख्खा 68
▁स्वर 68
▁हिँड 68
▁हेटौंडा 68
ION 67
TY 67
acle 67
aff 67
agn 67
aken 67
alled 67
ato 67
format 67
has 67
ifies 67
isible 67
iving 67
organ 67
screen 67
yl 67
ंका 67
औं 67
ज्य 67
त्कार 67
धारा 67
नुहो 67
पद 67
पर्यो 67
पृ 67
मानिस 67
मार् 67
यन्त्र 67
रिए 67
लाम 67
श्वर 67
स्न 67
ूँ 67
▁2004 67
▁73 67
▁Ber 67
▁Brother 67
▁Chandra 67
▁Form 67
▁Head 67
▁Help 67
▁Index 67
▁KS 67
▁Keeping 67
▁Know 67
▁Named 67
▁Place 67
▁Quanta 67
▁Scale 67
▁Sea 67
▁Sin 67
▁Status 67
▁activated 67
▁adversaries 67
▁appointment 67
▁ashamed 67
▁assess 67
▁association 67
▁bold 67
▁brain 67
▁category 67
▁confirmation 67
▁ded 67
▁deeds 67
▁employee 67
▁financing 67
▁geographical 67
▁gn 67
▁html 67
▁imbal 67
▁insect 67
▁kindled 67
▁matches 67
▁meant 67
▁measured 67
▁mineral 67
▁offset 67
▁opt 67
▁outlay 67
▁phone 67
▁prom 67
▁prophes 67
▁psy 67
▁quite 67
▁rapid 67
▁rece 67
▁scribes 67
▁semi 67
▁simpl 67
▁smaller 67
▁sou 67
▁spe 67
▁storm 67
▁stroke 67
▁tear 67
▁tendency 67
▁tests 67
▁tor 67
▁vehicles 67
▁vocabulary 67
▁अद्व 67
▁आउँदछ 67
▁आविष्कार 67
▁एन्टि 67
▁कारणबाट 67
▁केन्या 67
▁केबल 67
▁क्वान्टा 67
▁गर्दैछन् 67
▁गौरव 67
▁ग्रिड 67
▁घट्न 67
▁चम्किलो 67
▁चीन 67
▁चुनौ 67
▁चेतना 67
▁छोडी 67
▁जङ्ध 67
▁जबकि 67
▁जहिले 67
▁टाढ 67
▁टुप् 67
▁टेलि 67
▁ट्यु 67
▁तरिकाबाट 67
▁त्यसमाथि 67
▁दबाब 67
▁देख्यो 67
▁धेरैले 67
▁नद 67
▁नराख 67
▁निम्नलिखित 67
▁निर्भरता 67
▁न्यायकर्त्ता 67
▁पञ्च 67
▁पद्ध 67
▁पर्दछन् 67
▁पलिश्तीहरू 67
▁पुत्रलाई 67
▁फाँ 67
▁बनाउँदै 67
▁बलिको 67
▁बां 67
▁बोन्ड 67
▁बोलाउनु 67
▁ब्याज 67
▁भएकी 67
▁भन्नेछु 67
▁भवनको 67
▁भोग्नु 67
▁मसला 67
▁माध्य 67
▁मान्ने 67
▁मार्गदर्शन 67
▁मिद्या 67
▁मिसा 67
▁मौस 67
▁येहू 67
▁रत्न 67
▁रुपैयाँ 67
▁लौरो 67
▁वृक्ष 67
▁शायद 67
▁शुभ 67
▁संयन्त्र 67
▁संस्थानहरुको 67
▁सत 67
▁सन्तुल 67
▁सभामुख 67
▁समग्र 67
▁सम्पादकमा 67
▁सराप 67
▁सातौँँ 67
▁सुदृढीकरण 67
▁सोध्नुहोस् 67
▁स्टेसन 67
▁हरि 67
▁हारूनलाई 67
▁हालेर 67
▁हेरेर 67
▁६१ 67
UR 66
aki 66
aliah 66
alt 66
araj 66
ava 66
ded 66
esty 66
hat 66
here 66
isher 66
just 66
lah 66
orts 66
related 66
ryption 66
tled 66
कर् 66
टाई 66
तर्फबाट 66
तह 66
न्द्रा 66
बेर 66
मेट 66
योजित 66
लाहा 66
वर्ती 66
वस्थामा 66
विधि 66
वेल 66
व्यापी 66
शक 66
स्सा 66
हाय 66
▁1988 66
▁1999 66
▁Adv 66
▁Bet 66
▁DN 66
▁Earlier 66
▁Eth 66
▁FTP 66
▁Highlight 66
▁Hon 66
▁Jer 66
▁Latin 66
▁MS 66
▁Micro 66
▁SQL 66
▁Som 66
▁Style 66
▁Ver 66
▁Yah 66
▁accordingly 66
▁alt 66
▁baby 66
▁bell 66
▁blemish 66
▁bott 66
▁bright 66
▁calling 66
▁ce 66
▁chariot 66
▁clim 66
▁demons 66
▁desires 66
▁dim 66
▁eleph 66
▁encountered 66
▁era 66
▁exactly 66
▁figures 66
▁forsaken 66
▁generating 66
▁gifts 66
▁inn 66
▁intellectual 66
▁interested 66
▁involvement 66
▁junk 66
▁ownership 66
▁participants 66
▁personality 66
▁pract 66
▁pref 66
▁prove 66
▁relatively 66
▁repent 66
▁settlement 66
▁signing 66
▁stranger 66
▁strict 66
▁talents 66
▁transaction 66
▁treasures 66
▁tremb 66
▁virus 66
▁अभिवादन 66
▁अभ्या 66
▁अस्थिर 66
▁आगोको 66
▁आत्मिक 66
▁आयोजनाअन्तर्गत 66
▁आवश्यकतानुसार 66
▁इलाकामा 66
▁उत्तिकै 66
▁उपत्यकामा 66
▁कहा 66
▁कानु 66
▁कोर्न 66
▁कोलम्बिया 66
▁क्यारे 66
▁खेतहरू 66
▁गन 66
▁घट्ने 66
▁जातिहरूलाई 66
▁ढोकाको 66
▁तत्वको 66
▁दिनुपर्ने 66
▁देखाउँदछ 66
▁नलि 66
▁निशुल्क 66
▁पावर 66
▁पुनलोड 66
▁पूजाहारीको 66
▁प्रेरणा 66
▁बनाउनेछु 66
▁बेतेल 66
▁भूइँमा 66
▁भूमिसुधार 66
▁महासंघ 66
▁मुखिया 66
▁यन्त्रमा 66
▁येशूका 66
▁राखियो 66
▁र्फ 66
▁र्वष 66
▁वर्गको 66
▁वस्तुहरूको 66
▁शुक्र 66
▁संचालित 66
▁संसा 66
▁सकेट 66
▁सघन 66
▁समयदेखि 66
▁सावधानी 66
▁साहसी 66
▁सिक्कि 66
▁हुन्थे 66
CP 65
adem 65
adesh 65
ads 65
apter 65
ashed 65
bre 65
clock 65
conf 65
ested 65
gg 65
ila 65
oly 65
run 65
ten 65
ulations 65
umber 65
uments 65
uration 65
zilla 65
ंको 65
आज 65
कारको 65
कोरुपमा 65
गन्ज 65
चालन 65
ट्टामा 65
ताल 65
द्धारा 65
ध्व 65
नाहरू 65
न्क 65
पुरमा 65
प्रथम 65
मूल्य 65
मेर 65
रुद्ध 65
र्ुपर्छ 65
ल्क 65
वाई 65
षक 65
सम्पर्क 65
सरको 65
सिल 65
स्कार 65
स्तो 65
स्वास्थ्य 65
▁1979 65
▁38 65
▁Abimelech 65
▁Accordingly 65
▁Authority 65
▁Av 65
▁Bhag 65
▁Brow 65
▁Gorkha 65
▁Gtk 65
▁KT 65
▁Lear 65
▁Progress 65
▁SA 65
▁Saving 65
▁Shechem 65
▁Sheol 65
▁Spec 65
▁Specifies 65
▁Template 65
▁USB 65
▁anoint 65
▁arrived 65
▁careful 65
▁clouds 65
▁creature 65
▁discour 65
▁dispute 65
▁donkeys 65
▁escaped 65
▁experienced 65
▁exploitation 65
▁fake 65
▁fert 65
▁greatest 65
▁guest 65
▁haven 65
▁incent 65
▁indicates 65
▁interesting 65
▁investig 65
▁investments 65
▁ir 65
▁laun 65
▁lik 65
▁nose 65
▁obser 65
▁oppression 65
▁polygon 65
▁procedures 65
▁prosperity 65
▁punishment 65
▁remo 65
▁restored 65
▁satisfied 65
▁sexually 65
▁sounds 65
▁spokes 65
▁studied 65
▁stumble 65
▁victory 65
▁vol 65
▁wept 65
▁अगमवक्ताहरूले 65
▁अग्रसर 65
▁अनुशासन 65
▁अफ्रि 65
▁असमर्थित 65
▁आफ 65
▁आमाले 65
▁आयोगले 65
▁उम् 65
▁ओपन 65
▁काट्ने 65
▁किनार 65
▁कृषकहरुलाई 65
▁केट 65
▁क्रिया 65
▁क्लिनिक 65
▁क्ष्ँेत्र 65
▁खरानी 65
▁घरि 65
▁चिन्त 65
▁चिहानमा 65
▁जनगणना 65
▁जिउँदो 65
▁ठुलो 65
▁तुल 65
▁नछो 65
▁नयां 65
▁निकायहरु 65
▁निर्माणमा 65
▁पक्राउ 65
▁पतन 65
▁परामितिहरू 65
▁परियोजनाको 65
▁परिवर्तित 65
▁परेर 65
▁पसल 65
▁पाई 65
▁पाउनेछ 65
▁पापबलिको 65
▁प्रकोप 65
▁प्रतिष्ठान 65
▁प्रतिसेयर 65
▁बताउंछन् 65
▁बर 65
▁बहुभुज 65
▁बेस 65
▁ब्रह्म 65
▁भद्राक्ष 65
▁भीपीएन 65
▁मर्यो 65
▁मोर 65
▁यसअघि 65
▁येशूकहाँ 65
▁यौ 65
▁राई 65
▁राज्यपाल 65
▁लेवीहरूले 65
▁विद्या 65
▁विपत्ति 65
▁विश्वको 65
▁विष् 65
▁वेश 65
▁व्यक्तित्व 65
▁शिमी 65
▁संवेदनशील 65
▁समयमै 65
▁समात् 65
▁सादा 65
▁सुनेको 65
▁स्वास्नी 65
▁हल्का 65
▁हुनसक्ने 65
▁८५ 65
LC 64
acles 64
asi 64
ccess 64
dd 64
di 64
inger 64
ishes 64
ko 64
ns 64
ocket 64
ourable 64
ran 64
rates 64
uli 64
xy 64
इरहेका 64
एमएल 64
कार्ड 64
ख्या 64
गामी 64
घाट 64
ञ्जेलसम्म 64
त्तम 64
दिक 64
नुहुन्थ्यो 64
न्छे 64
न्दो 64
पालु 64
पिया 64
पुस्तक 64
बन 64
बन्दी 64
भव 64
म्रो 64
यि 64
रान 64
रुवा 64
वधि 64
वास्ता 64
स्यौ 64
ुको 64
▁1985 64
▁72 64
▁Ary 64
▁BY 64
▁Balaam 64
▁Calcul 64
▁Children 64
▁Does 64
▁Ent 64
▁February 64
▁Hand 64
▁Koh 64
▁Mailbox 64
▁Mem 64
▁NFS 64
▁Off 64
▁Production 64
▁Road 64
▁Sil 64
▁Tyre 64
▁Video 64
▁annually 64
▁appe 64
▁balanced 64
▁bases 64
▁caught 64
▁climate 64
▁compuls 64
▁controvers 64
▁conversion 64
▁correspond 64
▁counted 64
▁curve 64
▁decreased 64
▁dedicated 64
▁dre 64
▁economically 64
▁expressions 64
▁extensive 64
▁guarant 64
▁herself 64
▁hotel 64
▁ignore 64
▁incre 64
▁indirect 64
▁intens 64
▁interests 64
▁interval 64
▁investigation 64
▁labels 64
▁largely 64
▁leprosy 64
▁mock 64
▁offers 64
▁oppress 64
▁overt 64
▁pillar 64
▁protected 64
▁race 64
▁securities 64
▁sessions 64
▁shortage 64
▁silence 64
▁situ 64
▁stress 64
▁subs 64
▁thumbnail 64
▁transparent 64
▁ult 64
▁undertake 64
▁updated 64
▁villagers 64
▁vow 64
▁worker 64
▁असु 64
▁आतंक 64
▁आश्रित 64
▁उत्पत्ति 64
▁उमेरका 64
▁कच्ची 64
▁काम् 64
▁कारखा 64
▁कारो 64
▁कौ 64
▁क्रियाशील 64
▁खडे 64
▁गरू 64
▁छर 64
▁जनस 64
▁जनसहभागि 64
▁जातिहरू 64
▁जित्न 64
▁जीवनका 64
▁जोर 64
▁झापा 64
▁डण्डा 64
▁डब् 64
▁डाय 64
▁तप 64
▁तीब्र 64
▁तेश्रो 64
▁त्रैमासिक 64
▁नदिने 64
▁नपर्ने 64
▁नभएकोले 64
▁पर्यट 64
▁प्रवक्ता 64
▁बनाइनेछ 64
▁बहस 64
▁बालकलाई 64
▁बालिका 64
▁बिहानै 64
▁भरपर्दो 64
▁भाला 64
▁भौगर्भिक 64
▁मर 64
▁मस्तिष् 64
▁महिलाको 64
▁यहा 64
▁रहेन 64
▁रेखामा 64
▁र्ग 64
▁लड्न 64
▁लेवीहरूलाई 64
▁लै 64
▁लौ 64
▁वाह 64
▁शर्त 64
▁शाऊलको 64
▁शाऊललाई 64
▁संकल 64
▁संस्थाहरुलाई 64
▁सहितको 64
▁सान्त्वना 64
▁सिंहासन 64
▁सिर् 64
▁सुनका 64
▁सेनालाई 64
▁स्थानहरू 64
▁स्ना 64
▁स्वे 64
▁हन 64
▁हानिकारक 64
▁२०४ 64
▁६७ 64
.40 63
akali 63
amin 63
asters 63
aud 63
bu 63
ceived 63
estic 63
imum 63
mend 63
not 63
pected 63
rect 63
select 63
ईन 63
एलले 63
काउने 63
कासन 63
ज्ञानिक 63
डीको 63
डै 63
दूत 63
न्धि 63
पल 63
यानी 63
रूवा 63
लिय 63
विध 63
सबै 63
स्थल 63
ीकरणको 63
ूण्ा 63
्रत 63
▁55 63
▁Abram 63
▁Account 63
▁Agency 63
▁Almighty 63
▁Being 63
▁Cre 63
▁Creating 63
▁Factory 63
▁Jab 63
▁Jericho 63
▁MB 63
▁Once 63
▁Pass 63
▁Printer 63
▁Process 63
▁Regional 63
▁Someone 63
▁Undo 63
▁Update 63
▁Zedekiah 63
▁apostles 63
▁bin 63
▁borrow 63
▁cherubim 63
▁chest 63
▁coal 63
▁continuing 63
▁deleg 63
▁desolation 63
▁disaster 63
▁diss 63
▁distort 63
▁endures 63
▁engaged 63
▁falls 63
▁formal 63
▁frequ 63
▁fulfil 63
▁grade 63
▁interpre 63
▁ladder 63
▁liquid 63
▁miss 63
▁multiply 63
▁plays 63
▁pri 63
▁quarters 63
▁reply 63
▁runs 63
▁setup 63
▁shepherd 63
▁shift 63
▁tears 63
▁tempt 63
▁tend 63
▁toler 63
▁unread 63
▁warm 63
▁अन्यत्र 63
▁अमान्य 63
▁अरामका 63
▁अर्कोतर्फ 63
▁आग 63
▁इभोल्यु 63
▁उजाड 63
▁औलो 63
▁किरण 63
▁क्षयरोग 63
▁क्षेत्रफल 63
▁खिच 63
▁गाइ 63
▁गिलाद 63
▁गोठ 63
▁चढाउने 63
▁छेऊ 63
▁जग्गाको 63
▁जनसाधारण 63
▁जसद्वारा 63
▁जापा 63
▁ज्यान 63
▁ठाउँहरूमा 63
▁डिज 63
▁तय 63
▁तिमीहरूमा 63
▁तेलमा 63
▁देवताहरूलाई 63
▁नडराऊ 63
▁नायक 63
▁निर्मित 63
▁पद् 63
▁पाखु 63
▁पारियो 63
▁पुग्नु 63
▁प्रक्रियालाई 63
▁फर्काउने 63
▁बग् 63
▁बचाउ 63
▁बरु 63
▁बालीको 63
▁बिशेष 63
▁बुद्धिमान 63
▁भइसकेका 63
▁भनेः 63
▁भयौ 63
▁भागेर 63
▁मरेका 63
▁मसंग 63
▁मामि 63
▁माल 63
▁मेनुबाट 63
▁यूसुफलाई 63
▁रणनीति 63
▁रमाइलो 63
▁रेखाङ्कन 63
▁ल्याइएको 63
▁ल्याएका 63
▁वास 63
▁वेबसाइट 63
▁शिक्षामा 63
▁संस्करणमा 63
▁सक्त 63
▁सदुपयोग 63
▁सभाको 63
▁सम्बोधन 63
▁सहवास 63
▁सादो 63
▁साधारणतया 63
▁सार्दा 63
▁सिकाउनु 63
▁हुला 63
▁है 63
▁१५० 63
▁२०२१ 63
,500 62
-6 62
.. 62
75 62
ORM 62
acter 62
adr 62
asc 62
ashing 62
card 62
coming 62
dh 62
ef 62
enty 62
ga 62
heth 62
illed 62
ims 62
iram 62
mp 62
ocation 62
odes 62
oram 62
reme 62
rip 62
wd 62
wh 62
अधिकार 62
कट 62
किम 62
कुञ्जी 62
ङ्ग्रा 62
जुर 62
त्तै 62
निङ 62
न्दे 62
पश्चात 62
पोषण 62
मोत 62
रहेकी 62
लाका 62
लास 62
ल्तिर 62
वृद्धि 62
सट 62
सामा 62
स्टि 62
▁Appro 62
▁Bush 62
▁Dele 62
▁Encrypt 62
▁GIF 62
▁Gar 62
▁Generate 62
▁Initial 62
▁Iss 62
▁Lib 62
▁Light 62
▁MD 62
▁Mach 62
▁Main 62
▁Position 62
▁Preview 62
▁Resize 62
▁Rural 62
▁Station 62
▁Technology 62
▁Vish 62
▁Wh 62
▁afflicted 62
▁answ 62
▁approx 62
▁brackets 62
▁brook 62
▁commer 62
▁critic 62
▁dealt 62
▁fle 62
▁guid 62
▁immediate 62
▁introduce 62
▁motion 62
▁naked 62
▁ord 62
▁overseas 62
▁owned 62
▁palm 62
▁passwords 62
▁petroleum 62
▁prayed 62
▁qual 62
▁schemes 62
▁seeks 62
▁stirred 62
▁television 62
▁transmission 62
▁tro 62
▁universe 62
▁variables 62
▁vegetables 62
▁अमाले 62
▁असम्भव 62
▁आँखाले 62
▁आशिष 62
▁उठाएर 62
▁उपभोग्य 62
▁उभिएका 62
▁कन्क्वेर 62
▁कम्बो 62
▁काठमाण्डौ 62
▁कुकुर 62
▁कोनिक 62
▁खेल्ने 62
▁ग्री 62
▁घटनाको 62
▁चर्को 62
▁चिट् 62
▁चौं 62
▁जय 62
▁जिब्रो 62
▁झै 62
▁दुईजना 62
▁नदिन 62
▁नितान्त 62
▁पढ्नुहोस् 62
▁परमेश्वरमा 62
▁परिच्छेद 62
▁पाच 62
▁पाठक 62
▁प्रविष्टिहरू 62
▁फसल 62
▁बढे 62
▁बनावट 62
▁बफर 62
▁बमोजिम 62
▁बिग 62
▁बिन्दुमा 62
▁बैठ 62
▁भूमिबाट 62
▁भेंडा 62
▁मिने 62
▁मैला 62
▁युग 62
▁रक्तचाप 62
▁रक्षक 62
▁राजाहरूलाई 62
▁लेखेका 62
▁लेख्नका 62
▁वालेट 62
▁विजयी 62
▁वृद्धिको 62
▁शरीरका 62
▁शीर्षकपट्टी 62
▁श्रृजना 62
▁श्वास 62
▁संगै 62
▁संभव 62
▁समेट 62
▁सम्भवतः 62
▁सामग्रीको 62
▁सुलभ 62
▁सुलेमानलाई 62
▁सेवाहरु 62
▁हाउ 62
RO 61
aran 61
ariat 61
awa 61
ether 61
gers 61
ician 61
ipal 61
ipped 61
irt 61
olved 61
osition 61
plates 61
priate 61
rid 61
ursed 61
very 61
wn 61
अनुसारको 61
कियाह 61
गरमा 61
घु 61
जिङ 61
जुद 61
ञ्जूषा 61
दण्ड 61
ध्यापक 61
पयोग 61
परा 61
फन 61
बृद्धि 61
भयो 61
मानि 61
मेश 61
यहू 61
राका 61
र्गि 61
लय 61
शका 61
शित 61
श्वास 61
सितै 61
सेन्ट 61
ाइएका 61
्नुभयो 61
▁2015 61
▁81 61
▁Album 61
▁Area 61
▁Build 61
▁Cancel 61
▁Contin 61
▁Elisha 61
▁Great 61
▁KPilot 61
▁Kam 61
▁La 61
▁Nah 61
▁Prof 61
▁Restore 61
▁Syrians 61
▁Target 61
▁Thapa 61
▁Unsupported 61
▁`& 61
▁allocated 61
▁altars 61
▁associ 61
▁ast 61
▁award 61
▁behalf 61
▁borne 61
▁cave 61
▁checking 61
▁corners 61
▁disturb 61
▁driven 61
▁dropped 61
▁estimates 61
▁express 61
▁glass 61
▁hel 61
▁interpretation 61
▁maj 61
▁oath 61
▁passing 61
▁prefix 61
▁redeem 61
▁references 61
▁resist 61
▁sectoral 61
▁signal 61
▁sisters 61
▁slaughter 61
▁supervision 61
▁testify 61
▁testing 61
▁tied 61
▁torn 61
▁trad 61
▁unbel 61
▁unm 61
▁unw 61
▁utilized 61
▁vegetable 61
▁verify 61
▁vertically 61
▁weekday 61
▁worse 61
▁अपा 61
▁अभावले 61
▁आजसम्म 61
▁उक् 61
▁उठेर 61
▁उपसर्ग 61
▁उम्मेदवार 61
▁उल् 61
▁एलियाले 61
▁कन 61
▁कीर्ति 61
▁कुञ्जीलाई 61
▁क्लिप 61
▁खेलमा 61
▁गवाही 61
▁गाद 61
▁गान 61
▁गिबो 61
▁गिरी 61
▁घोड 61
▁चुरो 61
▁छान 61
▁जनतामा 61
▁जसका 61
▁जीवनलाई 61
▁टर्मिन 61
▁टेबल 61
▁डाउन 61
▁तपाईको 61
▁तर्कहरू 61
▁तानेर 61
▁तिमीहरूमाथि 61
▁तुरुन्त 61
▁तैयार 61
▁त्यहाँको 61
▁दशा 61
▁देखापर्यो 61
▁देखिदैन 61
▁द्व 61
▁नाघ 61
▁निकासीमा 61
▁नू 61
▁परमात्मा 61
▁पहे 61
▁पाउलो 61
▁पातलो 61
▁पारवहन 61
▁पार्दा 61
▁पिट 61
▁फी 61
▁फोल्डरका 61
▁फोहर 61
▁बनाइएका 61
▁बरू 61
▁बाँचे 61
▁बालबालि 61
▁बिर्स 61
▁बैठकमा 61
▁भनिने 61
▁भेडाको 61
▁मदन 61
▁मुख्यतः 61
▁युद्धका 61
▁राष्ट 61
▁लाइनमा 61
▁लागी 61
▁लेखेको 61
▁ल्याउँछ 61
▁वस्तुलाई 61
▁विगतका 61
▁विश्वासको 61
▁सचेतक 61
▁समया 61
▁सर्भेक्षण 61
▁साउ 61
▁साओ 61
▁सारांश 61
▁सिपाहीहरू 61
▁हड 61
▁हाँगा 61
▁हाकिम 61
▁हार्ड 61
▁५को 61
▁५३ 61
▁५६ 61
▁८३ 61
-1 60
MA 60
OP 60
aria 60
chan 60
enger 60
erer 60
eters 60
ette 60
fortun 60
ignment 60
itch 60
mar 60
non 60
och 60
ograph 60
orable 60
ources 60
ras 60
ruction 60
sy 60
uber 60
ublic 60
well 60
इस 60
उँथे 60
एकी 60
औ 60
चायत 60
तपाईँ 60
त्रा 60
दुर 60
द्वार 60
परमेश्वर 60
परेका 60
पाठ 60
पेट 60
बत 60
लबाट 60
विन 60
वैधानिक 60
साल 60
्छौ 60
्दैछ 60
्याम 60
▁120 60
▁1960 60
▁53 60
▁64 60
▁Amorites 60
▁Balak 60
▁Bashan 60
▁Bhairahawa 60
▁Damascus 60
▁Dhan 60
▁Dhang 60
▁Economic 60
▁Er 60
▁Function 60
▁Graph 60
▁Ill 60
▁Kenya 60
▁Memory 60
▁Non 60
▁Organ 60
▁PDF 60
▁Paulo 60
▁Phys 60
▁Profile 60
▁Regarding 60
▁São 60
▁Techn 60
▁Tux 60
▁Vertical 60
▁accorded 60
▁advance 60
▁allocation 60
▁altern 60
▁arg 60
▁blasphem 60
▁boast 60
▁bro 60
▁cleans 60
▁combination 60
▁computers 60
▁conceived 60
▁conduit 60
▁consensus 60
▁cookies 60
▁directed 60
▁dividend 60
▁divisions 60
▁dress 60
▁encod 60
▁evidence 60
▁executing 60
▁ey 60
▁faster 60
▁happens 60
▁highways 60
▁informed 60
▁infrastructures 60
▁juice 60
▁kg 60
▁manage 60
▁multitudes 60
▁needle 60
▁northern 60
▁principle 60
▁relief 60
▁scholars 60
▁searching 60
▁snow 60
▁submitted 60
▁surrounded 60
▁thin 60
▁thrown 60
▁trusted 60
▁unp 60
▁vocational 60
▁wallet 60
▁अरूको 60
▁आदर्श 60
▁आदिमा 60
▁इश्मा 60
▁उनि 60
▁उब् 60
▁ऋतु 60
▁कठिनाइ 60
▁कना 60
▁कम्पनीहरू 60
▁करि 60
▁कहाँबाट 60
▁काँग्रेस 60
▁कार्यहरूको 60
▁चल्न 60
▁चुन्नु 60
▁जनताका 60
▁जर् 60
▁जुलुस 60
▁झिक 60
▁ट्रान्स 60
▁डेढ 60
▁डोरी 60
▁ढोकामा 60
▁तरीका 60
▁तोडा 60
▁त्रिवर्षीय 60
▁दशौं 60
▁दाँ 60
▁देखी 60
▁दैन 60
▁द्रष्टब्य 60
▁नमा 60
▁नह 60
▁नामहरू 60
▁निकाले 60
▁निक्षेप 60
▁निर्वाह 60
▁निलो 60
▁नूह 60
▁पत्रु 60
▁परिकल्पना 60
▁फिड 60
▁बताएको 60
▁बन्नु 60
▁बाटोको 60
▁बाबुलाई 60
▁बिचार 60
▁बिष 60
▁बिषय 60
▁भनौं 60
▁भारतका 60
▁मर्नेछन् 60
▁मिश्रण 60
▁यन्त्रको 60
▁रित्तो 60
▁लघु 60
▁लबान 60
▁लाग्दैन 60
▁लिमि 60
▁वर्गीकरण 60
▁वर्षपछि 60
▁विश्वस्त 60
▁वीणा 60
▁शाऊलका 60
▁समर्पण 60
▁समस्यालाई 60
▁सिमाना 60
▁सियोन 60
▁सुखी 60
▁सुगन्ध 60
▁स्थानिय 60
▁हतार 60
▁हराएको 60
▁हाँगाहरू 60
▁हालैको 60
▁हिंसा 60
SH 59
atar 59
bles 59
bus 59
control 59
ences 59
encing 59
gy 59
how 59
iti 59
miss 59
points 59
power 59
sequently 59
teenth 59
uing 59
umla 59
अप 59
केट 59
घ्र 59
डिए 59
ण्डर 59
दिन्छु 59
देश्य 59
निर्धारण 59
न्वित 59
पवित्र 59
पियाँ 59
बर्ग 59
भरमा 59
मियो 59
रेसन 59
शनल 59
ष्ण 59
स्टर 59
ित्ती 59
ौरो 59
्रोल 59
▁193 59
▁2017 59
▁51 59
▁Abner 59
▁Application 59
▁Arrangements 59
▁Automatic 59
▁Boston 59
▁College 59
▁Didn 59
▁Ek 59
▁Kan 59
▁Kumar 59
▁Later 59
▁Lin 59
▁Looking 59
▁Mag 59
▁Modify 59
▁Op 59
▁Primary 59
▁Random 59
▁Restart 59
▁Secret 59
▁TB 59
▁TV 59
▁Title 59
▁Whatever 59
▁adulter 59
▁airports 59
▁anim 59
▁append 59
▁century 59
▁cle 59
▁collecting 59
▁consume 59
▁contained 59
▁controls 59
▁cups 59
▁devotees 59
▁duration 59
▁eastern 59
▁emb 59
▁expired 59
▁facts 59
▁faint 59
▁feared 59
▁filesystem 59
▁flags 59
▁gained 59
▁ghost 59
▁governor 59
▁hind 59
▁hyp 59
▁identification 59
▁influ 59
▁laboratory 59
▁lists 59
▁locations 59
▁managers 59
▁marks 59
▁merch 59
▁mess 59
▁meters 59
▁movie 59
▁nakedness 59
▁overth 59
▁philosophy 59
▁playlist 59
▁proced 59
▁promoted 59
▁purple 59
▁pursued 59
▁relation 59
▁rings 59
▁sections 59
▁sharing 59
▁spr 59
▁threw 59
▁transactions 59
▁typing 59
▁vote 59
▁wages 59
▁weapons 59
▁wireless 59
▁zones 59
▁अचम् 59
▁अञ्चलको 59
▁अत 59
▁अधिकारमा 59
▁अन्ध 59
▁अभिकर्ता 59
▁अभिग्रहण 59
▁अश 59
▁आयोजित 59
▁आवरण 59
▁आवश्यकताको 59
▁उँ 59
▁उल्ल 59
▁एकपल्ट 59
▁एकसाथ 59
▁औषध 59
▁करी 59
▁काँध 59
▁किशोरी 59
▁कोषको 59
▁खूब 59
▁गराएर 59
▁घोडाहरू 59
▁चाँदीका 59
▁चोक 59
▁च्यान 59
▁छन्ः 59
▁छालाको 59
▁जनालाई 59
▁जमि 59
▁जमिनमा 59
▁जुम् 59
▁डट 59
▁डरलाग्दा 59
▁डिसेम्बर 59
▁ढाकेको 59
▁तस्विर 59
▁निद्रा 59
▁नियमा 59
▁नीलो 59
▁नोकरले 59
▁पछिल्ला 59
▁पश्चिमाञ्च 59
▁पाइन्छन् 59
▁पाइयो 59
▁पाठका 59
▁पार्दै 59
▁पुतली 59
▁प्रदायक 59
▁प्रशासनको 59
▁प्रश्नहरू 59
▁प्रेस 59
▁बराब 59
▁बाँचि 59
▁बाबेलको 59
▁बिदा 59
▁भ्रष्टाचार 59
▁मङ्गलबार 59
▁माता 59
▁मार्क 59
▁मिले 59
▁मोआबका 59
▁म्यु 59
▁यातना 59
▁रद्दीटोकरी 59
▁राजाहरूको 59
▁रूपरेखा 59
▁रूबेन 59
▁रोक्नुहोस् 59
▁विचारमा 59
▁विविधीकरण 59
▁विस्तारै 59
▁शर्मा 59
▁श्रा 59
▁संभाव 59
▁संवादको 59
▁सए 59
▁सकेमा 59
▁समर्पित 59
▁सूचीकृत 59
▁सैनिकहरूले 59
▁हानी 59
▁हुनसक् 59
▁होः 59
▁२०४७ङ्ग४८ 59
▁७७ 59
▁८२ 59
▁८४ 59
70 58
DB 58
active 58
aksh 58
alth 58
aned 58
avior 58
ential 58
eric 58
formation 58
hib 58
ipedia 58
ipl 58
itary 58
lines 58
nic 58
ocus 58
ogen 58
osp 58
rafts 58
rap 58
rection 58
sk 58
space 58
udent 58
unic 58
wa 58
ंगे 58
आएको 58
ईमा 58
उदा 58
क्षी 58
छन 58
त्म 58
दथे 58
दिनुहोस् 58
नित 58
प्राय 58
बर् 58
मण 58
मती 58
मिटर 58
म्पा 58
सर् 58
स्तै 58
ैको 58
▁1964 58
▁1997 58
▁1998 58
▁46 58
▁48 58
▁Bag 58
▁CA 58
▁Calendar 58
▁Child 58
▁Commit 58
▁Dang 58
▁Es 58
▁Europe 58
▁Gn 58
▁Greek 58
▁Has 58
▁Human 58
▁II 58
▁Iraq 58
▁Jehu 58
▁Lu 58
▁Madan 58
▁Population 58
▁Private 58
▁Psalm 58
▁Retrieving 58
▁Scan 58
▁Shime 58
▁acquired 58
▁aimed 58
▁arms 58
▁baptized 58
▁bird 58
▁blow 58
▁boot 58
▁buddy 58
▁businessmen 58
▁cement 58
▁chose 58
▁circumstances 58
▁climb 58
▁college 58
▁copied 58
▁cursed 58
▁defiled 58
▁deprec 58
▁devoured 58
▁disb 58
▁dism 58
▁earned 58
▁fed 58
▁flower 58
▁formation 58
▁forsake 58
▁fro 58
▁habitation 58
▁incor 58
▁kingdoms 58
▁kiss 58
▁mounted 58
▁noted 58
▁optional 58
▁ordered 58
▁poem 58
▁punish 58
▁pursue 58
▁qualitative 58
▁redeemed 58
▁refer 58
▁resolve 58
▁roof 58
▁sockets 58
▁spear 58
▁surrounding 58
▁taste 58
▁trib 58
▁unleavened 58
▁vac 58
▁walks 58
▁yoke 58
▁अग्नि 58
▁अधिवेश 58
▁अनुशास 58
▁अप्रत्यक्ष 58
▁अम्मो 58
▁अर्थमा 58
▁आं 58
▁आयोजक 58
▁आयोजनाहरुमा 58
▁उका 58
▁उत्प्ला 58
▁एघार 58
▁कथाहरू 58
▁कार्यक्रमबाट 58
▁कृत्रिम 58
▁कोइरा 58
▁गरिदैछ 58
▁घमण्डी 58
▁चाहन्छौं 58
▁छुट्टा 58
▁जंगली 58
▁जङ्क 58
▁जडी 58
▁जबूल 58
▁जलवायु 58
▁ठाउंमा 58
▁ताली 58
▁दण्डित 58
▁दाह 58
▁देख्नेछन् 58
▁देवदार 58
▁धनकुटा 58
▁नजर 58
▁नमुना 58
▁नमू 58
▁पत्राचार 58
▁पदयात्रा 58
▁पलिश्तीहरूले 58
▁पस 58
▁पहाडको 58
▁पायो 58
▁पूजाहारीहरूलाई 58
▁बचाउँनु 58
▁बनाउँदछ 58
▁बुझि 58
▁बौद्ध 58
▁भोलिपल्ट 58
▁मध 58
▁मनोर 58
▁मालिकको 58
▁मिश्रित 58
▁मृग 58
▁मेश 58
▁यसकालागि 58
▁रथहरू 58
▁रिबेका 58
▁रोज् 58
▁लडि 58
▁लानु 58
▁लूत 58
▁विवरणिका 58
▁वृद्ध 58
▁व्यति 58
▁शासकहरू 58
▁शिक्षित 58
▁सक्दछन् 58
▁सत्तरी 58
▁समुचित 58
▁समुदायको 58
▁समुह 58
▁सल 58
▁सिमलत्तरु 58
▁सिमित 58
▁सूक्ष्म 58
▁सौर्य 58
▁हत्यारा 58
▁हराइ 58
▁हस्तक्षेप 58
▁हुँदछ 58
▁हुन्छु 58
▁हुर् 58
▁०३ 58
152 57
In 57
abilities 57
actory 57
akt 57
anged 57
aza 57
azz 57
gu 57
iance 57
iscellaneous 57
made 57
mail 57
ometric 57
osh 57
ounce 57
raj 57
ribes 57
ses 57
uality 57
xt 57
â 57
आउट 57
इरहेको 57
कोण 57
क्सि 57
गमन 57
गर्ने 57
टाइ 57
तर्फको 57
दू 57
नन्द 57
नियर 57
न्दी 57
पालिका 57
बमोजिम 57
बुटी 57
बेश 57
भित्रको 57
मार्फत 57
म्भ 57
यती 57
यात्मक 57
रेट 57
लाउ 57
शल 57
ष्म 57
सञ् 57
स्म 57
स्वरूप 57
हरण 57
हाइ 57
हिक 57
होइन 57
ूर्त 57
्याँ 57
▁1.0 57
▁1982 57
▁2.0 57
▁Bagmati 57
▁CSV 57
▁Calif 57
▁Chairman 57
▁Chicago 57
▁Circ 57
▁Cult 57
▁DPI 57
▁Efforts 57
▁Example 57
▁Fill 57
▁Financial 57
▁Five 57
▁History 57
▁ISO 57
▁Mordecai 57
▁North 57
▁Output 57
▁Setting 57
▁Sound 57
▁Space 57
▁Tokyo 57
▁astray 57
▁availability 57
▁aven 57
▁childhood 57
▁consid 57
▁considerable 57
▁conversation 57
▁corrupted 57
▁deprived 57
▁dict 57
▁dog 57
▁drain 57
▁drought 57
▁dynamic 57
▁eats 57
▁encoder 57
▁engraved 57
▁explo 57
▁extremely 57
▁guilty 57
▁horsemen 57
▁illegal 57
▁incomplete 57
▁introduction 57
▁leg 57
▁ma 57
▁managed 57
▁mostly 57
▁ought 57
▁pal 57
▁parable 57
▁pers 57
▁platform 57
▁poles 57
▁polit 57
▁processes 57
▁promin 57
▁remark 57
▁remind 57
▁researchers 57
▁resolution 57
▁scar 57
▁searched 57
▁shield 57
▁shop 57
▁spin 57
▁trave 57
▁uncircum 57
▁waves 57
▁widespread 57
▁wonders 57
▁writer 57
▁अगम 57
▁अघा 57
▁अन्तर्रर्ााट्रय 57
▁अस्पतालको 57
▁उपनाम 57
▁उपन्या 57
▁उपहारहरू 57
▁ऊर्जाको 57
▁ऋणपत्र 57
▁कङ्ग्रे 57
▁कनान 57
▁कर्पोरेसन 57
▁कां 57
▁कार्यह 57
▁कीरा 57
▁केटो 57
▁कोट 57
▁कोटि 57
▁क्यारेक्टरहरू 57
▁क्रो 57
▁खस् 57
▁खालीस्थान 57
▁गड 57
▁गद 57
▁गरिँदैछ 57
▁गुणन 57
▁ग् 57
▁घाट 57
▁चम 57
▁चुहा 57
▁छानिएका 57
▁छाप 57
▁जनसंख्यालाई 57
▁जादू 57
▁जुनसुकै 57
▁ज्ञा 57
▁झू 57
▁टेलिस्को 57
▁ढङ्ध 57
▁तान्न 57
▁तितर 57
▁दाल 57
▁ध्या 57
▁नज 57
▁नटल 57
▁नत 57
▁नरो 57
▁नहुँ 57
▁नहोस् 57
▁निकालेर 57
▁निजामती 57
▁नियन्त्र 57
▁नोकरलाई 57
▁परामिति 57
▁परो 57
▁पर्य 57
▁पाइल 57
▁पाण्ड 57
▁पारिवारिक 57
▁पिलातसले 57
▁पुष्टि 57
▁पूज 57
▁पूर् 57
▁पृष्ठभूमिको 57
▁पेय 57
▁प्रधानहरू 57
▁प्रवर्धन 57
▁प्लगइ 57
▁बताउँछन् 57
▁बाइन 57
▁बाबेलमा 57
▁बुझ्नु 57
▁भाकल 57
▁भूमिगत 57
▁भोक 57
▁महिलाहरुको 57
▁माटोमा 57
▁मान्छ 57
▁मीका 57
▁यहूद 57
▁यहूदामा 57
▁यहूदीहरूको 57
▁यात्र 57
▁येन 57
▁राष्ट्रसंघ 57
▁लाभांश 57
▁लुम्बिनी 57
▁व्यवहारमा 57
▁शंका 57
▁शासनका 57
▁शिमो 57
▁संगठित 57
▁समष्टिगत 57
▁सम्पर्कहरू 57
▁साइनिङ 57
▁सामर्थ 57
▁सामानहरू 57
▁सेन्टर 57
▁सै 57
▁स्केल 57
▁स्थानबाट 57
▁स्न्याप 57
▁स्रोतबाट 57
▁स्ल 57
▁स्वाद 57
▁स्वी 57
▁हँ 57
▁हल् 57
▁हातहरू 57
▁हुनुभन्दा 57
▁होट 57
▁होमबलिको 57
▁५१ 57
▁७१ 57
▁७४ 57
▁९३ 57
,1 56
26 56
Book 56
akot 56
anguage 56
anz 56
apan 56
appe 56
ateg 56
ayed 56
azar 56
ca 56
ductive 56
eness 56
gar 56
hesh 56
ihar 56
inity 56
ios 56
jung 56
lex 56
ogn 56
serv 56
ube 56
ubl 56
uer 56
uish 56
umba 56
venue 56
zier 56
ँडा 56
ंकर 56
ईं 56
कारिता 56
केल 56
क्ताको 56
क्यो 56
खमा 56
गं 56
गर्न 56
पदा 56
पाना 56
पालन 56
प्प 56
बडी 56
भाइ 56
रन 56
लान् 56
लिखित 56
वस्थित 56
विधा 56
विहीन 56
वेद 56
सला 56
ाइन्छ 56
ित्र 56
ोको 56
्क 56
्रष्ट 56
्वाइ 56
▁2005 56
▁Anjuta 56
▁Cut 56
▁EX 56
▁Gil 56
▁Impro 56
▁JavaScript 56
▁Josiah 56
▁KC 56
▁Miz 56
▁Na 56
▁Nav 56
▁Noah 56
▁Password 56
▁Pilate 56
▁Sans 56
▁Shankar 56
▁Tri 56
▁Write 56
▁Zaw 56
▁\\ 56
▁acid 56
▁airf 56
▁apps 56
▁boost 56
▁causing 56
▁challenges 56
▁cholesterol 56
▁clin 56
▁constellation 56
▁correction 56
▁criteria 56
▁cultivated 56
▁decide 56
▁dest 56
▁diagn 56
▁dir 56
▁enthus 56
▁flame 56
▁gconf 56
▁gen 56
▁gro 56
▁harmful 56
▁inflation 56
▁jute 56
▁micro 56
▁miles 56
▁organiz 56
▁partition 56
▁pil 56
▁pregnant 56
▁railway 56
▁redu 56
▁register 56
▁rehab 56
▁renovation 56
▁representatives 56
▁slept 56
▁technicians 56
▁tiles 56
▁utter 56
▁virtual 56
▁washed 56
▁weeping 56
▁worksh 56
▁अक्टोबर 56
▁अग्रभूमि 56
▁अनुमोदन 56
▁अनुशरण 56
▁अभाज्य 56
▁अर्कामा 56
▁अल्पविराम 56
▁आदेशले 56
▁उद्यमी 56
▁उमेरमा 56
▁एपो 56
▁कालेब 56
▁किना 56
▁कोइला 56
▁कोष्ठ 56
▁खरा 56
▁खोजीमा 56
▁गर्थ्यो 56
▁गहिराइ 56
▁घेरा 56
▁जन् 56
▁जर्न 56
▁जान्छु 56
▁टर् 56
▁टाँसि 56
▁डिजिक्या 56
▁ड्रा 56
▁ढुंगा 56
▁ढो 56
▁तोड 56
▁दमी 56
▁दाम 56
▁दिनहरू 56
▁दुखी 56
▁दुलही 56
▁देख्यौ 56
▁देवताको 56
▁निकायको 56
▁निकालि 56
▁परमप्रभुसित 56
▁पारिन्छ 56
▁पार्नुभयो 56
▁पुग्नेछ 56
▁प्रतिशतभन्दा 56
▁प्रयो 56
▁प्रवर्द्ध 56
▁प्लेट 56
▁फोहोर 56
▁बस्ती 56
▁बेतलेहे 56
▁बोधार्थ 56
▁ब्यक्ति 56
▁भुक्ता 56
▁मतदान 56
▁मद 56
▁मन्त्रालयले 56
▁मर्या 56
▁मूल्यांकन 56
▁मौसमी 56
▁यरीहो 56
▁योशियाहले 56
▁र्सार्वजनिक 56
▁लिपि 56
▁व्यायाम 56
▁शर् 56
▁श्रमशक्ति 56
▁संचाल 56
▁संजाल 56
▁सचिवालय 56
▁सुदृढिकरण 56
▁सूचीबद्ध 56
▁स्थानहरुमा 56
▁हिंड् 56
▁ो 56
▁१९८८ 56
▁१९८९ 56
RR 55
TC 55
\\ 55
agraph 55
anges 55
anim 55
annel 55
aped 55
apers 55
aration 55
avi 55
cial 55
connect 55
ellig 55
gre 55
hor 55
isition 55
lim 55
load 55
mod 55
nity 55
onent 55
ounded 55
pah 55
party 55
pletion 55
reet 55
ribution 55
sw 55
ude 55
water 55
write 55
ंख 55
क्व 55
क्षे 55
गर् 55
ञ्जि 55
डार 55
थियो 55
नारायण 55
न्टा 55
न्व 55
परीत 55
प्रदाय 55
प्रेरित 55
बित 55
बुझ 55
भिन्न 55
म्मा 55
यर्मिया 55
यात 55
योर् 55
राजा 55
लस 55
वरको 55
संख्यक 55
ासम्म 55
ैत 55
्वे 55
▁1000 55
▁Aborting 55
▁Court 55
▁Dhankuta 55
▁Empty 55
▁Energy 55
▁Equ 55
▁Following 55
▁GConf 55
▁Grad 55
▁Immediately 55
▁Investment 55
▁Laban 55
▁Login 55
▁Messages 55
▁Monday 55
▁Musician 55
▁Power 55
▁Sah 55
▁Satan 55
▁Seeing 55
▁Task 55
▁Treas 55
▁Ty 55
▁Unexpected 55
▁accom 55
▁amaz 55
▁arbit 55
▁bi 55
▁breaks 55
▁capita 55
▁communications 55
▁constitutional 55
▁controlling 55
▁cooked 55
▁cooking 55
▁coordinates 55
▁corresponds 55
▁crit 55
▁decree 55
▁desirable 55
▁emphas 55
▁entrepreneurs 55
▁evident 55
▁exact 55
▁examine 55
▁examples 55
▁exerc 55
▁failsafe 55
▁forgive 55
▁formulating 55
▁gent 55
▁helpful 55
▁insult 55
▁integrity 55
▁jew 55
▁lamps 55
▁leaf 55
▁lightning 55
▁mag 55
▁organisation 55
▁pret 55
▁primarily 55
▁privat 55
▁promised 55
▁ration 55
▁receives 55
▁retrie 55
▁ruling 55
▁sample 55
▁societies 55
▁strings 55
▁stronghold 55
▁thumbn 55
▁tile 55
▁tube 55
▁twice 55
▁typed 55
▁unity 55
▁univers 55
▁unusual 55
▁vict 55
▁wonderful 55
▁अगमवक्ताले 55
▁अगमवक्ताहरूलाई 55
▁अधिराज्यमा 55
▁अन्तराल 55
▁अन्धो 55
▁अफसेट 55
▁अमि 55
▁अरूले 55
▁आधारहरू 55
▁इन्धन 55
▁इमान्दार 55
▁उर् 55
▁एशिया 55
▁कन्ड्युट 55
▁कमारी 55
▁कम्पनीका 55
▁कर्ता 55
▁कुञ्जीमा 55
▁कुराहरूले 55
▁कुल् 55
▁कुशल 55
▁क्यान् 55
▁क्याल 55
▁खरायो 55
▁खेद् 55
▁खेर 55
▁गरेकोमा 55
▁गिबा 55
▁गोर् 55
▁चरणको 55
▁चरित्र 55
▁छान्नु 55
▁छोराछो 55
▁जनआ 55
▁जरा 55
▁जोडले 55
▁ज्वा 55
▁टाउकोमा 55
▁तता 55
▁त्यसैकारण 55
▁थापा 55
▁दाँजोमा 55
▁दिऊन् 55
▁द्वी 55
▁धान्न 55
▁नगदे 55
▁निकाल्न 55
▁निस्केको 55
▁नेभारा 55
▁पत्रको 55
▁पाँचौ 55
▁पारिदिनु 55
▁पितालाई 55
▁पूर्वक 55
▁पोस्ट 55
▁प्रख्यात 55
▁प्रतिशतका 55
▁प्रती 55
▁प्रभावशाली 55
▁प्रेषण 55
▁फल्या 55
▁फोटोहरू 55
▁बढावा 55
▁बहादुर 55
▁बाग 55
▁बाशान 55
▁बिच 55
▁बिभा 55
▁बुद्धिमानी 55
▁बुध 55
▁भएनन् 55
▁भन्नुहोस् 55
▁भाइहरूलाई 55
▁भित्ता 55
▁भेद 55
▁महोत्सव 55
▁माँग 55
▁मानको 55
▁मानमा 55
▁मानिएको 55
▁मारिदिए 55
▁मेगाबाइट 55
▁यर्मियाले 55
▁र्ब 55
▁लम् 55
▁वं 55
▁वर्गका 55
▁वाचन 55
▁वास्ता 55
▁विधा 55
▁विहान 55
▁शताब्दी 55
▁श्रो 55
▁संक्रमण 55
▁संस्थानहरु 55
▁सतर्क 55
▁सभापति 55
▁समाजका 55
▁सर्वे 55
▁साग 55
▁सास 55
▁हरु 55
▁५७ 55
90 54
OC 54
adhy 54
aker 54
atures 54
ceive 54
col 54
cture 54
emption 54
enced 54
eted 54
grind 54
icult 54
istries 54
mn 54
oding 54
ographic 54
oking 54
ooth 54
osit 54
rack 54
rier 54
son 54
vention 54
ँन 54
इट 54
कबाट 54
गढी 54
ग्ध 54
ग्रि 54
ग्रे 54
जनी 54
टल 54
ठ् 54
डीमा 54
णमा 54
थिक 54
दिएँ 54
दिया 54
नवे 54
नादाब 54
नीका 54
नेछन 54
पुरको 54
पेक्ष 54
फामा 54
फिस 54
बच 54
मला 54
रिङ्ध 54
वार्ता 54
विका 54
वेदनशील 54
व् 54
साधारण 54
सेन 54
ारू 54
ीहरूबाट 54
ुन् 54
ोल्ड 54
्मी 54
▁8212 54
▁Abi 54
▁Aff 54
▁Bethlehem 54
▁Bharat 54
▁CP 54
▁Chand 54
▁Civil 54
▁Cle 54
▁Column 54
▁Computer 54
▁Develop 54
▁Device 54
▁Digital 54
▁Earth 54
▁Email 54
▁Est 54
▁Jon 54
▁Karnali 54
▁Mand 54
▁Maoist 54
▁Market 54
▁Master 54
▁Neb 54
▁PN 54
▁Paste 54
▁RS 54
▁Regular 54
▁Ren 54
▁Say 54
▁TIFF 54
▁Uri 54
▁WARNING 54
▁accessible 54
▁anywhere 54
▁armor 54
▁assistant 54
▁attributes 54
▁betray 54
▁clar 54
▁colle 54
▁comparative 54
▁complaint 54
▁confirm 54
▁conscious 54
▁cultivation 54
▁detected 54
▁enfor 54
▁enrol 54
▁forb 54
▁forg 54
▁generally 54
▁grows 54
▁hang 54
▁hated 54
▁impossible 54
▁incorrect 54
▁lawy 54
▁liquidity 54
▁maps 54
▁merely 54
▁mig 54
▁mur 54
▁murd 54
▁pluck 54
▁pole 54
▁prin 54
▁puts 54
▁shel 54
▁slight 54
▁soft 54
▁sow 54
▁spiritual 54
▁strategy 54
▁strugg 54
▁thank 54
▁thigh 54
▁twe 54
▁younger 54
▁अक्टोब 54
▁अधिकारीहरूलाई 54
▁अवसरहरु 54
▁आयाम 54
▁उच्चस्तरीय 54
▁ऊँट 54
▁कक्षको 54
▁किसिमबाट 54
▁क्षेत्रहरू 54
▁खेला 54
▁खोज्नु 54
▁खोल्नका 54
▁गज 54
▁गाभ 54
▁गीतहरू 54
▁ग्राह 54
▁घटाउनुहोस् 54
▁चढाउ 54
▁चाहिएको 54
▁छाल 54
▁जनसहभागिता 54
▁जरू 54
▁जसमध्ये 54
▁जान्नुहुन्छ 54
▁जुलु 54
▁जैविक 54
▁ठि 54
▁ढंगले 54
▁तथ्यलाई 54
▁तवरले 54
▁त्यसैगरी 54
▁दाउराको 54
▁दियौ 54
▁दूरी 54
▁धर 54
▁नगरिकन 54
▁नचा 54
▁नर्स 54
▁नसो 54
▁निराशा 54
▁निर्ण्र्ाा 54
▁पठाउँ 54
▁पम्प 54
▁पशुहरूको 54
▁पाएर 54
▁पार्टीको 54
▁पुगेपछि 54
▁पुननिरन्तरता 54
▁पैठारीमा 54
▁प्रजनन 54
▁प्रतिभा 54
▁प्रयासहरु 54
▁प्राथमिकताहरू 54
▁प्रार्थ 54
▁प्लगइनले 54
▁भद्र 54
▁भन्नेमा 54
▁भाउ 54
▁भेट्टा 54
▁मं 54
▁मन्त्रि 54
▁महाकाली 54
▁मारिए 54
▁मिलाएर 54
▁म्याक्रो 54
▁यसबाहेक 54
▁यहां 54
▁युवक 54
▁येशूमा 54
▁योजनाअन्तर्गत 54
▁योराम 54
▁राजमार्गको 54
▁लुट 54
▁वर्गमा 54
▁विनिमयको 54
▁विपक्षी 54
▁वृद्धिदर 54
▁वेला 54
▁शत्रुको 54
▁शम् 54
▁संस्थानले 54
▁सदरमु 54
▁समातेर 54
▁सरकारका 54
▁सुधारको 54
▁सुविधाहरु 54
▁सेव 54
▁सैनिकहरूलाई 54
▁सोमबार 54
▁स्नेहपूर्ण 54
▁स्रो 54
▁स्वय 54
▁हप् 54
▁हिल् 54
▁हुंदा 54
▁हेल्थ 54
▁होटल 54
▁होशियार 54
▁२०३ 54
▁२०३९ 54
▁६८ 54
▁६९ 54
▁७८ 54
▁८८ 54
-19 53
.20 53
OME 53
abling 53
adequ 53
ades 53
asth 53
aya 53
cified 53
elescope 53
ffee 53
house 53
itely 53
iy 53
lo 53
ming 53
part 53
plicated 53
rant 53
requ 53
rical 53
ride 53
top 53
type 53
ugg 53
unch 53
using 53
usive 53
wati 53
कारा 53
कुम 53
कृतिको 53
क्षर 53
ङ्ग३ 53
छो 53
ठ्ठी 53
नोट 53
न्यौ 53
बाबेल 53
भल 53
मक 53
यार 53
लादेश 53
लापमा 53
वको 53
वर्तन 53
वेदन 53
शमशेर 53
ष्ट्र 53
सायन 53
सेन्स 53
स्तरका 53
ितीय 53
ूक 53
ेन्द्र 53
्ँ 53
्र्या 53
्वरो 53
▁Administr 53
▁Against 53
▁Amar 53
▁Arm 53
▁Director 53
▁Face 53
▁Gd 53
▁Gen 53
▁Haman 53
▁Herod 53
▁Hill 53
▁Jes 53
▁Jos 53
▁June 53
▁Mad 53
▁Policies 53
▁Problem 53
▁Properties 53
▁Radio 53
▁Sag 53
▁Shiva 53
▁Starting 53
▁Sud 53
▁Supply 53
▁UNIX 53
▁Virtual 53
▁adds 53
▁advantage 53
▁attachment 53
▁attracted 53
▁basket 53
▁beast 53
▁bride 53
▁candid 53
▁centered 53
▁conspir 53
▁conver 53
▁cot 53
▁covers 53
▁decimal 53
▁decisions 53
▁descript 53
▁difficulties 53
▁distrib 53
▁drunk 53
▁exception 53
▁flo 53
▁focused 53
▁forests 53
▁gra 53
▁indentation 53
▁investor 53
▁lat 53
▁limits 53
▁mant 53
▁mobilization 53
▁multiplied 53
▁nurs 53
▁observed 53
▁opens 53
▁opposed 53
▁organize 53
▁passengers 53
▁push 53
▁ra 53
▁reaches 53
▁sacrificed 53
▁scribe 53
▁senior 53
▁settle 53
▁specification 53
▁spirits 53
▁strip 53
▁summary 53
▁supports 53
▁ticket 53
▁upgrade 53
▁victims 53
▁weep 53
▁अन्तरिम 53
▁अब्राहामलाई 53
▁अमेरिकाको 53
▁आइपुगे 53
▁आखिर 53
▁इस्राएलले 53
▁उत्तरदायी 53
▁उदास 53
▁उनकी 53
▁ऋणात्मक 53
▁एक्लो 53
▁एप्रैमको 53
▁ओछ्यानमा 53
▁कन्सोल 53
▁कर्णाली 53
▁काँड 53
▁कारोबारको 53
▁कार्यस्थान 53
▁कुकर्म 53
▁केटीहरू 53
▁कोर्नुहोस् 53
▁क्रूसमा 53
▁क्षेत्रहरु 53
▁खर्चिलो 53
▁खान्छन् 53
▁खोल्दछ 53
▁गण्ड 53
▁गर्दछौं 53
▁गिरावट 53
▁गुप्तीकरण 53
▁गुम्बा 53
▁गुम्बाको 53
▁ग्रीक 53
▁चयनमा 53
▁चाहेमा 53
▁चुपचाप 53
▁जानकारीका 53
▁झार 53
▁झोलुङ्धे 53
▁ठाउँबाट 53
▁डेइमोन 53
▁डोमे 53
▁तत्वहरू 53
▁तिनीसित 53
▁तिनीहरूसँग 53
▁दरिलो 53
▁दाना 53
▁दिनदेखि 53
▁धर्मको 53
▁नप्ता 53
▁परिमार्जित 53
▁परेमा 53
▁पश्चिमाञ्चल 53
▁पसि 53
▁पाठ्य 53
▁प्रतिरोध 53
▁प्रतिवर्ष 53
▁फ्रेममा 53
▁बदलि 53
▁बदल्न 53
▁बारा 53
▁बिरामीको 53
▁बेच्ने 53
▁भजनसंग्रह 53
▁भर्नुहोस् 53
▁भारतबाट 53
▁महास 53
▁मारेको 53
▁मिलाउनुहोस् 53
▁मूल्यवान 53
▁मेट्नुहुन्छ 53
▁मोनि 53
▁मोहर 53
▁यसअनुसार 53
▁यिप्त 53
▁येहूले 53
▁रकमको 53
▁राखिने 53
▁लक 53
▁लम्बा 53
▁वक्ता 53
▁विषा 53
▁विस्तारित 53
▁शैलीमा 53
▁संगत 53
▁संयो 53
▁सच्याउने 53
▁सन्देशलाई 53
▁समझ 53
▁समुद्रपार 53
▁सम्पदाको 53
▁सहभाग 53
▁सिचाई 53
▁सुची 53
▁सोच्नु 53
▁सोझ 53
▁स्वरमा 53
▁हराउ 53
▁२०३७ 53
▁२०५ 53
▁२५० 53
▁७९ 53
Bus 52
abetes 52
ashion 52
ellow 52
ervation 52
fore 52
geance 52
grapher 52
host 52
imin 52
ingly 52
la 52
link 52
osite 52
pg 52
plit 52
press 52
rain 52
riculum 52
sole 52
td 52
tend 52
tip 52
unc 52
किएका 52
क्षम 52
गमती 52
ग्रा 52
घट 52
जनाले 52
झै 52
ञ 52
ञ्चल 52
द्रा 52
नाश 52
नुहुने 52
न्टाइल 52
पश्चि 52
पामा 52
प्रयोग 52
बर्द्धन 52
भास 52
मीर 52
यसकारण 52
रायणी 52
र्यौ 52
लनमा 52
लागी 52
लीकरण 52
ल्छ 52
ल्दो 52
वरी 52
वह 52
शाखा 52
श्च 52
सरी 52
सीन 52
सुक 52
स्रो 52
हिं 52
िए 52
ूच 52
ौल 52
्यालो 52
▁.255 52
▁52 52
▁63 52
▁Activate 52
▁Bond 52
▁Cent 52
▁Drinking 52
▁Employ 52
▁Environment 52
▁Esther 52
▁Folders 52
▁Grow 52
▁Heb 52
▁Hem 52
▁Hur 52
▁Images 52
▁Include 52
▁Ishmael 52
▁Jehoi 52
▁KDEPrint 52
▁Kamal 52
▁Lama 52
▁Life 52
▁Lot 52
▁Multiple 52
▁Mural 52
▁Naphtali 52
▁Naray 52
▁Objectives 52
▁Park 52
▁Pres 52
▁Samba 52
▁Savings 52
▁Sher 52
▁Simeon 52
▁Sus 52
▁Until 52
▁Zadok 52
▁Zone 52
▁amounts 52
▁anch 52
▁artists 52
▁auton 52
▁brightness 52
▁categ 52
▁checkbox 52
▁compens 52
▁compression 52
▁courtesy 52
▁dependence 52
▁destro 52
▁diagram 52
▁diversification 52
▁dominion 52
▁dump 52
▁econom 52
▁elder 52
▁excellent 52
▁facilitate 52
▁fee 52
▁floods 52
▁fol 52
▁formats 52
▁fortified 52
▁gradual 52
▁granted 52
▁gtk 52
▁headquarters 52
▁heal 52
▁hears 52
▁horizontally 52
▁horn 52
▁maker 52
▁marry 52
▁middot 52
▁military 52
▁munic 52
▁obligation 52
▁pars 52
▁peaceful 52
▁poison 52
▁py 52
▁repay 52
▁reporter 52
▁resur 52
▁scarlet 52
▁spare 52
▁spl 52
▁statue 52
▁swear 52
▁thres 52
▁titlebar 52
▁touches 52
▁treas 52
▁vehicle 52
▁vide 52
▁witnesses 52
▁अकुपञ्च 52
▁अगा 52
▁अटो 52
▁अदो 52
▁अन्तिममा 52
▁अश्शूर 52
▁आकारको 52
▁आमो 52
▁इच्छुक 52
▁उज्जि 52
▁उपस्थिति 52
▁कठिनाई 52
▁कता 52
▁कर्पोर 52
▁कविता 52
▁काठमाडौंको 52
▁क्वे 52
▁खण्डास् 52
▁खोजेको 52
▁गल 52
▁ग्राफिकल 52
▁चोकमा 52
▁छाउनीमा 52
▁छैठौ 52
▁छोरीहरूलाई 52
▁छोरोको 52
▁जंगल 52
▁जरिवाना 52
▁जीवा 52
▁जूम 52
▁ढाँचाको 52
▁तान्ने 52
▁ताराहरू 52
▁तिमीसँग 52
▁दिं 52
▁ध्रुव 52
▁नमस्कार 52
▁नाता 52
▁नानीहरूलाई 52
▁निकायले 52
▁निकाल्ने 52
▁निभ 52
▁नियन्त्रित 52
▁परिवर्त 52
▁पर्वतहरू 52
▁पहिचा 52
▁पाठ्यक्रम 52
▁पेट्रोलियम 52
▁पोलि 52
▁प्याड 52
▁प्रभुले 52
▁फिं 52
▁बडो 52
▁बर्णाबास 52
▁बस्नेछन् 52
▁बृद्धिको 52
▁बेग्लै 52
▁बोक्ने 52
▁ब्याङ्क 52
▁भइन् 52
▁महिलाहरू 52
▁मही 52
▁माध 52
▁मानिसहरूसंग 52
▁मालपो 52
▁मुल्य 52
▁मेडिकल 52
▁मोटा 52
▁मोबाइल 52
▁यसमध्ये 52
▁यूहन्नाले 52
▁योजनाबद्ध 52
▁रच 52
▁राखिन्छ 52
▁रेश 52
▁लुकाउन 52
▁ल्याउँ 52
▁वार 52
▁वितरणमा 52
▁विध 52
▁विभागका 52
▁विश्लेषक 52
▁विश्वसनीय 52
▁विस्तारमा 52
▁वो 52
▁व्यव 52
▁व्यवसायमा 52
▁शमा 52
▁श्यामश्वेत 52
▁संरचनामा 52
▁सञ्चालनका 52
▁सन्दूकलाई 52
▁सभ्य 52
▁समि 52
▁सल् 52
▁सान 52
▁सिकागो 52
▁सिद्धि 52
▁सीस 52
▁सुधा 52
▁सेकेण्ड 52
▁सेटिङले 52
▁सेवाका 52
▁सोध्नु 52
▁स्थायित्व 52
▁स्पे 52
▁हप्ताको 52
▁०२ 52
abin 51
amber 51
aple 51
apse 51
athe 51
changed 51
config 51
eping 51
ero 51
esome 51
gent 51
gn 51
graph 51
group 51
his 51
iasm 51
icip 51
igible 51
imized 51
ino 51
ipping 51
iraj 51
lam 51
liness 51
lled 51
lying 51
net 51
neys 51
oted 51
plete 51
ready 51
rian 51
uman 51
va 51
vs 51
western 51
अनि 51
इले 51
ईको 51
काउन 51
खण्ड 51
खी 51
ग्री 51
घरमा 51
चिव 51
डित 51
डु 51
त्साहित 51
थिए 51
नासाथ 51
पट्टीको 51
पर्दा 51
बुल 51
म्बरको 51
युद्ध 51
व्यवहार 51
सहोल्ड 51
सान 51
साव 51
सूस 51
स्मिक 51
हुन्छ 51
ाइनेछ 51
ेकै 51
ेन्ट 51
्रक 51
्राफिक 51
▁.. 51
▁1.5 51
▁41 51
▁66 51
▁Consum 51
▁Cooper 51
▁Coordination 51
▁Down 51
▁Du 51
▁Extension 51
▁Federation 51
▁Frame 51
▁Ged 51
▁HP 51
▁Hyd 51
▁IM 51
▁Jehoiada 51
▁KP 51
▁Kig 51
▁Origin 51
▁Qt 51
▁Rachel 51
▁Shil 51
▁Sit 51
▁Str 51
▁accent 51
▁animation 51
▁aroma 51
▁artificial 51
▁assets 51
▁attraction 51
▁bridegroom 51
▁broadcasting 51
▁candidates 51
▁catch 51
▁clip 51
▁compan 51
▁cool 51
▁copies 51
▁cro 51
▁dance 51
▁debugging 51
▁deposit 51
▁deter 51
▁distribute 51
▁dollars 51
▁downloaded 51
▁dozen 51
▁embed 51
▁equivalent 51
▁exhib 51
▁foreground 51
▁fruitful 51
▁fundament 51
▁gains 51
▁heav 51
▁imper 51
▁indicate 51
▁meaningful 51
▁mobile 51
▁ordin 51
▁persu 51
▁prevention 51
▁prisoners 51
▁profession 51
▁province 51
▁regulations 51
▁renew 51
▁reput 51
▁rotation 51
▁sanctified 51
▁scope 51
▁seemed 51
▁separately 51
▁sinners 51
▁slowly 51
▁sports 51
▁stol 51
▁technologies 51
▁thorns 51
▁threshold 51
▁trumpets 51
▁tune 51
▁unav 51
▁uncom 51
▁university 51
▁unpro 51
▁urged 51
▁vineyards 51
▁wo 51
▁अदृश्य 51
▁अद् 51
▁अनुकुल 51
▁अनुसारको 51
▁अपरा 51
▁अपराधी 51
▁अपरिहार्य 51
▁आएपछि 51
▁आयोजनाबाट 51
▁आसन 51
▁इना 51
▁इसहाकले 51
▁उदाहरणको 51
▁उन 51
▁कन्ड 51
▁कर्मचारीको 51
▁कष्टहरू 51
▁कार्यनीति 51
▁कुसुण्डा 51
▁कृति 51
▁केन्द्री 51
▁कोठाको 51
▁खान्छ 51
▁खाल 51
▁गरायो 51
▁गरिन्थ्यो 51
▁गर्दैनौ 51
▁गर्मी 51
▁गार्ड 51
▁ग्याँ 51
▁चोरी 51
▁छै 51
▁छोड्नु 51
▁छोराले 51
▁तरीकाले 51
▁तिर्न 51
▁त्र्ग 51
▁थिचेर 51
▁दर्जा 51
▁दुख्ने 51
▁दुर्घटना 51
▁देशभित्र 51
▁धि 51
▁नबूकदनेस्सर 51
▁निकुञ्ज 51
▁निक्कै 51
▁निष्क्रिय 51
▁पछिको 51
▁पत्नीको 51
▁पत्रमा 51
▁परिवर्तनका 51
▁पालना 51
▁पूर्वानिर्धारित 51
▁पैसाको 51
▁प्याक 51
▁प्रदर्शनका 51
▁प्रशासनलाई 51
▁बन्दरगाह 51
▁बाचन 51
▁बेच्न 51
▁बोलाइ 51
▁ब्रह् 51
▁भएपनि 51
▁भाग्न 51
▁भाले 51
▁भित्तेचित्र 51
▁भूमिलाई 51
▁मलखाद 51
▁महिलालाई 51
▁महिलाले 51
▁माघ 51
▁मारेर 51
▁मास्टर 51
▁मेलबलि 51
▁यरूशलेमलाई 51
▁यर्मियालाई 51
▁यहि 51
▁योजनावद्ध 51
▁रङमा 51
▁रमा 51
▁राजाहरूले 51
▁राम्र 51
▁राष्ट्रहरू 51
▁रिजो 51
▁रीति 51
▁रेख 51
▁रेड 51
▁रोकथाम 51
▁ललित 51
▁लास 51
▁लेऊ 51
▁लेख्दा 51
▁वढ 51
▁वर्ड 51
▁वर्षभित्र 51
▁वाई 51
▁विकल्पको 51
▁विकृति 51
▁विकेन्द्रीकरणको 51
▁विनियोजन 51
▁विस 51
▁विस्तारको 51
▁शङ्कर 51
▁शैया 51
▁श्रद्धा 51
▁श्राप 51
▁संग्रहालय 51
▁सकुन् 51
▁सकेपछि 51
▁सकोस् 51
▁सदन 51
▁सन्तानहरूलाई 51
▁सन्देशका 51
▁समूहहरू 51
▁सम्झनु 51
▁सहाय 51
▁सिफारि 51
▁सिमेण्ट 51
▁सुत्ने 51
▁सुविधाहरुको 51
▁सोध्न 51
▁स्किमा 51
▁हालका 51
▁हुँनेछ 51
▁हेतु 51
▁ह्यान्डहेल्ड 51
▁२०३६ 51
▁८६ 51
DC 50
IV 50
UT 50
agricultural 50
akal 50
ango 50
ao 50
avan 50
bl 50
cend 50
check 50
chers 50
cho 50
conomic 50
ea 50
ela 50
equ 50
fast 50
hab 50
ignation 50
ilitation 50
isting 50
itional 50
ny 50
ocol 50
olid 50
oms 50
plements 50
py 50
reel 50
rible 50
rodu 50
utrition 50
आइ 50
उदै 50
किरहेको 50
चेत 50
टिश 50
तपाईँले 50
तेको 50
त्यु 50
धीन 50
नुभएन 50
नोम 50
पत्ति 50
परिष 50
प्रणाली 50
बजार 50
ब्रु 50
भोग 50
मित्त 50
म्बित 50
म्याप 50
म्रै 50
याले 50
र्ति 50
लीन 50
ल्नुहोस् 50
वटी 50
वारको 50
साना 50
▁192 50
▁Bhandari 50
▁Checking 50
▁Egyptian 50
▁Ele 50
▁Establ 50
▁Expand 50
▁Ez 50
▁Fed 50
▁Four 50
▁GV 50
▁Goddess 50
▁Hills 50
▁Himalayan 50
▁Ign 50
▁Industries 50
▁Isaiah 50
▁Jour 50
▁Khan 50
▁Lal 50
▁Lanka 50
▁Law 50
▁Leave 50
▁London 50
▁Mao 50
▁Neth 50
▁OK 50
▁PS 50
▁Perform 50
▁Photograph 50
▁Prith 50
▁Rehoboam 50
▁Schem 50
▁ServerAdmin 50
▁Seven 50
▁Sidon 50
▁Sl 50
▁Statistics 50
▁Tar 50
▁UI 50
▁accur 50
▁adoles 50
▁afford 50
▁allocate 50
▁anxiety 50
▁armies 50
▁assembled 50
▁bacter 50
▁brief 50
▁claimed 50
▁classification 50
▁controlled 50
▁cooperatives 50
▁corn 50
▁cutting 50
▁deny 50
▁determination 50
▁disadvant 50
▁disobedience 50
▁exportable 50
▁fascinating 50
▁forgiven 50
▁helpless 50
▁herds 50
▁initiative 50
▁inqu 50
▁integration 50
▁intensive 50
▁interview 50
▁jail 50
▁legisl 50
▁likewise 50
▁linear 50
▁lions 50
▁logged 50
▁lust 50
▁meditation 50
▁mountainous 50
▁naturally 50
▁neighboring 50
▁outline 50
▁partners 50
▁pestilence 50
▁pos 50
▁positions 50
▁prem 50
▁processed 50
▁pul 50
▁refresh 50
▁reject 50
▁reli 50
▁scientists 50
▁seminars 50
▁shaken 50
▁shepherds 50
▁shoes 50
▁snare 50
▁stub 50
▁stumb 50
▁transparency 50
▁trap 50
▁veil 50
▁volunte 50
▁watching 50
▁wherever 50
▁zonal 50
▁अचल 50
▁अनुप 50
▁अनुरूप 50
▁अनौठो 50
▁अन्याय 50
▁अबि 50
▁अब् 50
▁अमारो 50
▁अमेरिकामा 50
▁अष्ट 50
▁असह 50
▁आइरहेछ 50
▁आपसी 50
▁आषाढ 50
▁इस् 50
▁उत्तरदायित्व 50
▁एकदिन 50
▁एकाधिकार 50
▁एप्रैमका 50
▁एल्या 50
▁कक्षामा 50
▁कठ 50
▁कन्टेन 50
▁कमजोरी 50
▁कम्प्यू 50
▁कर्मचारीहरू 50
▁कल् 50
▁कायमै 50
▁कारक 50
▁कार्यहरुको 50
▁कार्यालयको 50
▁क्यालिफोर्निया 50
▁क्र्या 50
▁खाद्यान्नको 50
▁गरोस् 50
▁गिरफ्तार 50
▁चन्द्रमा 50
▁छोड्ने 50
▁जिक 50
▁जीक 50
▁जोड्ने 50
▁टाँस्नुहोस् 50
▁टेलिभिजन 50
▁टोकियो 50
▁ठेगा 50
▁तपाइँको 50
▁तराईमा 50
▁त्यतिबेला 50
▁थ्रे 50
▁दाँत 50
▁दुर्भाग्य 50
▁धर्मशास्त्रमा 50
▁नरम 50
▁नाटक 50
▁निकायहरुको 50
▁नून 50
▁पक्षलाई 50
▁पुर्याउ 50
▁पुलि 50
▁पूर्वाव 50
▁प्राविधि 50
▁फर्काएर 50
▁बहुदलीय 50
▁बाटा 50
▁बालबालिकाहरुको 50
▁बालुवा 50
▁बिर् 50
▁बोअ 50
▁बोझ 50
▁बौरी 50
▁भगवान् 50
▁भाइहरूले 50
▁भित्रको 50
▁भ्रम 50
▁ममा 50
▁मालसामान 50
▁मालिकलाई 50
▁मूल्यको 50
▁यससँग 50
▁यहूदाले 50
▁योआ 50
▁राय 50
▁रूपैयाँ 50
▁वाणी 50
▁विज्ञा 50
▁विषयको 50
▁व्यापारीहरूले 50
▁शल्य 50
▁श्र 50
▁सकृय 50
▁सक्थे 50
▁सच्या 50
▁सदो 50
▁समूहगत 50
▁सहा 50
▁सिक्ने 50
▁सुहाउँ 50
▁हातबाट 50
▁हृदयले 50
▁हैसियत 50
▁२०१३ 50
▁२०४२ 50
▁८७ 50
▁€ 50
AD 49
CS 49
PM 49
agon 49
aram 49
cents 49
cloth 49
connected 49
cont 49
ekah 49
ensive 49
fect 49
fficiency 49
hedule 49
igare 49
imet 49
inal 49
ional 49
iot 49
ipe 49
itious 49
lom 49
long 49
nding 49
ners 49
othing 49
oto 49
plications 49
rehensive 49
wari 49
ंगी 49
ंदो 49
आब 49
इस्रा 49
उटा 49
उन्ट 49
एलको 49
कहरूलाई 49
कारले 49
क्तव्य 49
दत्त 49
दैं 49
दैछौ 49
न्की 49
न्फ 49
न्सको 49
परमेश्वरले 49
बिना 49
बोर्ड 49
ब्रू 49
मूत्र 49
म्बार 49
म्बु 49
रेन्द्र 49
र्मि 49
र्मी 49
लभ 49
लुका 49
ल्दा 49
शेत 49
सम्मका 49
सिंह 49
ितिय 49
ीलाई 49
ोन्मुख 49
्लो 49
▁1972 49
▁56 49
▁Amalek 49
▁Aust 49
▁Caes 49
▁Case 49
▁Coll 49
▁Desc 49
▁Deter 49
▁Dialog 49
▁Displays 49
▁Ev 49
▁Germany 49
▁Green 49
▁Guard 49
▁Indonesia 49
▁Jew 49
▁KStars 49
▁Keys 49
▁Kish 49
▁MPEG 49
▁Mac 49
▁Medical 49
▁Nautilus 49
▁Never 49
▁Panchayati 49
▁Peace 49
▁Present 49
▁Que 49
▁Report 49
▁SHIFT 49
▁Sodom 49
▁Sunday 49
▁Tag 49
▁Tib 49
▁Wednesday 49
▁achieving 49
▁adversely 49
▁algor 49
▁apple 49
▁approval 49
▁apt 49
▁ax 49
▁bilateral 49
▁bone 49
▁bowl 49
▁camels 49
▁canal 49
▁caption 49
▁cedar 49
▁coc 49
▁comprom 49
▁condu 49
▁creative 49
▁deleting 49
▁despised 49
▁diesel 49
▁dire 49
▁dishon 49
▁engineering 49
▁ess 49
▁fertilizer 49
▁finish 49
▁hydropower 49
▁immor 49
▁incoming 49
▁initialize 49
▁inspect 49
▁installing 49
▁lake 49
▁metadata 49
▁narrow 49
▁necessity 49
▁num 49
▁obl 49
▁ordinance 49
▁overcome 49
▁patience 49
▁pregnancy 49
▁privatization 49
▁proc 49
▁prospect 49
▁rapidly 49
▁rendering 49
▁resize 49
▁rough 49
▁routes 49
▁shad 49
▁shoulder 49
▁skillful 49
▁slogan 49
▁soc 49
▁strangers 49
▁stretch 49
▁subt 49
▁surround 49
▁tig 49
▁uncle 49
▁undert 49
▁unrighteous 49
▁अगु 49
▁अनौपचारिक 49
▁अपवाद 49
▁अर्घ 49
▁अवस्थाको 49
▁आपूर्तिको 49
▁आयोजनामा 49
▁आवद्ध 49
▁आश्र 49
▁आषाढमा 49
▁आहाबले 49
▁इस 49
▁ईं 49
▁उड्डयन 49
▁कम्प्युटरको 49
▁किसि 49
▁कुञ्जीका 49
▁केन्द्रहरुको 49
▁कोर्दछ 49
▁कोलेस्टेरो 49
▁क्यान 49
▁क्रस 49
▁क्रियाक 49
▁खन्नुहोस् 49
▁खाएको 49
▁खूद 49
▁गरिसकेका 49
▁गरीबीको 49
▁घि 49
▁घोषित 49
▁चढाउँ 49
▁चर् 49
▁चाहानुहुन्छ 49
▁जानेछु 49
▁जेठो 49
▁ढुङ्गाले 49
▁तत्कालीन 49
▁तथ्यांक 49
▁तबसम्म 49
▁तालिकाको 49
▁तीनै 49
▁त्यत्ति 49
▁दिउँसो 49
▁दृ 49
▁देखाउँ 49
▁दोहोरो 49
▁नगर्न 49
▁नबूकदनेस्सरले 49
▁नसक् 49
▁निर्देशित 49
▁निर्मा 49
▁निष्कर्ष 49
▁नोभे 49
▁न्युन 49
▁परिमाणको 49
▁परियोजनामा 49
▁परिष 49
▁पीडीए 49
▁पुर 49
▁प्रक्रियाको 49
▁प्रत्येकलाई 49
▁फलस्वरूप 49
▁फिलिपि 49
▁बढाई 49
▁बढिरहेको 49
▁बनायौ 49
▁बाघ 49
▁बाढ 49
▁बिचमा 49
▁बैङ् 49
▁बौद्धिक 49
▁भयंकर 49
▁भविष्यको 49
▁मार्गदर्श 49
▁मिलाइनेछ 49
▁मिस् 49
▁मेगावाट 49
▁यहाँका 49
▁यहोयादा 49
▁राख्छन् 49
▁राख्यो 49
▁लगी 49
▁लाग्दछ 49
▁लाभा 49
▁लोप 49
▁ल्याएँ 49
▁ल्यायो 49
▁वस 49
▁वारे 49
▁विकासतर्फ 49
▁विर 49
▁शक्तिलाई 49
▁शान्तिको 49
▁शैलीको 49
▁संगठनको 49
▁संघले 49
▁संरक्षणको 49
▁सजा 49
▁सर्भरलाई 49
▁सलह 49
▁सामग्रीहरुको 49
▁सींङ 49
▁सुनाए 49
▁सेता 49
▁सोधि 49
▁स्टेशन 49
▁स्पि 49
▁स्लाइड 49
▁हटाई 49
▁हमा 49
▁हिँ 49
▁हेर्दै 49
▁४०० 49
▁८९ 49
.10 48
.30 48
KS 48
RC 48
UN 48
aked 48
amily 48
aray 48
atural 48
commun 48
ctional 48
eding 48
gle 48
ilo 48
inations 48
irmed 48
lined 48
olume 48
orter 48
plic 48
ployed 48
ply 48
rc 48
redit 48
separ 48
uar 48
umeric 48
ंजी 48
केतिक 48
गान 48
ङ्खला 48
जनका 48
जनालाई 48
द्री 48
धिन 48
पर्य 48
प्रे 48
बुक 48
भावना 48
रिन 48
र्रा 48
ल्लू 48
स्मा 48
हेको 48
ृत्ति 48
्दैन 48
▁130 48
▁2006 48
▁44 48
▁99 48
▁Baj 48
▁Bhattarai 48
▁Confirm 48
▁Cr 48
▁DVD 48
▁Deep 48
▁Dire 48
▁Dom 48
▁Double 48
▁Emphasis 48
▁Gal 48
▁Gideon 48
▁Host 48
▁Hy 48
▁Inst 48
▁Integr 48
▁Jam 48
▁Jeho 48
▁Jesse 48
▁Joash 48
▁Kexi 48
▁Kore 48
▁Mak 48
▁Mart 48
▁Mass 48
▁Matt 48
▁Nab 48
▁ON 48
▁Oct 48
▁Others 48
▁Python 48
▁ST 48
▁Soc 48
▁Theme 48
▁Tog 48
▁Trust 48
▁Ur 48
▁Zebulun 48
▁announcement 48
▁applying 48
▁armed 48
▁assemb 48
▁batter 48
▁bh 48
▁chick 48
▁components 48
▁confusion 48
▁consequ 48
▁danger 48
▁dangerous 48
▁deceived 48
▁degree 48
▁depending 48
▁devoted 48
▁divide 48
▁ease 48
▁exh 48
▁finds 48
▁flowing 48
▁forestry 48
▁ft 48
▁garbage 48
▁happening 48
▁hero 48
▁hid 48
▁homes 48
▁hunger 48
▁indicated 48
▁inquire 48
▁kilometers 48
▁kw 48
▁leak 48
▁logo 48
▁merchants 48
▁migration 48
▁monthly 48
▁murder 48
▁oppressed 48
▁organizational 48
▁orientation 48
▁periods 48
▁pic 48
▁pig 48
▁roots 48
▁scheduled 48
▁ships 48
▁shortcuts 48
▁sits 48
▁spots 48
▁superv 48
▁transgressions 48
▁treasure 48
▁tur 48
▁uniform 48
▁visibility 48
▁warned 48
▁withdrawal 48
▁wizard 48
▁अदालत 48
▁अधर्म 48
▁अनलोड 48
▁अनुमा 48
▁अन्तरक्रिया 48
▁अमा 48
▁अलग्ग 48
▁आगम 48
▁आधिकारिक 48
▁आफूसित 48
▁आयोजनाहरुबाट 48
▁आरम्भ 48
▁आवशयक 48
▁आवाजले 48
▁इन्जि 48
▁इन्जिनिय 48
▁इलेक्ट 48
▁उच्चतम 48
▁उत्तरा 48
▁उभिएर 48
▁औषधिको 48
▁कर्पोरेसनले 48
▁काठमाण्ड 48
▁कानू 48
▁कार्यक्रमका 48
▁कार्या 48
▁कित्ता 48
▁गइन् 48
▁गाउँको 48
▁गाढा 48
▁घन्टा 48
▁चढेर 48
▁चाडको 48
▁जवानलाई 48
▁जातिका 48
▁जीएन 48
▁जोनाथनले 48
▁डाटावेस 48
▁तटस्थ 48
▁तेरा 48
▁दूषित 48
▁देखाउछ 48
▁देखिन्थ्यो 48
▁नदेखि 48
▁नामा 48
▁निवेदन 48
▁नेपाललाई 48
▁नोक्सानी 48
▁न्यूयोर्क 48
▁पक्षको 48
▁परिमार्जक 48
▁पार्ट 48
▁पाल् 48
▁पिक्स 48
▁पुगेर 48
▁प्रत्येकको 48
▁प्रशासनले 48
▁फालि 48
▁फिल्डमा 48
▁बढीमा 48
▁बढ्यो 48
▁बाब 48
▁बितर 48
▁बिन्यामी 48
▁बेचि 48
▁बैजनी 48
▁ब्ल 48
▁भूकम्प 48
▁मण्डल 48
▁मामा 48
▁यरू 48
▁यारोबामले 48
▁रगतमा 48
▁राइ 48
▁रामा 48
▁रुचि 48
▁लेव 48
▁वरिपरिको 48
▁वार्ड 48
▁विद्यालयमा 48
▁विन्ड 48
▁व्यवसायिक 48
▁शावल 48
▁शौचाल 48
▁संघका 48
▁संभार 48
▁संलग्र 48
▁सकियो 48
▁सट 48
▁सरुवा 48
▁सहारा 48
▁साइजको 48
▁सामग्रीहरु 48
▁सामेल 48
▁सिन्ध 48
▁सुचार 48
▁सूचनाको 48
▁स्वरुप 48
▁हवाइ 48
▁हातको 48
▁हावामा 48
▁हुनबाट 48
▁हुनेछन 48
▁हेब्रोन 48
▁होस्टमा 48
▁९८ 48
17 47
55 47
85 47
AC 47
AV 47
ESC 47
HT 47
PL 47
SC 47
SL 47
ameless 47
apti 47
aug 47
chron 47
command 47
ective 47
eem 47
eline 47
gend 47
ggle 47
giving 47
hythm 47
idge 47
inery 47
itect 47
iverse 47
ixt 47
nah 47
oom 47
osion 47
otes 47
rage 47
ureau 47
ursday 47
ween 47
wind 47
ws 47
ंक्षा 47
ंसी 47
उँदैन 47
क्र्या 47
क्सा 47
घाटन 47
चिति 47
छाडी 47
जिन 47
दिएका 47
दैछन् 47
द्धार 47
न्ध्र 47
पछिको 47
पत्ता 47
पर्थ्यो 47
पुस्ति 47
प्रकार 47
प्रभु 47
बाइ 47
बूक 47
महा 47
मास 47
मेले 47
लाउने 47
शक्य 47
शत 47
संर 47
सना 47
सिर्जना 47
स्पद 47
ह्न 47
िलो 47
ूहिक 47
्मण 47
▁Bhut 47
▁CHAP 47
▁FIT 47
▁Fatal 47
▁Friend 47
▁GCompris 47
▁Gir 47
▁Hold 47
▁KGpg 47
▁Kusund 47
▁Media 47
▁Mot 47
▁Nathan 47
▁Ok 47
▁Opens 47
▁Panch 47
▁SOC 47
▁Ste 47
▁Valid 47
▁Willi 47
▁aband 47
▁advers 47
▁axis 47
▁bugs 47
▁ca 47
▁chain 47
▁corpor 47
▁digits 47
▁distin 47
▁dogs 47
▁doings 47
▁dollar 47
▁dpi 47
▁duties 47
▁dwells 47
▁dynam 47
▁env 47
▁ephod 47
▁equity 47
▁experien 47
▁falling 47
▁hist 47
▁hole 47
▁humble 47
▁ii 47
▁inactive 47
▁iniqu 47
▁inspir 47
▁locate 47
▁menus 47
▁mm 47
▁native 47
▁olive 47
▁profess 47
▁provid 47
▁queue 47
▁repeat 47
▁scene 47
▁sender 47
▁sewage 47
▁somewhere 47
▁stim 47
▁sym 47
▁traded 47
▁wishes 47
▁worry 47
▁अंकु 47
▁आइपुग 47
▁इङ्ग 47
▁इट्टा 47
▁उठाउ 47
▁उपवास 47
▁उफ 47
▁उम्रि 47
▁ऊनी 47
▁एकता 47
▁एकीकरण 47
▁खतरनाक 47
▁खेद 47
▁खोप 47
▁गर्ज 47
▁गैह्र 47
▁घरका 47
▁छल 47
▁छैनन 47
▁ट्वि 47
▁डेइ 47
▁थिच्दा 47
▁दशकमा 47
▁नक्शा 47
▁नगरेसम्म 47
▁निः 47
▁निष्ठ 47
▁निस्के 47
▁पढे 47
▁प्रणालीलाई 47
▁फरा 47
▁फारम 47
▁फ्ल्या 47
▁बजाउने 47
▁बसी 47
▁बाइन्डिङ 47
▁बैशाख 47
▁मंग 47
▁मदि 47
▁मध्या 47
▁मागको 47
▁माथिका 47
▁मीठो 47
▁यिज्र 47
▁यिशै 47
▁योआशले 47
▁राजधा 47
▁लगेको 47
▁लङ्ग 47
▁लन्ड 47
▁लेआ 47
▁विराटन 47
▁विश्ले 47
▁शाह 47
▁संभावित 47
▁सुपर 47
▁सेयरध 47
▁हर् 47
▁हारू 47
▁हुु 47
▁१००० 47
23 46
addy 46
ename 46
ensity 46
ethod 46
eting 46
help 46
hent 46
ids 46
omes 46
plex 46
sequ 46
uate 46
uf 46
urities 46
word 46
ँट 46
ज्या 46
झ्याल 46
दाय 46
बेस 46
व्या 46
सेकेन्ड 46
स्थापन 46
ेस्रो 46
▁Accept 46
▁Drop 46
▁Follow 46
▁IC 46
▁Inf 46
▁KG 46
▁Kum 46
▁Maj 46
▁Sid 46
▁defaults 46
▁dpkg 46
▁ign 46
▁normally 46
▁recip 46
▁recognize 46
▁rend 46
▁rul 46
▁std 46
▁आखि 46
▁इसहा 46
▁उपयोगि 46
▁औद्योग 46
▁काय 46
▁गोल्ड 46
▁जमी 46
▁जम् 46
▁डिजिक 46
▁नामले 46
▁पानामा 46
▁पोशा 46
▁प्रग 46
▁बाहिरको 46
▁महो 46
▁मूल्या 46
▁रेन्डर 46
▁सबैका 46
▁९९ 46
PG 45
TS 45
anta 45
esc 45
fort 45
icked 45
iety 45
ince 45
obo 45
sel 45
upported 45
van 45
verage 45
ऊद 45
चिन्ह 45
ञ्जी 45
तिय 45
फिक्स 45
फिग 45
लगा 45
षामा 45
हिने 45
▁49 45
▁Config 45
▁Ke 45
▁Pen 45
▁Pick 45
▁binary 45
▁blocks 45
▁citiz 45
▁determin 45
▁encour 45
▁eph 45
▁hab 45
▁inhab 45
▁iss 45
▁lots 45
▁rail 45
▁symb 45
▁troub 45
▁virt 45
▁आकर्ष 45
▁उन्न 45
▁उपलव 45
▁कम्ब 45
▁चेत 45
▁तालि 45
▁निलम्बन 45
▁परिणा 45
▁मृ 45
▁यहू 45
▁सृ 45
PD 44
afe 44
allel 44
edia 44
ffic 44
heck 44
iple 44
omen 44
pha 44
pir 44
plays 44
tings 44
á 44
ंसा 44
जत 44
टोक 44
दन 44
दलीय 44
नेल 44
पट्ट 44
मेत 44
र्जा 44
लियम 44
लोड 44
वर्ण 44
शान 44
साय 44
▁Cong 44
▁Hel 44
▁Himalay 44
▁Hot 44
▁auth 44
▁dele 44
▁geograph 44
▁inj 44
▁अधिका 44
▁अवा 44
▁अवै 44
▁खाडल 44
▁धितो 44
▁भ्रष्ट 44
▁री 44
▁विश 44
▁सन्दू 44
▁समन्व 44
82 43
Script 43
abled 43
agram 43
cement 43
gation 43
ledge 43
oney 43
pi 43
udd 43
wer 43
नाव 43
रिकन 43
र्गत 43
ह्य 43
्यालय 43
्रम 43
▁German 43
▁Kr 43
▁Lalitpur 43
▁Mess 43
▁dru 43
▁independ 43
▁purs 43
▁render 43
▁rout 43
▁shek 43
▁tal 43
▁अश्शू 43
▁इमान्द 43
▁गोठा 43
▁टिक 43
▁नोक 43
▁भर्ख 43
▁भें 43
▁सकु 43
▁साँच 43
PE 42
arma 42
erts 42
igenous 42
ober 42
ऊन् 42
ग्राफ 42
त्रि 42
दर्शी 42
वधिक 42
हां 42
ूह 42
्ध 42
्रोत 42
▁CS 42
▁Dem 42
▁Jh 42
▁Zeb 42
▁extre 42
▁upl 42
▁इन्ध 42
▁घात 42
▁त् 42
▁पुस्ति 42
▁प्याके 42
▁प्रक्षे 42
▁यह 42
▁सेन् 42
▁हाइलाइ 42
15 41
ago 41
ban 41
date 41
entation 41
lict 41
pread 41
ternal 41
unction 41
ँदैछ 41
नाई 41
नुह 41
भारा 41
राय 41
र्षिक 41
स्थामा 41
स्वा 41
ैया 41
▁Activ 41
▁Invest 41
▁Pra 41
▁Tre 41
▁excess 41
▁fails 41
▁hiding 41
▁requ 41
▁scient 41
▁semin 41
▁slog 41
▁sust 41
▁wit 41
▁अपमा 41
▁उद्य 41
▁कङ्ग 41
▁कन्सो 41
▁क्लि 41
▁तस्वी 41
▁ताप 41
▁निषे 41
▁ब्याक 41
▁म्याट्रि 41
LE 40
atab 40
ever 40
istered 40
iversity 40
otten 40
outh 40
pecially 40
riend 40
sect 40
tw 40
क्रो 40
गञ्ज 40
पष्ट 40
याम 40
सिन्दा 40
्रास 40
▁Philist 40
▁Pop 40
▁afflict 40
▁benef 40
▁canc 40
▁equip 40
▁freed 40
▁ht 40
▁subst 40
▁wonder 40
▁अनिय 40
▁अरा 40
▁कोशि 40
▁घृ 40
▁टाँस् 40
▁डिस् 40
▁दाउ 40
▁ब्रु 40
▁मिलाइ 40
▁विपक्ष 40
▁सञ्चाल 40
▁होशि 40
FS 39
ING 39
PS 39
SO 39
enses 39
enth 39
gram 39
gunj 39
ission 39
oper 39
orry 39
porary 39
rest 39
ribed 39
अन्त 39
कर्ष 39
क्रमण 39
ङ्ख 39
च्ची 39
त्त्व 39
दूर 39
न्तरण 39
राब 39
स्थ्य 39
▁Afric 39
▁Serv 39
▁Tour 39
▁Vari 39
▁bapt 39
▁broadcast 39
▁ens 39
▁fier 39
▁mechan 39
▁thir 39
▁एनिमे 39
▁खत 39
▁झर्नुहोस् 39
▁त्रु 39
▁प्रशो 39
▁संके 39
▁संरच 39
▁सङ्के 39
▁समी 39
aneous 38
blem 38
empt 38
jah 38
lude 38
nes 38
oved 38
plate 38
ंछन् 38
क्रिय 38
क्षिक 38
ङ्ग४ 38
भाग्य 38
रिक्त 38
लेखन 38
वक्ता 38
▁Brit 38
▁Const 38
▁Eff 38
▁Found 38
▁Loc 38
▁Nep 38
▁Ret 38
▁advant 38
▁cult 38
▁curs 38
▁exper 38
▁intent 38
▁lad 38
▁mom 38
▁transgress 38
▁गहि 38
▁गोष्ठ 38
▁जोखि 38
▁जोनाथ 38
▁ट्रा 38
▁दबा 38
▁द्वन्द 38
▁नम 38
▁नाग 38
▁पच 38
▁शरी 38
▁सल्ला 38
augh 37
cil 37
emon 37
eren 37
irm 37
isf 37
riage 37
zen 37
क्री 37
घि 37
तियार 37
पया 37
मानित 37
र्भिक 37
होर 37
्यूब 37
्राम 37
▁Coord 37
▁Hind 37
▁Py 37
▁init 37
▁necess 37
▁poly 37
▁programm 37
▁resp 37
▁signific 37
▁suff 37
▁temper 37
▁typ 37
▁अनुस 37
▁अनुसन्ध 37
▁अवस 37
▁अस्पता 37
▁आम् 37
▁इतिहा 37
▁एचटी 37
▁कन्ट 37
▁काठमाड 37
▁कोइ 37
▁क्रू 37
▁खारे 37
▁ग्लो 37
▁डाइरेक्ट 37
▁तपा 37
▁तुर 37
▁ब्राउ 37
▁हेब्रो 37
izard 36
ording 36
oting 36
ugh 36
कृष्ट 36
च्छेदन 36
ञ्जू 36
टौं 36
दिष्ट 36
दृ 36
न्द्री 36
मेक 36
श्या 36
सिक 36
स्कृतिक 36
ारोपण 36
▁Cap 36
▁Eph 36
▁Exam 36
▁Ish 36
▁Tw 36
▁anc 36
▁anx 36
▁bene 36
▁buff 36
▁commod 36
▁inhabit 36
▁plag 36
▁relig 36
▁volunt 36
▁उपत्य 36
▁कट 36
▁कहि 36
▁खाड 36
▁गन्त 36
▁दाय 36
▁दुर्घट 36
▁यात 36
▁स्लाइ 36
II 35
agers 35
eous 35
face 35
medi 35
ousand 35
rial 35
road 35
rough 35
ructure 35
sely 35
vement 35
vern 35
जुली 35
दानमा 35
धारण 35
मोजि 35
रेक्ट 35
वरण 35
विद 35
विधान 35
ेक्षित 35
ेदन 35
्नुहुन्छ 35
्युट 35
्रिय 35
▁Joh 35
▁Rest 35
▁applic 35
▁arrest 35
▁attrib 35
▁bes 35
▁cert 35
▁exec 35
▁fertil 35
▁gard 35
▁mot 35
▁quar 35
▁vir 35
▁उम 35
▁दुर्ग 35
▁भूइँ 35
▁म्यानुअ 35
▁संशो 35
▁सङ्कु 35
▁होम 35
BM 34
GB 34
TD 34
aan 34
ament 34
elcome 34
ept 34
ictionary 34
iet 34
ilit 34
inking 34
irc 34
tees 34
ument 34
uss 34
veral 34
कारण 34
काली 34
डीई 34
देख 34
द्दी 34
न्त्रिक 34
वलोकन 34
सरले 34
ाउको 34
ोस 34
– 34
▁Gork 34
▁Java 34
▁Shiv 34
▁Wid 34
▁adop 34
▁crow 34
▁defic 34
▁demon 34
▁educ 34
▁entr 34
▁execut 34
▁resident 34
▁wond 34
▁अध्य 34
▁कुराका 34
▁जरु 34
▁पेपर 34
▁युरो 34
▁विव 34
PI 33
amba 33
asion 33
atal 33
ateral 33
ayat 33
gthen 33
ieving 33
istics 33
izon 33
oir 33
raz 33
ynam 33
द्धन 33
नैतिक 33
ब्र 33
ष्कार 33
हाब 33
ीर 33
्वर 33
‬ 33
▁Cour 33
▁Fore 33
▁Inv 33
▁Lev 33
▁devote 33
▁divers 33
▁entreprene 33
▁fem 33
▁que 33
▁recom 33
▁sixt 33
▁क्याले 33
▁क्षय 33
▁ठु 33
▁दर्ु 33
▁पत्रम 33
▁पिलात 33
▁पीडी 33
▁बाँडफ 33
▁बिस्तार 33
▁यूहन् 33
▁रण 33
▁वाक 33
central 32
etary 32
icated 32
icial 32
tc 32
yo 32
zz 32
क्टरमा 32
चाह 32
जाल 32
तेर 32
दाब 32
नान्तर 32
प्य 32
ब्रे 32
ल्यै 32
हाले 32
ाइज 32
ैंले 32
▁Aud 32
▁Budd 32
▁Vert 32
▁af 32
▁bud 32
▁esc 32
▁estim 32
▁hyd 32
▁prob 32
▁rele 32
▁saf 32
▁syn 32
▁अलिक 32
▁अस्वी 32
▁आलो 32
▁आह 32
▁कच 32
▁गुप्ति 32
▁गोदा 32
▁चुप 32
▁छाउ 32
▁नबूकदने 32
▁प्रतिस्पर् 32
▁व्याव 32
▁शब् 32
▁सम्भाव 32
Sc 31
angers 31
artr 31
asting 31
cel 31
erning 31
hua 31
osal 31
pendit 31
phone 31
quar 31
rep 31
rict 31
थिति 31
दृश्य 31
ध्यक्ष 31
पता 31
रिस 31
लाग् 31
लिपि 31
वहन 31
शाली 31
ौरा 31
्म 31
्वास 31
→ 31
▁Bah 31
▁Gree 31
▁Tot 31
▁accord 31
▁announ 31
▁arrange 31
▁butter 31
▁cam 31
▁convers 31
▁disapp 31
▁disob 31
▁ke 31
▁kilomet 31
▁nar 31
▁weap 31
▁wis 31
▁withdraw 31
▁अय 31
▁आधु 31
▁घन 31
▁जनक 31
▁जै 31
▁ज्यो 31
▁ढंग 31
▁पट्ट 31
▁पृथ 31
▁श्याम 31
▁सन्त 31
RL 30
actions 30
athan 30
attered 30
eler 30
erest 30
iers 30
iew 30
mun 30
okh 30
oyal 30
plied 30
venth 30
ंकन 30
कम्प 30
टिल 30
द्दा 30
पाटी 30
र्घ 30
लग्न 30
वर्ड 30
सम्भव 30
सुरु 30
ाँड 30
▁GD 30
▁Kon 30
▁fal 30
▁fest 30
▁incom 30
▁liqu 30
▁prepar 30
▁pros 30
▁rap 30
▁rat 30
▁sustain 30
▁withd 30
▁उज 30
▁एप्रै 30
▁औस 30
▁तस् 30
▁न्य 30
▁मनश्श 30
▁सित् 30
▁स्कि 30
▁स्क्रि 30
alend 29
alendar 29
fter 29
ilateral 29
irst 29
irth 29
itten 29
ittle 29
lace 29
mber 29
orth 29
reen 29
reens 29
stem 29
umbn 29
ysis 29
° 29
× 29
उँदो 29
ज्ञात 29
राज्य 29
श्यक 29
श्रो 29
ित्ता 29
ृह 29
▁Bhair 29
▁Pokh 29
▁ced 29
▁encamp 29
▁introdu 29
▁overse 29
▁spo 29
▁stro 29
▁testim 29
▁उपभो 29
▁एजे 29
▁त्रिभु 29
▁दय 29
▁पङ् 29
▁पृ 29
▁प्रय 29
▁मर्म 29
▁माना 29
▁सन्द 29
▁सर्वशक्ति 29
▁हिमा 29
allen 28
hest 28
ilarly 28
itudes 28
mand 28
nel 28
nown 28
orest 28
pert 28
ril 28
ternet 28
ñ 28
गणना 28
स्रोत 28
ीकृत 28
▁Dam 28
▁Trib 28
▁Uns 28
▁es 28
▁exal 28
▁pill 28
▁sle 28
▁एल्ब 28
▁त्र 28
▁निर्वा 28
▁पञ्चा 28
▁परिप्रे 28
▁प्रको 28
▁फिल् 28
▁सफ्ट 28
▁सर्भ 28
▁सुह 28
▁स्मृ 28
arent 27
asad 27
asons 27
atin 27
fficient 27
hemical 27
illa 27
isco 27
itage 27
ixed 27
omatic 27
uro 27
ऋ 27
कल्प 27
ग्ग 27
त्तरी 27
दानी 27
दायक 27
द्यो 27
मान्द 27
वान् 27
ात् 27
ृद्धि 27
▁Bhatt 27
▁Ger 27
▁Hez 27
▁Inte 27
▁KM 27
▁Rot 27
▁WAR 27
▁clot 27
▁const 27
▁depos 27
▁fa 27
▁hun 27
▁interpret 27
▁pleas 27
▁prim 27
▁tick 27
▁webs 27
▁अनौ 27
▁इच्छ 27
▁एनि 27
▁ओग 27
▁गार् 27
▁गोर 27
▁जलविद्यु 27
▁झग 27
▁धार 27
▁नति 27
▁नेभि 27
▁पञ् 27
▁प्रोटो 27
▁मलखा 27
▁योजनावधि 27
atn 26
conom 26
ething 26
iol 26
ork 26
tched 26
ग्रहण 26
धानिक 26
निष्ट 26
फोन 26
रामी 26
रोड 26
र्ा 26
लम्ब 26
लाग्दा 26
िनी 26
्राफ 26
्वि 26
▁Americ 26
▁Himal 26
▁Kath 26
▁alloc 26
▁jo 26
▁meas 26
▁resear 26
▁shar 26
▁अन्व 26
▁कम्यु 26
▁टेलिभि 26
▁तव 26
▁ध्रु 26
▁भवि 26
▁यरूशले 26
▁हस्ता 26
abl 25
apa 25
ember 25
ength 25
erences 25
grou 25
iar 25
ollow 25
onents 25
rist 25
umn 25
कारक 25
कारात्मक 25
खित 25
त्सा 25
निर 25
मर्श 25
याप्त 25
र्वाद 25
ूण 25
ेशू 25
ोस्ट 25
▁Amor 25
▁Cert 25
▁Regard 25
▁Reh 25
▁bab 25
▁democr 25
▁impro 25
▁infl 25
▁prophe 25
▁tou 25
▁ty 25
▁अधी 25
▁कटौ 25
▁कमजो 25
▁खरि 25
▁ठू 25
▁थम्ब 25
▁धै 25
▁निरी 25
▁पूजाहार 25
▁प्रवि 25
▁बहुभु 25
▁मसि 25
▁यहोया 25
▁रद्दी 25
▁लम्ब 25
IFF 24
cially 24
estern 24
ilee 24
iqu 24
ireless 24
isions 24
istry 24
lech 24
pective 24
pris 24
retch 24
stitute 24
trl 24
vation 24
कुट 24
जुमा 24
जोमा 24
डरा 24
निएका 24
भाविक 24
श्वेत 24
सिं 24
स्ति 24
्वान 24
▁Arrange 24
▁Coun 24
▁Tit 24
▁bet 24
▁brack 24
▁budd 24
▁financ 24
▁stud 24
▁अप् 24
▁ओछ्या 24
▁खू 24
▁जवा 24
▁प्रर्द 24
▁बालब 24
▁भयभ 24
▁म्यानु 24
▁शोध 24
ansion 23
bel 23
ext 23
ieves 23
known 23
ported 23
roup 23
क्षेप 23
ख्यक 23
ङ्ख्या 23
चान 23
ट्रि 23
तमान 23
धिकरण 23
निज 23
न्डिङ 23
म्मे 23
सव 23
सायनिक 23
▁Acc 23
▁Ear 23
▁Karn 23
▁Phil 23
▁Rad 23
▁Sept 23
▁cherub 23
▁comput 23
▁doc 23
▁facilit 23
▁mob 23
▁owners 23
▁ris 23
▁sear 23
▁अथ 23
▁अद्या 23
▁आशि 23
▁इन्टि 23
▁उपल 23
▁एव 23
▁क्रा 23
▁नमु 23
▁पर्या 23
▁पुस्तकचि 23
▁फोल्ड 23
▁मरू 23
▁मुना 23
▁सम्मि 23
▁सिंहास 23
acro 22
aemon 22
aste 22
ilar 22
indow 22
ktop 22
mary 22
mish 22
missions 22
ottage 22
rians 22
ruption 22
thing 22
ttp 22
एली 22
ज्र 22
त्रु 22
पर्क 22
ब्दी 22
मुले 22
र्मिक 22
वेस 22
शः 22
सर्ग 22
स्ताव 22
हिर 22
• 22
▁.2 22
▁Assy 22
▁Mean 22
▁SH 22
▁abomin 22
▁cit 22
▁discipl 22
▁effic 22
▁inde 22
▁occ 22
▁prep 22
▁repe 22
▁sac 22
▁susp 22
▁आधि 22
▁उद्ध 22
▁ढुवा 22
▁दरि 22
▁प्रोत्सा 22
▁रमाइ 22
▁लज् 22
▁समष्टि 22
▁सोम 22
▁स्वास् 22
▁हिज 22
ackend 21
ctory 21
elfare 21
imelech 21
ister 21
rene 21
rix 21
tal 21
ã 21
कक्ष 21
कल्पिक 21
कृय 21
ञ्छ 21
तान्त्रिक 21
पेक्षित 21
बान 21
सामान 21
्रह 21
▁Bang 21
▁CH 21
▁Elish 21
▁PG 21
▁Priv 21
▁Shank 21
▁Whe 21
▁bask 21
▁cum 21
▁hous 21
▁interp 21
▁polyg 21
▁sequ 21
▁आन्त 21
▁जिम्मे 21
▁डिसे 21
▁तट 21
▁दुल 21
▁पुस्तकाल 21
▁प्रस्तु 21
▁बंग 21
▁माओ 21
▁सजि 21
IME 20
alit 20
change 20
dden 20
ensus 20
gment 20
irect 20
live 20
mine 20
oured 20
vision 20
Â 20
क्लो 20
छ्या 20
णिज्य 20
ध्यम 20
फेस 20
ब्रो 20
ब्लिक 20
यन्ट 20
रुष 20
लोकन 20
श्मा 20
िकित् 20
▁Depart 20
▁GC 20
▁Janak 20
▁apost 20
▁cher 20
▁excell 20
▁mut 20
▁param 20
▁rej 20
▁rene 20
▁sevent 20
▁अने 20
▁आफ् 20
▁कोलम्ब 20
▁गुना 20
▁नरा 20
▁निजा 20
▁पदया 20
▁प्रजन 20
▁भैरह 20
▁यूआर 20
▁विके 20
▁विज 20
▁विरा 20
▁शता 20
▁सम्बो 20
▁सान्त 20
▁सिँ 20
▁सिद्धा 20
▁सिल 20
▁स्थाना 20
Pr 19
abet 19
duction 19
edience 19
erem 19
ername 19
ighb 19
ishna 19
ivid 19
kend 19
mes 19
onf 19
onts 19
reed 19
urban 19
उनी 19
ग्रीहरू 19
चाप 19
णात्मक 19
द्योग 19
निम् 19
पचार 19
मोजिम 19
ल्थ 19
विराम 19
ष्टा 19
ारम्भ 19
ालिका 19
्वारा 19
▁Educ 19
▁Hist 19
▁PD 19
▁Retrie 19
▁adequ 19
▁atm 19
▁awa 19
▁cooper 19
▁mov 19
▁obt 19
▁partic 19
▁philos 19
▁unus 19
▁अन्तरि 19
▁आफ्न 19
▁कान्ति 19
▁कार्यान्व 19
▁केटाके 19
▁चेताव 19
▁डिजि 19
▁प्लग 19
▁रेक 19
▁विनि 19
asse 18
band 18
chn 18
chol 18
come 18
hern 18
ications 18
istr 18
lease 18
odies 18
pher 18
porter 18
quer 18
while 18
и 18
कृतिक 18
क्ष्म 18
क्ष्य 18
दीय 18
मूएल 18
रफ 18
रव 18
वश्यक 18
षणा 18
ालीस 18
ितो 18
िफो 18
ैठ 18
▁Associ 18
▁Commer 18
▁Dig 18
▁Init 18
▁Pak 18
▁TR 18
▁Unt 18
▁brid 18
▁challen 18
▁ille 18
▁jour 18
▁magaz 18
▁medic 18
▁mere 18
▁remem 18
▁schedul 18
▁असम 18
▁अस्था 18
▁उच 18
▁कब् 18
▁काठमा 18
▁जगे 18
▁तेर् 18
▁नबूकदनेस् 18
▁निर्ण 18
▁बेग् 18
▁भजन 18
▁सुझा 18
TF 17
angu 17
aught 17
avened 17
ceed 17
erc 17
iform 17
orage 17
pees 17
ptoms 17
ther 17
ugin 17
yal 17
ंशिक 17
ङ्गल 17
तान्त 17
नाक 17
पहि 17
प्लेट 17
बेन 17
सर्थ 17
सिद्ध 17
स्तार 17
ेषण 17
्खा 17
▁Und 17
▁Wed 17
▁anal 17
▁cond 17
▁individ 17
▁irr 17
▁lin 17
▁norm 17
▁organis 17
▁schol 17
▁एउ 17
▁ग्रेडि 17
▁छिमे 17
▁डल 17
▁द्रु 17
▁धेर 17
▁निवार 17
▁प्रदू 17
▁प्रवर् 17
▁बस्थ 17
▁मेड 17
▁र्सा 17
▁व्यभि 17
▁स्वामित 17
anger 16
arat 16
aron 16
cohol 16
ead 16
edit 16
hedul 16
iency 16
ikk 16
illion 16
joy 16
keys 16
obal 16
orrow 16
ould 16
rete 16
thon 16
vernment 16
vest 16
ystem 16
ó 16
ङ्न 16
ज्यु 16
थमिक 16
देशिक 16
निर्धारित 16
पूर्तिको 16
प्रिय 16
मेण्ट 16
यं 16
रीय 16
रूष 16
र्ई 16
व्यक्ति 16
संघ 16
सरकारी 16
सायिक 16
सुधार 16
िच 16
▁Gan 16
▁Indones 16
▁arr 16
▁engra 16
▁ju 16
▁sudden 16
▁आराध 16
▁उजा 16
▁कारा 16
▁किता 16
▁गिरा 16
▁नक् 16
▁नेप 16
▁पुत 16
▁बन्दरगा 16
▁यश 16
▁सिफ 16
aily 15
alem 15
anka 15
bage 15
claim 15
elah 15
elve 15
ighty 15
lier 15
liminary 15
omination 15
osphere 15
otos 15
oub 15
phrase 15
ptions 15
utr 15
vertheless 15
तावरण 15
तृत्व 15
नौट 15
न्दू 15
प्रयास 15
रायण 15
ल्भ 15
विद्यालय 15
सायी 15
ह्रै 15
‪ 15
▁Bec 15
▁Benj 15
▁Pil 15
▁Sund 15
▁ach 15
▁compar 15
▁desir 15
▁langu 15
▁rese 15
▁veget 15
▁अग् 15
▁अन्या 15
▁कोठ 15
▁दशमल 15
▁दिउँ 15
▁दृश्या 15
▁यकी 15
▁यरी 15
▁विश्रा 15
▁ष 15
▁सन्तु 15
IX 14
abulary 14
alid 14
anches 14
asp 14
atalog 14
cour 14
ieved 14
istan 14
ologies 14
onse 14
osen 14
parency 14
rase 14
umble 14
vant 14
vings 14
ü 14
ख्यात 14
घार 14
तिहा 14
त्सव 14
नामकरण 14
न्नको 14
रिवा 14
लावा 14
शुल्क 14
ेरणा 14
▁Chalde 14
▁Sav 14
▁Stat 14
▁dil 14
▁eld 14
▁enterpr 14
▁envis 14
▁inher 14
▁ori 14
▁purp 14
▁spir 14
▁आशी 14
▁एमो 14
▁चरि 14
▁चिकित् 14
▁नोक्सा 14
▁प्व 14
▁बिन्या 14
▁भोल्यु 14
▁याक 14
▁रज 14
▁विकेन्द्री 14
▁शौ 14
▁सको 14
▁ह्यान्ड 14
♫ 14
UE 13
abul 13
arai 13
iron 13
istration 13
iven 13
opy 13
ulative 13
uta 13
ç 13
ú 13
क्ष्यमा 13
थम 13
ध्यारो 13
न्मुख 13
प्टे 13
भ्य 13
यव 13
र्वेद 13
वादन 13
सनीय 13
स्पति 13
॥ 13
▁Feb 13
▁Pref 13
▁Sure 13
▁chang 13
▁multipl 13
▁polic 13
▁अनुमो 13
▁अपर् 13
▁अशु 13
▁औष 13
▁काले 13
▁खरी 13
▁परिमार् 13
▁प्रतिनि 13
▁मद्द 13
▁सदर 13
▁स्नेह 13
Print 12
adata 12
astern 12
autilus 12
ellation 12
enance 12
gor 12
hus 12
iples 12
izers 12
ports 12
range 12
ria 12
ropower 12
sal 12
tee 12
а 12
ऒ 12
क्षिप्त 12
धानी 12
पुस्त 12
बेका 12
म्प्लेट 12
र्थ्यो 12
लग्र 12
लियत 12
सह 12
साब 12
हादुर 12
हारिक 12
ह्रो 12
ाँडा 12
ोष 12
⁄ 12
▁Af 12
▁Fif 12
▁GT 12
▁Gib 12
▁Jerem 12
▁LD 12
▁Pharise 12
▁Tod 12
▁Tribhu 12
▁Wor 12
▁ash 12
▁earthqu 12
▁innoc 12
▁mic 12
▁multip 12
▁nort 12
▁pest 12
▁philosop 12
▁sen 12
▁surve 12
▁अग्रि 12
▁अस्ति 12
▁कोलेस्ट 12
▁गुप्ती 12
▁छैठ 12
▁तथ 12
▁परिण 12
▁यद्य 12
▁सध 12
▁सुरुआ 12
▁सूचका 12
▁हेटौं 12
ankuta 11
aphat 11
atform 11
gth 11
juta 11
kg 11
mandu 11
omat 11
oming 11
plus 11
portun 11
self 11
terday 11
ufact 11
uge 11
undred 11
कर्त्ता 11
डराऊ 11
र्दन 11
विष्ट 11
साइट 11
़ 11
ित्री 11
्युल 11
▁Bless 11
▁CU 11
▁Pas 11
▁Prim 11
▁avail 11
▁cand 11
▁depri 11
▁establ 11
▁fam 11
▁infrastruct 11
▁maint 11
▁schem 11
▁sew 11
▁tak 11
▁tong 11
▁अंग्रे 11
▁उम्मे 11
▁गार्ह 11
▁चेता 11
▁झण्ड 11
▁झोलु 11
▁पलिश् 11
▁फिर 11
▁बाख 11
▁भरपर् 11
▁भौ 11
▁यहोशा 11
▁रित् 11
▁रोकथा 11
▁विद्य 11
▁व्याप 11
▁सीं 11
▁सुग 11
▁स्क्रिनसे 11
▁स्न्या 11
▁हृ 11
aign 10
alle 10
allet 10
arant 10
atnagar 10
bum 10
ealous 10
grees 10
hens 10
isis 10
onday 10
onement 10
orns 10
rency 10
roleum 10
tons 10
vey 10
yles 10
ync 10
£ 10
® 10
» 10
е 10
н 10
р 10
т 10
कली 10
क्वेर 10
क्षि 10
चेन्ज 10
जाजत 10
धारणा 10
प्रै 10
मशेर 10
वधान 10
सम्पादन 10
स्तविक 10
्रीष्ट 10
▁Bes 10
▁Comput 10
▁Mahe 10
▁Propert 10
▁Shec 10
▁Vill 10
▁administr 10
▁bec 10
▁compass 10
▁dign 10
▁extrem 10
▁ic 10
▁intellect 10
▁sock 10
▁voc 10
▁एकद 10
▁कम्प्यु 10
▁निमन्त्र 10
▁नियु 10
▁परिभा 10
▁पहा 10
▁पेट्रो 10
▁फागु 10
▁भित्ते 10
▁सांस 10
▁सुसमा 10
▁स्ने 10
Ad 9
abbath 9
achel 9
adur 9
essions 9
etauda 9
ialog 9
ifts 9
iscal 9
lesh 9
maid 9
mati 9
olesterol 9
reprene 9
rought 9
salm 9
urved 9
versely 9
ê 9
ô 9
ö 9
कारिक 9
गाडि 9
ग्गा 9
दवार 9
दोष 9
द्रिक 9
धारित 9
बाइट 9
म्परा 9
र्ाा 9
व्र 9
शालो 9
शूर 9
षे 9
संग्रह 9
सुफ 9
स्पर् 9
हित्य 9
ूमि 9
ेश्रो 9
॰ 9
▁Bash 9
▁DV 9
▁Edu 9
▁Euro 9
▁afforest 9
▁dise 9
▁princ 9
▁somet 9
▁अत्य 9
▁अनुपा 9
▁अन्ति 9
▁आन्दो 9
▁इले 9
▁क्ष्ँ 9
▁खाद्या 9
▁गिरफ्त 9
▁पाकि 9
▁प्रतिसे 9
▁फलस्व 9
▁मिठा 9
RB 8
Sync 8
agricult 8
estock 8
gregation 8
heless 8
hic 8
ificates 8
igen 8
ilitary 8
omon 8
queror 8
resp 8
uary 8
θ 8
М 8
केण्ड 8
ङ्ग४७ 8
दायिक 8
ध्ये 8
पीआई 8
भग 8
भागि 8
मशो 8
मीण 8
मुलेटिभ 8
ष्ट्रिय 8
स्कट 8
हभागि 8
ित्व 8
ेक्षण 8
‘ 8
“ 8
▁Bhakt 8
▁Dav 8
▁Kant 8
▁SV 8
▁deg 8
▁desol 8
▁fascin 8
▁fors 8
▁headquar 8
▁inte 8
▁sug 8
▁tom 8
▁अकु 8
▁अनुश 8
▁अमेरि 8
▁आइत 8
▁कर्त 8
▁दक्षि 8
▁दुः 8
▁द्रष्ट 8
▁पिला 8
▁प्राची 8
▁प्रावि 8
▁फलफ 8
▁मेगा 8
▁सिंहा 8
▁हैसि 8
UI 7
agog 7
attle 7
cious 7
coh 7
dot 7
ieties 7
iques 7
isl 7
ople 7
ovation 7
portion 7
pty 7
raid 7
ulum 7
usband 7
yond 7
« 7
ä 7
ò 7
ँर्या 7
ंग्रे 7
ङ्ग४९ 7
ङ्धे 7
तपाई 7
तिकै 7
थिर 7
पय 7
परिका 7
प्पणी 7
मात्मा 7
वर्षीय 7
विर 7
श्चर्य 7
ऽ 7
▁Ay 7
▁Bhairah 7
▁Ca 7
▁Fold 7
▁Gent 7
▁Ira 7
▁Kus 7
▁Lalit 7
▁Sod 7
▁Tok 7
▁UR 7
▁complet 7
▁criter 7
▁happ 7
▁lear 7
▁phil 7
▁ric 7
▁unne 7
▁vehic 7
▁vert 7
▁इस्रा 7
▁ज् 7
▁ढाँच 7
▁पासफ्रे 7
▁भयं 7
▁भरो 7
▁यारो 7
▁लडाइ 7
▁लुम्ब 7
▁विस्त 7
▁सिलसि 7
ORS 6
SCII 6
antial 6
athered 6
elesc 6
ideo 6
ificial 6
ija 6
oci 6
ointed 6
omach 6
raim 6
reness 6
ustom 6
verest 6
ऐ 6
ट्टान 6
त्याग 6
त्रित 6
दृढ 6
निर्भर 6
न्दर्य 6
परित 6
राध 6
ऱ 6
साद 6
स्तव 6
हत्या 6
▁&# 6
▁Bhand 6
▁GI 6
▁Zebul 6
▁delive 6
▁fulf 6
▁fut 6
▁indust 6
▁sacrif 6
▁som 6
▁unle 6
▁vill 6
▁अन्तर्र 6
▁अन्तर्रा 6
▁असन्त 6
▁उपलब् 6
▁कल्या 6
▁जरिवा 6
▁पलि 6
▁याता 6
▁विजा 6
▁शाऊ 6
▁शारी 6
▁साझ 6
の 6
alaam 5
cessary 5
chool 5
grap 5
inese 5
irit 5
lasting 5
oose 5
oples 5
ought 5
rie 5
rovers 5
uben 5
urbs 5
ylon 5
ão 5
è 5
μ 5
ر 5
ँजी 5
उट 5
केन्ड 5
पञ्च 5
बाही 5
यसका 5
र्जना 5
र्वज 5
षेक 5
हेन्द्र 5
ासो 5
ुक्त 5
ैनिक 5
ॉ 5
▁Naph 5
▁beaut 5
▁constru 5
▁coun 5
▁eff 5
▁feas 5
▁rede 5
▁इन्कर्पोरे 5
▁क्यालिफोर् 5
▁डेस्कट 5
▁ड्राइ 5
▁पदवर्ण 5
▁बर्णा 5
▁यूह 5
▁सिद 5
NING 4
PEG 4
QL 4
airman 4
ascin 4
earch 4
ecai 4
ernacle 4
ftware 4
ighth 4
issing 4
izontal 4
lebr 4
pite 4
poration 4
respond 4
rose 4
semb 4
sover 4
stood 4
tali 4
ught 4
ulter 4
umbini 4
vere 4
Á 4
æ 4
ï 4
ă 4
Ş 4
ş 4
Ţ 4
ţ 4
̈ 4
Μ 4
ά 4
η 4
ρ 4
ς 4
τ 4
к 4
ц 4
ا 4
ی 4
णाली 4
तिहासिक 4
पचारिक 4
र्मिन 4
लेस्ट 4
वायु 4
स्तिष् 4
ुति 4
्चा 4
्यानल 4
्र्ाा 4
— 4
▁Aug 4
▁Bangl 4
▁Chal 4
▁Gt 4
▁HM 4
▁Irr 4
▁artic 4
▁coven 4
▁doll 4
▁eas 4
▁ful 4
▁giv 4
▁perman 4
▁trump 4
▁wom 4
▁अक्टो 4
▁अभा 4
▁उत्तरदाय 4
▁क्लाइ 4
▁खाँच 4
▁निकु 4
▁पैठ 4
▁भद्रा 4
▁मङ्गल 4
▁रद्दीटोक 4
▁राष्टि 4
▁वास्तव 4
▁वित् 4
▁सदै 4
▁हत्य 4
⚡ 4
「 4
」 4
な 4
ん 4
ア 4
キ 4
ラ 4
不 4
便 4
地 4
所 4
浄 4
️ 4
💦 4
TEP 3
ancial 3
andom 3
atabase 3
bered 3
cember 3
dess 3
ergy 3
esy 3
gry 3
igin 3
ilty 3
inion 3
ircum 3
itud 3
orient 3
rief 3
ruary 3
though 3
weh 3
Ä 3
É 3
Ú 3
à 3
å 3
ø 3
ý 3
ō 3
́ 3
̃ 3
م 3
कल्पना 3
दने 3
निरन्तर 3
निरन्तरता 3
परम 3
पश्च 3
पोरे 3
बाइल 3
यद 3
रगा 3
र्वजनिक 3
ल्पना 3
ल्पमा 3
वार्य 3
षाढ 3
िष्ट 3
ैयाँ 3
ॐ 3
∶ 3
▁Alm 3
▁HT 3
▁Leban 3
▁TRAN 3
▁Virt 3
▁agricult 3
▁arom 3
▁fru 3
▁opportun 3
▁stra 3
▁अचान 3
▁अर्था 3
▁इत्या 3
▁इभो 3
▁उपर्य 3
▁कठि 3
▁कप् 3
▁क्षम 3
▁गिरि 3
▁घरे 3
▁बप्ति 3
▁बोधा 3
▁रोजग 3
▁र्व 3
▁वाक्या 3
▁समर् 3
▁सान्त्व 3
▁सुले 3
▁हिज् 3
☺ 3
IFT 2
anchayat 2
erness 2
gypt 2
icago 2
icho 2
ilus 2
ivalent 2
ixth 2
[...]
