<unk>	0
<s>	0
</s>	0
▁t	-0
he	-1
▁a	-2
र्	-3
▁स	-4
in	-5
▁प	-6
▁the	-7
▁,	-8
को	-9
मा	-10
्र	-11
▁o	-12
re	-13
▁.	-14
▁।	-15
▁s	-16
▁ग	-17
न्	-18
का	-19
▁त	-20
on	-21
er	-22
▁w	-23
हर	-24
nd	-25
्य	-26
ले	-27
at	-28
ला	-29
is	-30
▁c	-31
▁b	-32
en	-33
▁of	-34
▁f	-35
▁अ	-36
or	-37
ou	-38
▁p	-39
▁क	-40
ने	-41
es	-42
▁र	-43
नि	-44
हरू	-45
ed	-46
it	-47
▁ह	-48
स्	-49
▁to	-50
नु	-51
▁भ	-52
▁व	-53
al	-54
▁ब	-55
▁गर्	-56
▁m	-57
▁य	-58
▁in	-59
▁and	-60
▁d	-61
an	-62
ing	-63
▁म	-64
▁h	-65
ar	-66
il	-67
▁प्र	-68
▁द	-69
ion	-70
▁ज	-71
▁छ	-72
ना	-73
लाई	-74
ot	-75
as	-76
▁आ	-77
ार	-78
le	-79
क्	-80
ति	-81
ro	-82
▁n	-83
ic	-84
▁&	-85
यो	-86
▁उ	-87
▁th	-88
▁T	-89
ent	-90
▁be	-91
▁मा	-92
रि	-93
os	-94
ve	-95
ct	-96
▁l	-97
▁y	-98
▁e	-99
नुह	-100
▁वि	-101
▁I	-102
नी	-103
ता	-104
▁हु	-105
ap	-106
▁ति	-107
म्	-108
om	-109
ाल	-110
ित	-111
▁you	-112
▁g	-113
▁re	-114
▁is	-115
▁S	-116
▁च	-117
ut	-118
एको	-119
रा	-120
ोस्	-121
im	-122
्व	-123
us	-124
am	-125
ाँ	-126
▁का	-127
▁न	-128
id	-129
्या	-130
▁for	-131
नुहोस्	-132
ill	-133
qu	-134
▁The	-135
थि	-136
ation	-137
ad	-138
था	-139
न्छ	-140
ay	-141
et	-142
▁नि	-143
▁फ	-144
▁A	-145
▁श	-146
त्र	-147
मी	-148
ol	-149
▁ए	-150
ow	-151
ेश	-152
पा	-153
apos	-154
▁ख	-155
▁-	-156
दा	-157
▁त्य	-158
ur	-159
▁C	-160
el	-161
▁ल	-162
री	-163
▁on	-164
्ट	-165
▁he	-166
या	-167
▁यो	-168
ac	-169
▁ला	-170
ig	-171
रे	-172
ver	-173
ाट	-174
ाइ	-175
▁wh	-176
ment	-177
स्त	-178
हरु	-179
▁यस	-180
▁गर्न	-181
quot	-182
▁al	-183
ाउ	-184
▁will	-185
नेछ	-186
ir	-187
▁P	-188
st	-189
क्ष	-190
▁गरि	-191
▁pro	-192
od	-193
▁that	-194
ly	-195
▁रा	-196
▁)	-197
ल्	-198
िक	-199
▁not	-200
▁st	-201
▁दि	-202
▁:	-203
▁थि	-204
वा	-205
▁कु	-206
▁(	-207
▁गर्नुहोस्	-208
त्	-209
▁it	-210
▁sh	-211
ith	-212
ag	-213
▁सा	-214
ul	-215
her	-216
▁मानि	-217
▁लाग	-218
▁M	-219
op	-220
▁B	-221
▁de	-222
▁मानिस	-223
ैन	-224
ter	-225
▁पर	-226
▁con	-227
ab	-228
and	-229
▁se	-230
बाट	-231
ri	-232
ेर	-233
▁with	-234
नीहरू	-235
▁स्	-236
▁पनि	-237
ave	-238
▁परम	-239
▁अनि	-240
▁D	-241
if	-242
ess	-243
▁are	-244
ch	-245
▁पा	-246
▁u	-247
ke	-248
ce	-249
हि	-250
▁सु	-251
ain	-252
▁;	-253
all	-254
▁तिमी	-255
ष्ट	-256
▁H	-257
se	-258
पाई	-259
▁G	-260
ist	-261
ah	-262
न्द	-263
ेख	-264
▁an	-265
▁N	-266
रण	-267
▁गरे	-268
र्य	-269
ore	-270
द्	-271
▁सं	-272
्न	-273
▁तपाई	-274
प्र	-275
▁as	-276
टा	-277
▁?	-278
▁सम	-279
▁Y	-280
▁com	-281
▁के	-282
▁लागि	-283
th	-284
▁तिनीहरू	-285
योग	-286
ld	-287
जना	-288
rom	-289
▁r	-290
हाँ	-291
nt	-292
▁this	-293
▁F	-294
▁हो	-295
▁E	-296
ate	-297
▁was	-298
ere	-299
▁हा	-300
धि	-301
▁from	-302
ङ्	-303
▁सम्	-304
▁have	-305
हे	-306
ect	-307
जा	-308
▁v	-309
▁ध	-310
▁1	-311
▁by	-312
▁पु	-313
▁W	-314
▁ex	-315
▁ड	-316
▁आफ	-317
दि	-318
est	-319
▁or	-320
वि	-321
▁त्यस	-322
▁भने	-323
▁मानिसहरू	-324
em	-325
▁R	-326
ही	-327
▁has	-328
▁your	-329
▁कि	-330
res	-331
ञ्	-332
ers	-333
ान	-334
▁कार्य	-335
ort	-336
igh	-337
्रा	-338
लो	-339
▁वा	-340
के	-341
▁घ	-342
oc	-343
ive	-344
um	-345
▁देख	-346
न्त	-347
्रो	-348
▁भन्	-349
▁k	-350
iv	-351
▁ne	-352
ame	-353
ity	-354
▁पर्	-355
ord	-356
▁J	-357
▁परि	-358
▁से	-359
▁ch	-360
pe	-361
▁us	-362
▁all	-363
▁तर	-364
▁भएको	-365
कार	-366
भु	-367
▁क्	-368
▁अनु	-369
▁इ	-370
▁his	-371
लि	-372
ूर्	-373
▁गर्ने	-374
क्र	-375
we	-376
▁su	-377
art	-378
ant	-379
प्	-380
कि	-381
ould	-382
▁L	-383
ies	-384
एका	-385
age	-386
▁ट	-387
▁१	-388
हा	-389
▁at	-390
▁उप	-391
▁“	-392
▁एक	-393
▁प्रति	-394
▁थिए	-395
▁सब	-396
▁who	-397
our	-398
▁तपाईँ	-399
प्रभु	-400
ra	-401
यन	-402
▁sa	-403
दै	-404
नुहु	-405
▁प्रयोग	-406
ep	-407
ile	-408
▁them	-409
स्था	-410
▁K	-411
▁तिमीहरू	-412
▁परमप्रभु	-413
▁ना	-414
▁स्व	-415
▁निर्	-416
▁सि	-417
ak	-418
▁/	-419
दछ	-420
सा	-421
गा	-422
▁तथा	-423
▁Th	-424
▁pl	-425
▁ठ	-426
▁him	-427
▁सबै	-428
pt	-429
▁सक्	-430
un	-431
भा	-432
ाइल	-433
gr	-434
ight	-435
▁tr	-436
▁छैन	-437
▁को	-438
▁me	-439
▁थियो	-440
pl	-441
vel	-442
▁२	-443
▁im	-444
छि	-445
▁In	-446
▁बा	-447
▁हुन्छ	-448
▁le	-449
▁go	-450
नको	-451
▁shall	-452
▁क्ष	-453
्वर	-454
ction	-455
▁एउ	-456
▁ती	-457
न्न	-458
▁गर्नु	-459
धार	-460
▁they	-461
रु	-462
▁Yah	-463
able	-464
▁प्रा	-465
ेश्वर	-466
दैन	-467
weh	-468
▁Yahweh	-469
ich	-470
▁व्य	-471
र्ष	-472
ैले	-473
▁O	-474
▁U	-475
gh	-476
▁per	-477
ure	-478
रो	-479
▁जा	-480
▁गरिएको	-481
रू	-482
▁परमेश्वर	-483
पमा	-484
port	-485
▁फाइल	-486
ud	-487
र्थ	-488
▁छन्	-489
ang	-490
नुहुन्छ	-491
ौं	-492
ard	-493
▁do	-494
▁"	-495
ial	-496
▁एउटा	-497
कास	-498
ear	-499
▁2	-500
▁”	-501
ind	-502
मि	-503
नै	-504
ult	-505
जी	-506
▁मु	-507
ँग	-508
▁man	-509
hen	-510
rou	-511
▁which	-512
▁नै	-513
ail	-514
▁can	-515
▁अव	-516
ust	-517
▁दु	-518
▁भयो	-519
iz	-520
्यो	-521
ous	-522
ेत्र	-523
ase	-524
न्य	-525
▁आफ्न	-526
so	-527
▁त्यो	-528
▁wor	-529
▁छो	-530
ाली	-531
▁कुरा	-532
▁said	-533
▁स्था	-534
▁बढ	-535
▁रू	-536
पर्	-537
old	-538
▁their	-539
cc	-540
टि	-541
द्ध	-542
ास	-543
▁my	-544
त्य	-545
▁भए	-546
ीहरू	-547
▁!	-548
▁'	-549
ie	-550
▁उत्	-551
ry	-552
क्ति	-553
ther	-554
ेल	-555
नमा	-556
▁बना	-557
▁विश	-558
red	-559
▁बि	-560
▁out	-561
ice	-562
ok	-563
▁क्षेत्र	-564
lect	-565
देश	-566
▁ad	-567
ven	-568
ount	-569
▁but	-570
ome	-571
▁also	-572
न्ध	-573
▁pe	-574
▁been	-575
भि	-576
▁हामी	-577
▁ab	-578
ast	-579
▁there	-580
▁inc	-581
▁मि	-582
▁dis	-583
▁विकास	-584
▁up	-585
उँ	-586
ेरो	-587
रहे	-588
्री	-589
▁आफ्नो	-590
ated	-591
सले	-592
▁मात्र	-593
्च	-594
ong	-595
सम्	-596
velop	-597
▁सञ्	-598
▁योजना	-599
▁were	-600
ake	-601
▁चा	-602
▁int	-603
▁ने	-604
one	-605
▁en	-606
▁लि	-607
क्रम	-608
म्रो	-609
ple	-610
ff	-611
▁ser	-612
ace	-613
du	-614
ारा	-615
ित्र	-616
ती	-617
सँग	-618
▁दा	-619
्ड	-620
▁This	-621
▁रु	-622
गत	-623
ue	-624
▁%	-625
ारी	-626
▁उहाँ	-627
ject	-628
▁He	-629
श्य	-630
ूल	-631
ध्य	-632
ild	-633
ell	-634
▁राख	-635
न्त्र	-636
याँ	-637
▁cont	-638
ली	-639
ade	-640
out	-641
▁ag	-642
ings	-643
ack	-644
fore	-645
▁कुनै	-646
▁one	-647
▁गरी	-648
ाउँ	-649
ज्	-650
▁pr	-651
▁समा	-652
की	-653
नले	-654
पछि	-655
ण्ड	-656
ide	-657
ary	-658
ople	-659
ru	-660
हरुको	-661
ays	-662
▁ले	-663
ine	-664
ose	-665
▁निम्	-666
▁हुन	-667
▁थ	-668
ाँच	-669
▁चयन	-670
नुभ	-671
ans	-672
ोल्	-673
▁मे	-674
▁हे	-675
पाद	-676
डि	-677
रमा	-678
ब्	-679
▁मेरो	-680
▁हुनेछ	-681
▁केही	-682
▁we	-683
▁जो	-684
▁वर्ष	-685
ress	-686
▁रो	-687
▁develop	-688
सि	-689
ेला	-690
▁हुने	-691
▁people	-692
ip	-693
हरूको	-694
▁year	-695
▁te	-696
स्तो	-697
▁तपाईं	-698
av	-699
▁पार्	-700
▁un	-701
og	-702
प्त	-703
▁file	-704
क्त	-705
▁op	-706
ेक	-707
ath	-708
▁सकि	-709
कारी	-710
▁God	-711
ib	-712
▁व्यव	-713
वर्	-714
ूच	-715
क्षा	-716
उन	-717
▁comm	-718
ctor	-719
स्तु	-720
▁पूर्	-721
चाल	-722
▁भा	-723
00	-724
ire	-725
ime	-726
एर	-727
▁res	-728
हरूले	-729
ेरै	-730
ost	-731
▁यदि	-732
▁आव	-733
ical	-734
▁अस	-735
▁झ	-736
करण	-737
डी	-738
एल	-739
ign	-740
इन	-741
▁धेरै	-742
▁गरेको	-743
own	-744
डा	-745
माण	-746
▁देखि	-747
छन्	-748
▁cl	-749
ेको	-750
ren	-751
▁j	-752
▁work	-753
▁खा	-754
▁तिनीहरूले	-755
▁off	-756
aus	-757
▁It	-758
▁no	-759
▁br	-760
▁शि	-761
ound	-762
सम्म	-763
उने	-764
सार	-765
▁You	-766
ंग	-767
▁bec	-768
▁रहे	-769
ition	-770
हरूलाई	-771
▁काम	-772
▁sp	-773
श्यक	-774
▁मैले	-775
ove	-776
शा	-777
ङ्ग	-778
भाव	-779
▁ro	-780
▁राजा	-781
हिले	-782
नका	-783
▁ap	-784
fter	-785
▁when	-786
▁जन	-787
▁समय	-788
स्तै	-789
▁यी	-790
▁हुँ	-791
▁मो	-792
int	-793
▁नेप	-794
gram	-795
्रि	-796
स्ता	-797
▁spe	-798
▁गर्दा	-799
▁कृ	-800
मान	-801
ance	-802
ass	-803
▁सर्	-804
very	-805
स्थ	-806
▁ढ	-807
▁Se	-808
पूर्	-809
▁ke	-810
▁ar	-811
▁सूच	-812
र्या	-813
ub	-814
▁कार्यक्रम	-815
▁सर	-816
ations	-817
▁देश	-818
▁आवश्यक	-819
चार	-820
बन्ध	-821
▁अर्	-822
▁तपाईँले	-823
ood	-824
▁मलाई	-825
▁लग	-826
nder	-827
con	-828
▁should	-829
दी	-830
र्ग	-831
▁निम्ति	-832
▁Nep	-833
▁`	-834
ber	-835
▁रूपमा	-836
▁other	-837
ाउन	-838
मे	-839
▁पू	-840
▁Nepal	-841
▁had	-842
▁if	-843
▁acc	-844
orm	-845
नुभयो	-846
टर	-847
द्धि	-848
▁development	-849
▁son	-850
▁Is	-851
▁३	-852
ick	-853
ष्	-854
▁किन	-855
▁या	-856
▁li	-857
▁made	-858
ater	-859
▁बच	-860
▁its	-861
र्ता	-862
ach	-863
▁more	-864
्रे	-865
are	-866
ause	-867
▁दिन	-868
्ने	-869
▁new	-870
▁गर्दछ	-871
ouse	-872
नो	-873
▁सो	-874
other	-875
▁Ch	-876
▁am	-877
xt	-878
▁सके	-879
hed	-880
▁नयाँ	-881
▁set	-882
न्दा	-883
▁again	-884
rough	-885
▁program	-886
▁There	-887
amp	-888
▁sc	-889
ट्ट	-890
▁२०	-891
टी	-892
▁incre	-893
▁pre	-894
ook	-895
▁child	-896
▁इस	-897
▁into	-898
▁serv	-899
▁But	-900
▁hand	-901
ities	-902
्याल	-903
low	-904
▁नाम	-905
▁comp	-906
▁५	-907
ree	-908
सको	-909
▁सह	-910
ज्ञ	-911
▁col	-912
ारे	-913
▁Sh	-914
▁शहर	-915
▁3	-916
te	-917
▁जि	-918
र्म	-919
ge	-920
रको	-921
▁हाल	-922
▁चि	-923
▁time	-924
सित	-925
▁४	-926
ूमि	-927
▁जु	-928
म्प	-929
ions	-930
पादन	-931
ather	-932
▁राज	-933
▁only	-934
ैं	-935
▁tw	-936
हु	-937
▁19	-938
▁so	-939
▁गु	-940
▁पि	-941
▁If	-942
टो	-943
र्श	-944
▁व्यवस्था	-945
▁जब	-946
▁इस्रा	-947
ish	-948
ia	-949
▁count	-950
▁जी	-951
त्व	-952
▁गरा	-953
हरूमा	-954
▁exp	-955
▁खो	-956
ृद्धि	-957
▁सन्द	-958
▁Pl	-959
▁part	-960
ष्टि	-961
क्रि	-962
▁ल्या	-963
▁वस्तु	-964
▁kn	-965
▁साथ	-966
तन	-967
▁land	-968
ark	-969
्रु	-970
▁V	-971
ied	-972
▁king	-973
cent	-974
▁cur	-975
▁For	-976
्वारा	-977
▁अन्त	-978
reat	-979
▁हि	-980
cess	-981
▁name	-982
▁rem	-983
row	-984
ces	-985
▁under	-986
▁ind	-987
▁अन्य	-988
खा	-989
ual	-990
ict	-991
vern	-992
धा	-993
▁तब	-994
ख्या	-995
बा	-996
ुल	-997
उनु	-998
ite	-999
ning	-1000
▁रह	-1001
▁मह	-1002
ise	-1003
ङ्क	-1004
▁like	-1005
फल	-1006
नेछन्	-1007
ness	-1008
ved	-1009
▁प्रश	-1010
▁pol	-1011
गि	-1012
▁produ	-1013
▁अधि	-1014
ck	-1015
▁over	-1016
▁निय	-1017
ered	-1018
▁add	-1019
▁her	-1020
▁after	-1021
▁any	-1022
▁चाह	-1023
▁विश्व	-1024
rib	-1025
▁गर्छ	-1026
▁Al	-1027
जन	-1028
लिक	-1029
▁As	-1030
▁भन्ने	-1031
ग्	-1032
▁यह	-1033
▁house	-1034
कै	-1035
ange	-1036
पना	-1037
▁sy	-1038
▁सेवा	-1039
▁इस्राएल	-1040
क्षम	-1041
▁छोरा	-1042
निक	-1043
▁गर्दै	-1044
▁bl	-1045
योजना	-1046
▁बढी	-1047
form	-1048
▁say	-1049
vernment	-1050
rael	-1051
▁Israel	-1052
रहेको	-1053
ert	-1054
▁these	-1055
▁मानिसहरूले	-1056
र्फ	-1057
ari	-1058
▁प्रत्य	-1059
tern	-1060
▁नेपाल	-1061
ens	-1062
मु	-1063
▁बो	-1064
▁परिवर्	-1065
▁may	-1066
urn	-1067
ल्ला	-1068
ेष	-1069
पूर्ण	-1070
▁inst	-1071
▁नग	-1072
▁pri	-1073
get	-1074
चालन	-1075
▁before	-1076
ालि	-1077
्यु	-1078
जार	-1079
ेट	-1080
सी	-1081
▁लगा	-1082
▁त्यहाँ	-1083
▁use	-1084
▁परमप्रभुले	-1085
▁select	-1086
▁day	-1087
▁val	-1088
नलाई	-1089
भन्दा	-1090
▁तिनीहरूलाई	-1091
▁Wh	-1092
वार	-1093
कर्ता	-1094
act	-1095
न्ट	-1096
▁व्या	-1097
▁उपल	-1098
्छ	-1099
ाउने	-1100
sel	-1101
ेत	-1102
▁children	-1103
▁भएका	-1104
ेशू	-1105
▁cons	-1106
▁हुनु	-1107
▁सिर्	-1108
▁even	-1109
▁आफ्	-1110
▁fe	-1111
▁प्रकार	-1112
▁येशू	-1113
▁ता	-1114
▁about	-1115
शत	-1116
▁reg	-1117
देख	-1118
▁पर्छ	-1119
▁did	-1120
ror	-1121
▁पहि	-1122
▁num	-1123
▁मान	-1124
मो	-1125
▁मानिसहरूलाई	-1126
▁कस	-1127
्रम	-1128
▁बु	-1129
▁सिर्जना	-1130
▁dist	-1131
ational	-1132
▁प्रतिशत	-1133
ob	-1134
▁शा	-1135
▁men	-1136
▁They	-1137
द्वारा	-1138
▁छु	-1139
▁than	-1140
▁Plan	-1141
▁खु	-1142
▁sup	-1143
न्ड	-1144
▁make	-1145
ments	-1146
▁पुन	-1147
पि	-1148
ञ्जी	-1149
▁De	-1150
श्च	-1151
▁loc	-1152
▁कारण	-1153
▁inv	-1154
ording	-1155
▁qu	-1156
iew	-1157
ence	-1158
▁giv	-1159
read	-1160
led	-1161
▁निर्माण	-1162
ages	-1163
ूह	-1164
uring	-1165
ices	-1166
▁मूल	-1167
stem	-1168
▁fil	-1169
▁wr	-1170
▁ent	-1171
irst	-1172
▁ob	-1173
pro	-1174
▁project	-1175
▁त्रु	-1176
▁गरिनेछ	-1177
णा	-1178
▁5	-1179
▁रहेको	-1180
▁पछि	-1181
वाद	-1182
▁सकेन	-1183
▁4	-1184
▁सुरु	-1185
ink	-1186
▁प्रवि	-1187
▁लेख	-1188
▁whe	-1189
▁आर्	-1190
▁आफ्ना	-1191
rent	-1192
▁em	-1193
▁अब	-1194
▁सन्देश	-1195
▁प्राप्त	-1196
दो	-1197
थिति	-1198
▁यसको	-1199
▁त्रुटि	-1200
▁फे	-1201
▁परिवर्तन	-1202
▁सी	-1203
कृ	-1204
▁prov	-1205
हरुलाई	-1206
▁two	-1207
भिन्न	-1208
▁fore	-1209
▁पृ	-1210
चा	-1211
▁right	-1212
▁कुञ्जी	-1213
▁प्रत्येक	-1214
▁def	-1215
धिक	-1216
▁पठ	-1217
▁जस्तै	-1218
▁some	-1219
वी	-1220
▁spec	-1221
म्ब	-1222
ix	-1223
▁औ	-1224
▁ठू	-1225
▁Con	-1226
▁because	-1227
▁परमेश्वरले	-1228
▁जीव	-1229
द्र	-1230
ft	-1231
▁ear	-1232
ution	-1233
▁come	-1234
▁Re	-1235
▁key	-1236
▁जसले	-1237
▁स्वा	-1238
▁फि	-1239
▁used	-1240
जि	-1241
▁था	-1242
▁विष	-1243
▁बचत	-1244
घि	-1245
oint	-1246
▁स्त	-1247
▁छवि	-1248
▁महि	-1249
▁सेट	-1250
ष्ठ	-1251
दर्श	-1252
▁उपलब्	-1253
ural	-1254
▁des	-1255
ज्ञा	-1256
▁हुन्	-1257
नेछु	-1258
▁list	-1259
▁start	-1260
देखि	-1261
▁know	-1262
iff	-1263
▁दृ	-1264
ताको	-1265
▁बाट	-1266
▁विभिन्न	-1267
▁Un	-1268
▁act	-1269
▁country	-1270
ted	-1271
▁came	-1272
ough	-1273
indow	-1274
सलाई	-1275
▁years	-1276
▁ed	-1277
les	-1278
▁does	-1279
▁St	-1280
ोल्ड	-1281
▁she	-1282
हरुमा	-1283
▁भाग	-1284
iod	-1285
min	-1286
सो	-1287
पर्छ	-1288
▁our	-1289
ower	-1290
ption	-1291
▁सङ्	-1292
arm	-1293
▁घट	-1294
▁भूमि	-1295
▁सक्छ	-1296
ory	-1297
▁पूर्व	-1298
▁gr	-1299
▁against	-1300
illion	-1301
▁पाठ	-1302
▁विद	-1303
▁आधार	-1304
से	-1305
▁बता	-1306
ाउनुहोस्	-1307
ock	-1308
▁Be	-1309
▁form	-1310
▁government	-1311
gan	-1312
▁est	-1313
▁want	-1314
▁गरेर	-1315
त्म	-1316
यात	-1317
▁तिमीहरूले	-1318
▁तपाईँको	-1319
ेद	-1320
▁pos	-1321
oth	-1322
▁those	-1323
up	-1324
▁जुन	-1325
▁यु	-1326
दान	-1327
▁डे	-1328
vers	-1329
▁percent	-1330
▁period	-1331
▁such	-1332
▁विशेष	-1333
▁down	-1334
ased	-1335
ubl	-1336
ons	-1337
▁उपलब्ध	-1338
▁होइन	-1339
▁current	-1340
क्षण	-1341
▁भन्दा	-1342
शी	-1343
▁विषय	-1344
भर	-1345
▁छा	-1346
ents	-1347
▁सूची	-1348
aw	-1349
थिक	-1350
यु	-1351
▁संस्था	-1352
नीति	-1353
▁eff	-1354
सु	-1355
▁यसका	-1356
ble	-1357
हार	-1358
▁diff	-1359
क्स	-1360
▁उहाँले	-1361
▁good	-1362
▁फोल्ड	-1363
न्या	-1364
▁६	-1365
▁first	-1366
▁through	-1367
▁open	-1368
००	-1369
▁En	-1370
▁अर्को	-1371
लग	-1372
▁..	-1373
▁system	-1374
म्रा	-1375
ल्प	-1376
▁पार	-1377
▁number	-1378
▁त्यसपछि	-1379
▁रङ	-1380
▁सञ्चालन	-1381
ible	-1382
▁कृष	-1383
▁plan	-1384
▁आर्थिक	-1385
▁उत्पादन	-1386
wn	-1387
▁यहू	-1388
▁गा	-1389
ific	-1390
iel	-1391
▁8	-1392
▁see	-1393
▁sector	-1394
▁कम	-1395
न्द्र	-1396
भने	-1397
न्ति	-1398
▁const	-1399
माथि	-1400
द्यो	-1401
▁हर	-1402
▁father	-1403
▁सम्बन्ध	-1404
▁...	-1405
ाउनु	-1406
नीय	-1407
लागि	-1408
▁cap	-1409
▁bu	-1410
कु	-1411
way	-1412
मको	-1413
ife	-1414
▁माथि	-1415
र्न	-1416
▁बी	-1417
द्योग	-1418
▁found	-1419
▁rel	-1420
मित	-1421
▁co	-1422
▁Ind	-1423
▁उच	-1424
कको	-1425
▁prop	-1426
र्च	-1427
ale	-1428
icult	-1429
▁cre	-1430
▁every	-1431
झ्याल	-1432
ank	-1433
▁Could	-1434
▁अग	-1435
ener	-1436
▁word	-1437
न्व	-1438
▁उसले	-1439
oy	-1440
▁अहिले	-1441
लमा	-1442
ेस	-1443
▁किनभने	-1444
▁’	-1445
ful	-1446
▁पानी	-1447
▁command	-1448
▁दे	-1449
▁स्ट	-1450
▁mess	-1451
▁programm	-1452
▁गरेका	-1453
▁रुपमा	-1454
▁pres	-1455
▁शु	-1456
lease	-1457
ility	-1458
▁सञ्झ्याल	-1459
▁When	-1460
ize	-1461
▁given	-1462
सके	-1463
▁फर्	-1464
▁lo	-1465
▁यसलाई	-1466
▁selected	-1467
▁विक	-1468
▁window	-1469
न्छन्	-1470
▁call	-1471
▁व्यक्ति	-1472
▁then	-1473
▁समूह	-1474
▁same	-1475
▁mod	-1476
▁अवधि	-1477
▁Ne	-1478
▁क्षेत्रमा	-1479
▁आयोजना	-1480
▁conf	-1481
not	-1482
▁need	-1483
▁water	-1484
ward	-1485
hold	-1486
्यान	-1487
▁मुख	-1488
▁On	-1489
▁यहाँ	-1490
▁पुग	-1491
ai	-1492
▁बे	-1493
conom	-1494
रहेका	-1495
▁सामा	-1496
फि	-1497
मति	-1498
▁सरकार	-1499
▁‘	-1500
▁6	-1501
ating	-1502
▁att	-1503
▁many	-1504
एन	-1505
हरूका	-1506
vent	-1507
▁wom	-1508
▁अभि	-1509
▁import	-1510
पु	-1511
▁fold	-1512
▁लो	-1513
▁bet	-1514
▁पो	-1515
र्ड	-1516
▁गर	-1517
तिर	-1518
▁शक्ति	-1519
▁mon	-1520
▁प्रदर्श	-1521
▁ठूलो	-1522
▁लु	-1523
▁says	-1524
und	-1525
▁dec	-1526
▁went	-1527
▁fol	-1528
▁way	-1529
itt	-1530
▁av	-1531
निर्	-1532
▁ओ	-1533
ative	-1534
▁स्थापना	-1535
iss	-1536
ool	-1537
शु	-1538
▁७	-1539
ors	-1540
▁Can	-1541
▁विस्त	-1542
लको	-1543
▁गो	-1544
aj	-1545
▁pass	-1546
▁पर्ने	-1547
ars	-1548
ेका	-1549
▁भन्नुभयो	-1550
au	-1551
ield	-1552
▁यस्तो	-1553
▁दिइ	-1554
▁व्याप	-1555
ves	-1556
▁ठाउँ	-1557
▁तिमीहरूलाई	-1558
app	-1559
कमा	-1560
hes	-1561
▁अघि	-1562
▁fl	-1563
त्मक	-1564
▁बस्	-1565
▁कन्	-1566
▁would	-1567
▁परे	-1568
ely	-1569
▁घर	-1570
▁could	-1571
ल्ट	-1572
▁बन्द	-1573
▁पढ	-1574
स्या	-1575
▁राष्ट	-1576
▁ty	-1577
▁दो	-1578
ामा	-1579
▁requ	-1580
▁image	-1581
▁रि	-1582
der	-1583
▁trans	-1584
▁Select	-1585
▁नभ	-1586
alth	-1587
णाली	-1588
▁get	-1589
▁dire	-1590
्नु	-1591
ublic	-1592
▁साथै	-1593
▁level	-1594
▁परमप्रभुको	-1595
हरुले	-1596
▁econom	-1597
▁No	-1598
ient	-1599
ऊद	-1600
ious	-1601
थ्यो	-1602
▁million	-1603
▁प्रभाव	-1604
▁let	-1605
▁गरिने	-1606
▁कम्प	-1607
ीय	-1608
▁स्थिति	-1609
▁तिमीले	-1610
▁क्रम	-1611
▁end	-1612
▁परमेश्वरको	-1613
यास	-1614
तमा	-1615
ates	-1616
▁खोल्	-1617
▁कृषि	-1618
▁sub	-1619
▁दिनु	-1620
▁हुनुहुन्छ	-1621
its	-1622
▁८	-1623
▁अस्	-1624
▁तिनी	-1625
ified	-1626
▁फेरि	-1627
जु	-1628
▁जे	-1629
▁place	-1630
▁during	-1631
▁cor	-1632
▁great	-1633
धारण	-1634
ries	-1635
▁सम्म	-1636
▁9	-1637
▁यसले	-1638
▁now	-1639
rict	-1640
▁Com	-1641
▁विश्वास	-1642
▁शिक्षा	-1643
round	-1644
▁पूजा	-1645
▁दाऊद	-1646
▁लक्ष	-1647
▁भो	-1648
▁take	-1649
▁तिम्रो	-1650
थे	-1651
▁X	-1652
हाय	-1653
play	-1654
▁पत्र	-1655
▁follow	-1656
▁गरिएका	-1657
ूत	-1658
ph	-1659
▁उनी	-1660
▁things	-1661
सन	-1662
mand	-1663
वेश	-1664
ailed	-1665
ंश	-1666
धान	-1667
heck	-1668
थम	-1669
▁फोल्डर	-1670
ants	-1671
▁aut	-1672
संग	-1673
▁offer	-1674
▁tak	-1675
यार	-1676
छु	-1677
anc	-1678
000	-1679
व्य	-1680
▁saying	-1681
काश	-1682
▁what	-1683
▁differe	-1684
यर	-1685
ata	-1686
डीई	-1687
्रह	-1688
▁where	-1689
▁अरू	-1690
ute	-1691
rol	-1692
ures	-1693
▁sin	-1694
▁प्रणाली	-1695
▁pers	-1696
▁7	-1697
▁हट	-1698
पन	-1699
▁0	-1700
gin	-1701
▁Pro	-1702
▁So	-1703
▁अझ	-1704
ढा	-1705
arch	-1706
aining	-1707
▁हाम्रो	-1708
▁पाल	-1709
▁केडीई	-1710
ध्ये	-1711
▁read	-1712
▁text	-1713
▁दुई	-1714
▁राम्रो	-1715
▁दिए	-1716
▁back	-1717
रह	-1718
जिक	-1719
▁main	-1720
▁उनले	-1721
▁सक्नुहुन्छ	-1722
ault	-1723
▁आदेश	-1724
लु	-1725
च्छ	-1726
▁भे	-1727
ँदैन	-1728
▁उत्त	-1729
▁श्री	-1730
ल्लो	-1731
▁असफल	-1732
▁\	-1733
▁object	-1734
▁बाँ	-1735
▁तालि	-1736
अनु	-1737
▁An	-1738
▁own	-1739
ains	-1740
समा	-1741
nect	-1742
▁कुल	-1743
ished	-1744
▁days	-1745
टक	-1746
▁डि	-1747
ines	-1748
▁प्	-1749
पी	-1750
टन	-1751
स्क	-1752
▁प्रो	-1753
्रोत	-1754
धारित	-1755
र्ने	-1756
ailable	-1757
मुख	-1758
▁Ex	-1759
▁comple	-1760
▁९	-1761
▁प्रयास	-1762
▁वै	-1763
▁जाँच	-1764
▁समस्या	-1765
▁जान	-1766
▁भार	-1767
▁high	-1768
गो	-1769
▁mark	-1770
▁enc	-1771
▁साम	-1772
रोध	-1773
▁Ph	-1774
पया	-1775
▁चु	-1776
▁increase	-1777
▁सहाय	-1778
▁very	-1779
स्थित	-1780
▁अनुमति	-1781
▁जिल्ला	-1782
म्भ	-1783
▁इस्राएलका	-1784
ax	-1785
▁सर्व	-1786
▁Z	-1787
▁show	-1788
▁नीति	-1789
▁Ad	-1790
uc	-1791
तर्फ	-1792
▁stud	-1793
▁होस्	-1794
ital	-1795
पर्ने	-1796
▁मेरा	-1797
▁liv	-1798
gricult	-1799
▁कुराहरू	-1800
वित्र	-1801
▁indust	-1802
▁str	-1803
▁बेला	-1804
▁प्रयोगकर्ता	-1805
▁फेला	-1806
▁उनीहरू	-1807
▁विकल्प	-1808
ts	-1809
तन्त्र	-1810
▁कृपया	-1811
▁बाल	-1812
स्थ्य	-1813
ters	-1814
▁बाहि	-1815
formation	-1816
▁अप	-1817
ween	-1818
▁उसको	-1819
▁according	-1820
▁सात	-1821
भव	-1822
plement	-1823
▁dr	-1824
्नुहोस्	-1825
क्ता	-1826
▁अध्य	-1827
▁sm	-1828
▁organ	-1829
▁जस्तो	-1830
eth	-1831
blem	-1832
▁while	-1833
ization	-1834
▁स्थानीय	-1835
▁लगानी	-1836
▁available	-1837
त्ति	-1838
▁disc	-1839
▁ev	-1840
ify	-1841
रिक	-1842
▁cent	-1843
▁गए	-1844
▁To	-1845
▁भइ	-1846
▁ret	-1847
डान	-1848
फिग	-1849
▁जना	-1850
▁वर्	-1851
▁सक्षम	-1852
gt	-1853
▁Pr	-1854
▁यसकारण	-1855
क्ट	-1856
वरण	-1857
▁grow	-1858
▁rec	-1859
ash	-1860
▁भि	-1861
gy	-1862
▁folder	-1863
▁मुद्र	-1864
▁मूल्य	-1865
▁तिनीहरूको	-1866
युक्त	-1867
▁Then	-1868
यौ	-1869
▁&#	-1870
word	-1871
▁लक्ष्य	-1872
ving	-1873
ल्य	-1874
▁files	-1875
रिका	-1876
▁Please	-1877
तिक	-1878
▁constru	-1879
▁&#9	-1880
▁परिवार	-1881
▁between	-1882
▁सन्	-1883
lection	-1884
ident	-1885
▁स्थान	-1886
▁तिमीलाई	-1887
▁उद्	-1888
▁head	-1889
ty	-1890
ote	-1891
▁ph	-1892
▁बृद्धि	-1893
बी	-1894
▁उठ	-1895
▁local	-1896
न्दि	-1897
▁ful	-1898
▁hel	-1899
▁पृष्ठ	-1900
▁अवस्था	-1901
▁कार्या	-1902
▁टा	-1903
plic	-1904
▁गरियो	-1905
▁=	-1906
▁er	-1907
pend	-1908
▁कन्फिग	-1909
हो	-1910
▁ऊ	-1911
▁Now	-1912
▁gener	-1913
▁different	-1914
▁away	-1915
▁vari	-1916
िएको	-1917
▁ass	-1918
abl	-1919
▁चौ	-1920
▁heart	-1921
▁प्रदर्शन	-1922
▁पाइ	-1923
▁पाप	-1924
tal	-1925
र्नुहोस्	-1926
▁वृद्धि	-1927
▁Do	-1928
▁मुख्य	-1929
ित्	-1930
ared	-1931
ज्य	-1932
▁invest	-1933
सं	-1934
uch	-1935
▁fin	-1936
▁उद्योग	-1937
cessary	-1938
▁Ar	-1939
▁पूरा	-1940
▁problem	-1941
नामा	-1942
▁अति	-1943
▁poss	-1944
▁फो	-1945
दिष्ट	-1946
मका	-1947
▁खाली	-1948
▁अवधिमा	-1949
alk	-1950
ody	-1951
self	-1952
▁three	-1953
▁पहिले	-1954
▁केन्द्र	-1955
▁implement	-1956
▁१९	-1957
▁give	-1958
▁view	-1959
▁being	-1960
ets	-1961
▁इन्	-1962
▁साइ	-1963
क्रिया	-1964
roup	-1965
▁left	-1966
▁public	-1967
chn	-1968
▁अर्थ	-1969
▁exist	-1970
▁विस्तार	-1971
▁काठ	-1972
▁polic	-1973
▁हालको	-1974
▁कार्यान्व	-1975
▁production	-1976
▁bas	-1977
▁थप	-1978
bo	-1979
▁त्यही	-1980
▁सरकारी	-1981
▁हुँदैन	-1982
pect	-1983
निर्धारित	-1984
मै	-1985
ork	-1986
त्या	-1987
ian	-1988
भित्र	-1989
▁पर्दछ	-1990
उनुहोस्	-1991
▁पवित्र	-1992
▁आदि	-1993
▁देखिन्छ	-1994
air	-1995
▁Er	-1996
श्	-1997
ract	-1998
▁don	-1999
▁#	-2000
rought	-2001
▁put	-2002
▁तह	-2003
▁निर्दिष्ट	-2004
▁Am	-2005
▁fam	-2006
▁field	-2007
शले	-2008
श्र	-2009
▁टे	-2010
बार	-2011
▁Lord	-2012
▁नाउँ	-2013
याह	-2014
षा	-2015
▁$	-2016
पत्र	-2017
▁order	-2018
▁मन्दि	-2019
ting	-2020
▁health	-2021
नाको	-2022
▁कर्	-2023
ized	-2024
▁life	-2025
▁तपाईंले	-2026
▁कति	-2027
▁long	-2028
▁soc	-2029
▁रोग	-2030
ced	-2031
▁oper	-2032
▁Dav	-2033
▁How	-2034
▁बजार	-2035
▁काग	-2036
▁among	-2037
▁गर्नुभ	-2038
end	-2039
▁सुर	-2040
▁Therefore	-2041
▁बारे	-2042
▁नियन्त्र	-2043
▁min	-2044
▁Rs	-2045
▁आएको	-2046
▁David	-2047
▁आइ	-2048
augh	-2049
▁हात	-2050
▁chang	-2051
▁brother	-2052
ond	-2053
▁help	-2054
▁क्लिक	-2055
▁support	-2056
ys	-2057
▁ग्रा	-2058
▁वे	-2059
▁how	-2060
▁well	-2061
▁भनेर	-2062
▁हामीले	-2063
▁information	-2064
▁educ	-2065
▁सहयोग	-2066
▁20	-2067
वटा	-2068
ालय	-2069
▁भनि	-2070
▁क्या	-2071
अनुसार	-2072
▁another	-2073
चि	-2074
▁निका	-2075
els	-2076
▁color	-2077
पो	-2078
▁बाटो	-2079
▁Ab	-2080
▁must	-2081
▁तल	-2082
▁sk	-2083
▁गि	-2084
▁पुर्या	-2085
▁व्यापार	-2086
▁पूर्वनिर्धारित	-2087
▁जडान	-2088
▁effect	-2089
▁district	-2090
▁run	-2091
ited	-2092
▁earth	-2093
उँछ	-2094
र्गत	-2095
▁Error	-2096
▁स्रोत	-2097
रोड	-2098
▁मृ	-2099
▁activ	-2100
▁brought	-2101
ैठ	-2102
eter	-2103
▁Acc	-2104
▁car	-2105
▁यहूदा	-2106
ulation	-2107
▁display	-2108
रले	-2109
्वी	-2110
▁fac	-2111
▁जीवन	-2112
▁उपयोग	-2113
ममा	-2114
क्टर	-2115
▁here	-2116
▁establ	-2117
▁चाहनुहुन्छ	-2118
▁कार्यान्वयन	-2119
▁तयार	-2120
▁called	-2121
put	-2122
सक्	-2123
▁sur	-2124
ired	-2125
▁खर्च	-2126
ीहरूले	-2127
▁pop	-2128
▁city	-2129
▁world	-2130
▁तपाईंको	-2131
ither	-2132
▁sons	-2133
▁हामीलाई	-2134
ument	-2135
▁सूचना	-2136
▁process	-2137
धन	-2138
▁शब्	-2139
ever	-2140
ources	-2141
▁यसर्थ	-2142
▁तीन	-2143
▁happ	-2144
▁नेपाली	-2145
sh	-2146
ular	-2147
▁bel	-2148
डियो	-2149
▁तुल	-2150
▁nor	-2151
▁करोड	-2152
ally	-2153
▁type	-2154
यत	-2155
नाले	-2156
शि	-2157
orn	-2158
▁*	-2159
▁gl	-2160
▁food	-2161
▁sign	-2162
▁बाहिर	-2163
▁प्रमाण	-2164
▁po	-2165
▁power	-2166
▁स्वास्थ्य	-2167
▁Tr	-2168
ites	-2169
▁sent	-2170
▁प्रे	-2171
▁सुधार	-2172
वाह	-2173
▁आफू	-2174
▁यरू	-2175
लेख	-2176
▁All	-2177
▁समु	-2178
▁उच्च	-2179
▁उसलाई	-2180
▁विदेश	-2181
▁समयमा	-2182
ric	-2183
▁server	-2184
ply	-2185
az	-2186
▁अथ	-2187
cond	-2188
विधा	-2189
▁connect	-2190
▁bo	-2191
▁शब्द	-2192
कले	-2193
▁कर्म	-2194
▁techn	-2195
▁month	-2196
▁निश्च	-2197
देश्य	-2198
lud	-2199
ily	-2200
▁agricult	-2201
▁We	-2202
▁Whe	-2203
▁Go	-2204
▁Set	-2205
▁सकिँदैन	-2206
चन	-2207
▁value	-2208
▁bring	-2209
▁पिता	-2210
वल	-2211
▁dev	-2212
ource	-2213
▁अथवा	-2214
▁दिने	-2215
▁At	-2216
uation	-2217
▁यसरी	-2218
▁After	-2219
▁Im	-2220
▁del	-2221
लाइ	-2222
▁मौ	-2223
कहरू	-2224
ives	-2225
्रय	-2226
▁four	-2227
▁नियन्त्रण	-2228
पले	-2229
▁भनी	-2230
▁rest	-2231
▁projects	-2232
▁Man	-2233
कहाँ	-2234
▁old	-2235
▁area	-2236
ues	-2237
ried	-2238
▁थिएन	-2239
णी	-2240
क्षित	-2241
▁मानिसले	-2242
▁यरूशले	-2243
cy	-2244
▁option	-2245
▁खोजी	-2246
▁भित्र	-2247
थमिक	-2248
▁सम्झ	-2249
iah	-2250
▁Jer	-2251
▁message	-2252
▁necessary	-2253
▁पहिलो	-2254
▁She	-2255
▁med	-2256
▁न्य	-2257
▁समेत	-2258
तो	-2259
▁प्रविष्ट	-2260
▁गरिन्छ	-2261
त्रु	-2262
ec	-2263
ern	-2264
▁मन	-2265
ision	-2266
▁मोशा	-2267
▁छोड	-2268
▁सुविधा	-2269
▁book	-2270
io	-2271
▁समर्थ	-2272
यी	-2273
▁२०४	-2274
▁stand	-2275
aph	-2276
रका	-2277
▁done	-2278
ून	-2279
▁प्राथमिक	-2280
▁मोड	-2281
वै	-2282
द्द	-2283
▁ची	-2284
▁economic	-2285
▁ac	-2286
▁default	-2287
▁ज्	-2288
▁बलि	-2289
ousand	-2290
▁present	-2291
▁पार्न	-2292
▁provid	-2293
▁अनुसार	-2294
▁उद्देश्य	-2295
▁find	-2296
ल्यै	-2297
▁error	-2298
▁सकिन्छ	-2299
oses	-2300
▁Jes	-2301
▁ज्ञ	-2302
▁priv	-2303
▁बीच	-2304
▁देखा	-2305
▁राज्य	-2306
per	-2307
▁वित	-2308
ature	-2309
▁look	-2310
जो	-2311
बु	-2312
▁बुझ	-2313
▁डल	-2314
▁म्या	-2315
▁रेख	-2316
ctory	-2317
▁महत्व	-2318
पन्न	-2319
स्तव	-2320
▁eat	-2321
▁राष्ट्र	-2322
▁took	-2323
▁taken	-2324
ीत	-2325
▁Le	-2326
▁inter	-2327
▁body	-2328
▁might	-2329
▁०	-2330
▁छौ	-2331
▁road	-2332
▁अनुमान	-2333
▁शरी	-2334
टिङ	-2335
▁women	-2336
▁अध्ययन	-2337
oh	-2338
त्त	-2339
▁sit	-2340
▁अनुस	-2341
▁गर्नेछ	-2342
▁Cl	-2343
▁using	-2344
▁प्रदान	-2345
▁महिला	-2346
day	-2347
न्छु	-2348
▁mem	-2349
▁keep	-2350
li	-2351
▁परा	-2352
▁महा	-2353
▁mat	-2354
▁addition	-2355
▁without	-2356
▁thousand	-2357
पनि	-2358
▁ter	-2359
▁संस्	-2360
▁group	-2361
▁foreign	-2362
ton	-2363
▁Jud	-2364
▁play	-2365
▁ऋ	-2366
ism	-2367
▁ins	-2368
▁जन्	-2369
▁priest	-2370
▁पी	-2371
outh	-2372
sw	-2373
▁data	-2374
▁stat	-2375
▁areas	-2376
▁मिश्र	-2377
▁Use	-2378
▁last	-2379
▁सड	-2380
olog	-2381
▁tar	-2382
▁संग	-2383
क्रमण	-2384
▁each	-2385
▁हुन्छन्	-2386
म्मा	-2387
▁tem	-2388
▁person	-2389
▁सर्भर	-2390
par	-2391
▁चार	-2392
भूमि	-2393
▁विषयमा	-2394
▁programmes	-2395
कल	-2396
▁lay	-2397
▁Jesus	-2398
▁अक्षम	-2399
▁create	-2400
▁नो	-2401
▁उत्पाद	-2402
istr	-2403
▁ext	-2404
▁मुद्रण	-2405
mb	-2406
बो	-2407
▁आज	-2408
dom	-2409
सकेको	-2410
प्ति	-2411
ready	-2412
▁dep	-2413
ened	-2414
▁तर्	-2415
▁संर	-2416
▁उपकरण	-2417
▁Cannot	-2418
ML	-2419
▁return	-2420
▁त्यसको	-2421
▁योजनाको	-2422
हित	-2423
ploy	-2424
▁पुस्त	-2425
▁dest	-2426
▁सद	-2427
▁just	-2428
▁point	-2429
▁प्या	-2430
▁खे	-2431
▁हाम्रा	-2432
▁एव	-2433
▁doc	-2434
▁मेट	-2435
▁वितरण	-2436
▁According	-2437
▁छि	-2438
ames	-2439
▁डाइ	-2440
▁हजार	-2441
▁स्वर्ग	-2442
oun	-2443
ञ्च	-2444
▁जवा	-2445
▁line	-2446
▁rece	-2447
als	-2448
ger	-2449
▁total	-2450
▁सक्ने	-2451
▁चाल	-2452
▁न्या	-2453
▁contin	-2454
▁सम्पादन	-2455
ically	-2456
सर	-2457
▁mid	-2458
ually	-2459
▁increased	-2460
▁भेट	-2461
यम	-2462
oice	-2463
▁cle	-2464
elf	-2465
द्य	-2466
▁``	-2467
▁शै	-2468
▁fr	-2469
▁prin	-2470
▁शत्रु	-2471
▁सम्पूर्ण	-2472
पट्ट	-2473
भाग	-2474
▁चाँ	-2475
cept	-2476
▁ey	-2477
त्मा	-2478
▁198	-2479
▁पास	-2480
ected	-2481
क्रिय	-2482
▁पत्	-2483
unction	-2484
▁उहाँको	-2485
▁service	-2486
▁services	-2487
बद्ध	-2488
illed	-2489
rop	-2490
▁pur	-2491
▁answ	-2492
▁market	-2493
ग्री	-2494
▁most	-2495
▁कागजा	-2496
erv	-2497
▁unt	-2498
▁पृथ	-2499
▁works	-2500
▁गर्यो	-2501
ूब	-2502
ird	-2503
chool	-2504
oad	-2505
▁१०	-2506
▁What	-2507
▁mult	-2508
बि	-2509
र्व	-2510
स्य	-2511
▁due	-2512
miss	-2513
▁includ	-2514
न्दु	-2515
चालित	-2516
▁लिएर	-2517
भो	-2518
▁डेटा	-2519
▁x	-2520
▁Show	-2521
▁config	-2522
▁education	-2523
man	-2524
परि	-2525
less	-2526
reen	-2527
▁both	-2528
▁conc	-2529
▁अधिकार	-2530
▁cert	-2531
▁already	-2532
▁New	-2533
▁law	-2534
aking	-2535
▁मूर्	-2536
त्यु	-2537
▁following	-2538
▁पार्नुहोस्	-2539
▁10	-2540
तिको	-2541
▁जोड	-2542
कूल	-2543
selves	-2544
▁पूर्ण	-2545
पर	-2546
मले	-2547
▁check	-2548
ority	-2549
▁सहायता	-2550
ained	-2551
मध्ये	-2552
▁आवश्यकता	-2553
,000	-2554
▁काठमा	-2555
▁aff	-2556
▁भएर	-2557
▁वास्तव	-2558
oke	-2559
▁घो	-2560
▁उत्तर	-2561
▁started	-2562
▁अवस्थित	-2563
▁घु	-2564
ised	-2565
रेक्ट	-2566
▁consid	-2567
▁तिनीहरूका	-2568
tc	-2569
ems	-2570
▁लोड	-2571
▁प्रशास	-2572
▁move	-2573
▁कसैले	-2574
▁निम्न	-2575
ीक	-2576
▁छैनन्	-2577
▁पृथ्वी	-2578
▁गर्छन्	-2579
▁यू	-2580
▁user	-2581
ीहरूलाई	-2582
▁चला	-2583
▁char	-2584
▁install	-2585
▁प्रमुख	-2586
hem	-2587
ुवा	-2588
▁यि	-2589
▁par	-2590
▁kind	-2591
▁ढाँच	-2592
▁compan	-2593
▁दृष्टि	-2594
लिपि	-2595
्रिय	-2596
▁भाइ	-2597
por	-2598
▁जहाँ	-2599
▁निजी	-2600
सम्बन्ध	-2601
▁प्रक्रिया	-2602
▁भन्नु	-2603
▁target	-2604
ek	-2605
▁Bh	-2606
▁These	-2607
▁tre	-2608
▁turn	-2609
▁inf	-2610
▁India	-2611
▁product	-2612
▁क्षेत्रको	-2613
ठा	-2614
▁अन	-2615
▁prof	-2616
द्या	-2617
▁impro	-2618
iet	-2619
▁dem	-2620
▁पशु	-2621
▁योग	-2622
▁लाई	-2623
▁थाहा	-2624
▁गर्नका	-2625
▁येशूले	-2626
▁offering	-2627
तको	-2628
▁कर	-2629
▁Col	-2630
▁become	-2631
▁control	-2632
▁--	-2633
▁ref	-2634
iting	-2635
▁देशको	-2636
▁बनाउन	-2637
▁change	-2638
कन	-2639
जे	-2640
हुँ	-2641
▁bus	-2642
ministr	-2643
दाय	-2644
▁टि	-2645
▁सेना	-2646
▁small	-2647
ञ्ज	-2648
▁Moses	-2649
▁दुष्ट	-2650
▁कम्पनी	-2651
▁डाइरेक्ट	-2652
ont	-2653
▁bur	-2654
▁शास	-2655
ilities	-2656
▁around	-2657
▁मृत्यु	-2658
▁various	-2659
तीय	-2660
▁Je	-2661
दैछ	-2662
सका	-2663
▁ट्या	-2664
▁ठे	-2665
▁And	-2666
शक्ति	-2667
ask	-2668
स्ट	-2669
▁देशमा	-2670
▁तिमीहरूको	-2671
चना	-2672
ीको	-2673
▁bre	-2674
▁trad	-2675
▁तिमीहरूका	-2676
▁fa	-2677
▁सङ्के	-2678
▁ir	-2679
▁मार्ग	-2680
तामा	-2681
asing	-2682
▁farm	-2683
att	-2684
▁lab	-2685
▁आयात	-2686
▁construction	-2687
▁भएमा	-2688
▁सेटिङ	-2689
▁बारेमा	-2690
▁tim	-2691
▁अमे	-2692
iness	-2693
तम	-2694
▁अन्ति	-2695
▁region	-2696
▁पूर्वा	-2697
▁सङ्ख्या	-2698
▁appe	-2699
▁हरेक	-2700
▁Judah	-2701
▁therefore	-2702
▁देखाउनुहोस्	-2703
▁stru	-2704
ाटा	-2705
▁एवं	-2706
रूद्ध	-2707
▁वर्ण	-2708
▁until	-2709
▁आफ्नै	-2710
ik	-2711
डो	-2712
▁prom	-2713
▁दक्ष	-2714
▁फल	-2715
▁Kath	-2716
alem	-2717
▁चाहि	-2718
▁export	-2719
▁रेखा	-2720
▁Unable	-2721
▁national	-2722
▁पुरा	-2723
▁हुँदा	-2724
वक	-2725
वन	-2726
▁growth	-2727
▁आँ	-2728
▁दिएको	-2729
▁टु	-2730
▁function	-2731
्चा	-2732
▁लाख	-2733
▁tell	-2734
▁drink	-2735
▁विचार	-2736
▁document	-2737
▁prev	-2738
गाडि	-2739
▁गुण	-2740
▁private	-2741
▁डाइरेक्टरी	-2742
▁चीज	-2743
▁199	-2744
▁Jerus	-2745
▁blood	-2746
▁सम्भाव	-2747
दर	-2748
anch	-2749
हारी	-2750
▁ask	-2751
mandu	-2752
DE	-2753
न्ने	-2754
▁जाने	-2755
▁applic	-2756
▁Jerusalem	-2757
▁resources	-2758
▁Sc	-2759
ैनिक	-2760
▁log	-2761
▁save	-2762
▁policy	-2763
ha	-2764
▁+	-2765
▁able	-2766
▁आज्ञा	-2767
▁प्रकाश	-2768
▁त्यसैले	-2769
▁नदी	-2770
▁prot	-2771
▁संवाद	-2772
▁school	-2773
▁sl	-2774
साय	-2775
▁अन्त्य	-2776
gypt	-2777
▁appro	-2778
ics	-2779
▁आए	-2780
▁दुइ	-2781
▁ध्व	-2782
ner	-2783
▁My	-2784
पष्ट	-2785
▁didn	-2786
▁Egypt	-2787
▁Kathmandu	-2788
▁meet	-2789
▁estim	-2790
▁स्त्र	-2791
▁भन्नुहुन्छ	-2792
▁vis	-2793
ister	-2794
▁खाने	-2795
vert	-2796
▁pat	-2797
्रीष्ट	-2798
▁प्रतिलिपि	-2799
ex	-2800
नाम	-2801
▁ठीक	-2802
igation	-2803
▁मानिसहरूको	-2804
छा	-2805
ug	-2806
▁side	-2807
प्रयोग	-2808
▁lar	-2809
▁sec	-2810
▁नष्ट	-2811
eous	-2812
▁vill	-2813
▁उनको	-2814
ality	-2815
▁एकजना	-2816
▁Behold	-2817
▁चढ	-2818
▁उल्	-2819
फा	-2820
▁तरिका	-2821
▁तिनले	-2822
▁देव	-2823
▁second	-2824
▁training	-2825
ट्टा	-2826
ternal	-2827
▁युद्ध	-2828
▁action	-2829
सम्बन्धी	-2830
▁ख्रीष्ट	-2831
▁programme	-2832
▁स्वी	-2833
▁result	-2834
▁Whether	-2835
▁sure	-2836
aven	-2837
▁पहा	-2838
venth	-2839
▁much	-2840
▁mount	-2841
cted	-2842
oney	-2843
▁allow	-2844
ृत	-2845
ne	-2846
▁निश्चित	-2847
ists	-2848
▁ढु	-2849
▁अत्य	-2850
▁तथ	-2851
aces	-2852
▁Add	-2853
र्नु	-2854
ience	-2855
▁साँच	-2856
▁enter	-2857
▁मालिक	-2858
▁अन्तिम	-2859
▁Op	-2860
ying	-2861
ination	-2862
▁योजनामा	-2863
▁बस	-2864
▁situation	-2865
▁ऋण	-2866
▁dise	-2867
▁rate	-2868
▁पर्य	-2869
cial	-2870
▁पारि	-2871
▁above	-2872
▁words	-2873
▁संख्या	-2874
छौ	-2875
raw	-2876
▁रे	-2877
▁अगम	-2878
▁खेल	-2879
▁cour	-2880
▁सध	-2881
▁छोरो	-2882
▁गर्दैन	-2883
▁Min	-2884
▁sim	-2885
▁विदेशी	-2886
हान	-2887
०००	-2888
▁माग	-2889
▁चिन्	-2890
▁fire	-2891
ention	-2892
▁build	-2893
ways	-2894
▁काठमाड	-2895
oly	-2896
बारे	-2897
▁wid	-2898
▁print	-2899
▁न्याय	-2900
▁त्यसलाई	-2901
ल्या	-2902
▁gold	-2903
▁परियोजना	-2904
▁भू	-2905
ases	-2906
▁किसि	-2907
▁गएको	-2908
undred	-2909
aul	-2910
जित	-2911
लियन	-2912
▁घटना	-2913
▁यसो	-2914
▁whom	-2915
संख्या	-2916
▁रहेका	-2917
▁Mr	-2918
▁etc	-2919
▁अधिक	-2920
▁जम्मा	-2921
▁population	-2922
ेदन	-2923
▁Cre	-2924
▁Thus	-2925
▁distrib	-2926
▁partic	-2927
ese	-2928
▁दण्ड	-2929
aid	-2930
इएको	-2931
▁धा	-2932
▁state	-2933
▁employ	-2934
▁though	-2935
ott	-2936
▁सिं	-2937
▁hundred	-2938
▁possible	-2939
ief	-2940
irit	-2941
▁env	-2942
▁यसै	-2943
▁प्रजा	-2944
ialog	-2945
▁ज्या	-2946
▁हुनेछन्	-2947
स्व	-2948
▁dele	-2949
▁सोध	-2950
▁कसरी	-2951
▁थाले	-2952
▁दृश्य	-2953
uration	-2954
▁button	-2955
▁समावेश	-2956
▁gu	-2957
▁गति	-2958
▁बहु	-2959
▁सक्दैन	-2960
▁सक्रिय	-2961
▁अधिकारी	-2962
▁जति	-2963
▁exec	-2964
▁ठेगा	-2965
▁ठाउँमा	-2966
▁mo	-2967
▁चो	-2968
▁अनुप्रयोग	-2969
ocr	-2970
▁मानिसको	-2971
षण	-2972
stand	-2973
ारो	-2974
50	-2975
▁भई	-2976
▁saw	-2977
▁सानो	-2978
▁press	-2979
▁commun	-2980
▁उदा	-2981
▁विरूद्ध	-2982
नौ	-2983
ुर	-2984
angu	-2985
तिमी	-2986
▁वटा	-2987
▁दिन्छ	-2988
तान	-2989
▁डा	-2990
ilar	-2991
▁full	-2992
▁lead	-2993
▁load	-2994
▁उक्त	-2995
▁राष्टि	-2996
▁समाप्त	-2997
▁कारणले	-2998
न्तरण	-2999
▁पक्ष	-3000
नुभएको	-3001
▁cannot	-3002
तः	-3003
▁संसार	-3004
डे	-3005
osp	-3006
▁fall	-3007
▁तालिम	-3008
▁काठमाडौं	-3009
ser	-3010
ieve	-3011
▁आत्मा	-3012
र्ट	-3013
▁Ap	-3014
▁daugh	-3015
▁ut	-3016
▁जनता	-3017
▁कागजात	-3018
ene	-3019
▁डलर	-3020
▁Dis	-3021
▁administr	-3022
▁rep	-3023
▁नरा	-3024
प्रति	-3025
▁यस्ता	-3026
▁समर्थन	-3027
▁Enter	-3028
▁सामान्य	-3029
ived	-3030
ibility	-3031
ara	-3032
▁special	-3033
▁दश	-3034
▁यहो	-3035
कार्य	-3036
्यालय	-3037
ध्यम	-3038
▁Let	-3039
▁साल	-3040
▁size	-3041
▁neither	-3042
वक्ता	-3043
▁क्षम	-3044
▁पालन	-3045
न्थ्यो	-3046
▁खोल्न	-3047
▁provide	-3048
tings	-3049
कालागि	-3050
▁जानकारी	-3051
▁important	-3052
▁संघ	-3053
▁non	-3054
▁investment	-3055
▁वरि	-3056
▁असल	-3057
रुप	-3058
▁छे	-3059
▁heard	-3060
▁गै	-3061
▁Sim	-3062
▁still	-3063
▁KDE	-3064
▁आउँ	-3065
▁सफल	-3066
▁गाउँ	-3067
▁मन्त्र	-3068
प्ट	-3069
▁आमा	-3070
▁next	-3071
▁short	-3072
▁अनुसन्ध	-3073
▁यसमा	-3074
वर्ड	-3075
▁directory	-3076
रक	-3077
work	-3078
▁छोरी	-3079
▁top	-3080
▁दुवै	-3081
osed	-3082
gether	-3083
▁स्तम्भ	-3084
▁together	-3085
▁गर्नुभयो	-3086
acy	-3087
ined	-3088
दे	-3089
राब	-3090
▁bro	-3091
▁कहाँ	-3092
▁सुने	-3093
दार	-3094
ator	-3095
अन्त	-3096
▁resp	-3097
▁ध्यान	-3098
▁bank	-3099
▁प्रार्थ	-3100
▁फिल्ट	-3101
ense	-3102
पर्दछ	-3103
umn	-3104
▁टाढा	-3105
▁Create	-3106
लन	-3107
▁परी	-3108
▁ठेगाना	-3109
▁गर्नुहुन्छ	-3110
▁आवा	-3111
▁yet	-3112
▁dialog	-3113
कर	-3114
नेछौ	-3115
ession	-3116
▁ra	-3117
▁चे	-3118
itor	-3119
कलाई	-3120
▁पर्दा	-3121
▁मद्द	-3122
▁पूजाहारी	-3123
▁net	-3124
तावरण	-3125
▁लागू	-3126
▁ढाँचा	-3127
▁post	-3128
▁कोही	-3129
चित्र	-3130
▁exam	-3131
ason	-3132
चारी	-3133
▁यही	-3134
▁address	-3135
▁पठा	-3136
ript	-3137
▁gave	-3138
▁जनसंख्या	-3139
▁facilities	-3140
▁UR	-3141
▁report	-3142
bers	-3143
ीकरण	-3144
itten	-3145
▁condu	-3146
▁light	-3147
▁activities	-3148
ng	-3149
ares	-3150
▁200	-3151
ङ्गा	-3152
▁साइज	-3153
▁महत्वपूर्ण	-3154
▁war	-3155
▁उपयुक्त	-3156
▁खास	-3157
▁eyes	-3158
ral	-3159
न्नु	-3160
▁वर्ग	-3161
▁changes	-3162
▁पासवर्ड	-3163
स्त्र	-3164
▁मद्दत	-3165
न्स	-3166
▁आई	-3167
aving	-3168
▁past	-3169
▁निकास	-3170
▁उल्लेख	-3171
▁मानिसलाई	-3172
▁specified	-3173
जर	-3174
ned	-3175
opy	-3176
दिन	-3177
▁div	-3178
▁बाँच	-3179
▁बिन्दु	-3180
▁वातावरण	-3181
iron	-3182
▁met	-3183
ीहरूको	-3184
चित	-3185
▁अझै	-3186
gress	-3187
▁Comm	-3188
▁Open	-3189
▁instit	-3190
▁सरकारले	-3191
▁अनुसन्धान	-3192
▁Develop	-3193
▁countries	-3194
3;	-3195
▁शी	-3196
▁लामो	-3197
▁&#93;	-3198
ूर	-3199
▁cr	-3200
rist	-3201
uth	-3202
ह्र	-3203
imum	-3204
rial	-3205
हरूबाट	-3206
▁speak	-3207
▁निर्ण	-3208
▁financ	-3209
▁सामाजिक	-3210
ड्	-3211
लले	-3212
▁बटन	-3213
▁test	-3214
▁निर्यात	-3215
कस	-3216
▁himself	-3217
साथ	-3218
▁sou	-3219
▁Your	-3220
▁langu	-3221
▁social	-3222
ret	-3223
ङ्ध	-3224
oose	-3225
▁occ	-3226
▁भारत	-3227
▁सम्बन्धित	-3228
बलि	-3229
म्बर	-3230
▁मेल	-3231
▁प्लग	-3232
▁सत्य	-3233
अन्तर्गत	-3234
▁Te	-3235
alid	-3236
▁पटक	-3237
▁Save	-3238
▁बोल्	-3239
▁14	-3240
▁पै	-3241
▁send	-3242
▁Nepali	-3243
ironment	-3244
स्थिति	-3245
▁consum	-3246
▁lim	-3247
▁झैं	-3248
▁evil	-3249
▁खण्ड	-3250
▁basis	-3251
▁access	-3252
▁increasing	-3253
ss	-3254
रेको	-3255
▁Res	-3256
▁ele	-3257
▁jud	-3258
▁फर्का	-3259
पे	-3260
▁z	-3261
iqu	-3262
कृत	-3263
लेट	-3264
▁Sy	-3265
▁१५	-3266
omat	-3267
▁साधारण	-3268
▁त्यस्तै	-3269
▁art	-3270
▁कहि	-3271
▁आधारमा	-3272
▁विकासको	-3273
गम	-3274
ged	-3275
▁पश्च	-3276
कामा	-3277
▁नियम	-3278
▁मिल्	-3279
▁within	-3280
▁password	-3281
एँ	-3282
▁सुन	-3283
▁toward	-3284
मीण	-3285
▁tool	-3286
▁सीमा	-3287
य्	-3288
नन्	-3289
रेसन	-3290
abled	-3291
ached	-3292
तिहा	-3293
▁जवाफ	-3294
▁ज्ञान	-3295
▁राख्न	-3296
▁format	-3297
▁प्रार्थना	-3298
▁12	-3299
line	-3300
▁क्य	-3301
▁बैं	-3302
▁live	-3303
▁seed	-3304
▁सडक	-3305
▁Christ	-3306
isc	-3307
▁thing	-3308
▁mother	-3309
▁विद्यु	-3310
ME	-3311
▁Ke	-3312
▁ann	-3313
ण्ट	-3314
▁too	-3315
ाइएको	-3316
▁failed	-3317
1;	-3318
द्रा	-3319
▁&#91;	-3320
▁Failed	-3321
▁ग्रामीण	-3322
रै	-3323
ials	-3324
पानी	-3325
▁खुशी	-3326
▁कन्फिगर	-3327
▁भै	-3328
▁आयो	-3329
▁walk	-3330
▁trade	-3331
▁प्रेम	-3332
version	-3333
दय	-3334
▁arm	-3335
board	-3336
▁pack	-3337
▁पुर्	-3338
▁स्पष्ट	-3339
AR	-3340
▁आउ	-3341
▁seen	-3342
▁गर्नुहोस्ः	-3343
▁Q	-3344
urb	-3345
▁गत	-3346
▁पद	-3347
वे	-3348
erest	-3349
▁देखे	-3350
▁wat	-3351
▁path	-3352
▁भाषा	-3353
▁प्रकारको	-3354
ead	-3355
ष्य	-3356
▁ve	-3357
लग्न	-3358
mission	-3359
▁सम्पर्	-3360
▁संस	-3361
▁त्यसै	-3362
▁search	-3363
top	-3364
एमा	-3365
▁वन	-3366
amed	-3367
ides	-3368
▁आगो	-3369
▁face	-3370
हरण	-3371
▁रोज	-3372
▁सँग	-3373
▁redu	-3374
▁फ्रे	-3375
▁spoke	-3376
▁estimated	-3377
▁established	-3378
▁जल	-3379
▁बज	-3380
▁आउने	-3381
ground	-3382
▁तापनि	-3383
▁अवस्थामा	-3384
टमा	-3385
यौं	-3386
▁equ	-3387
▁capt	-3388
▁–	-3389
iter	-3390
▁वर्णन	-3391
den	-3392
▁money	-3393
▁सदस्य	-3394
ule	-3395
▁det	-3396
▁mail	-3397
शो	-3398
शील	-3399
▁घरमा	-3400
▁stren	-3401
▁source	-3402
▁mar	-3403
▁मर्	-3404
▁फोटो	-3405
▁forth	-3406
▁column	-3407
▁कहिल्यै	-3408
iver	-3409
▁destro	-3410
▁अगमवक्ता	-3411
▁Development	-3412
oto	-3413
ured	-3414
▁irr	-3415
▁five	-3416
▁पुस्तक	-3417
▁nations	-3418
▁brothers	-3419
▁tab	-3420
▁cond	-3421
▁completed	-3422
▁righteous	-3423
▁tour	-3424
▁commit	-3425
▁प्रविधि	-3426
▁दिनुहोस्	-3427
▁्	-3428
▁समि	-3429
▁समाज	-3430
▁hands	-3431
पति	-3432
क्षर	-3433
न्तर	-3434
▁बिक	-3435
▁rese	-3436
▁सारा	-3437
▁class	-3438
▁messages	-3439
बेल	-3440
▁home	-3441
▁थिएँ	-3442
▁भन्द	-3443
पुर	-3444
काको	-3445
▁prep	-3446
▁फिल्टर	-3447
ier	-3448
ugin	-3449
▁लिन	-3450
वेदन	-3451
▁०००	-3452
▁environment	-3453
point	-3454
▁account	-3455
गु	-3456
ode	-3457
▁Br	-3458
▁दुः	-3459
▁death	-3460
हन	-3461
ipl	-3462
oss	-3463
▁sw	-3464
स्रो	-3465
▁कर्मचारी	-3466
▁near	-3467
▁पर्व	-3468
▁voice	-3469
▁प्याके	-3470
▁स्वचालित	-3471
▁hum	-3472
▁थप्	-3473
▁interest	-3474
▁गर्नुपर्छ	-3475
▁प्राथमिकता	-3476
▁भु	-3477
▁Spe	-3478
▁थाल	-3479
▁His	-3480
▁साधन	-3481
▁जान्द	-3482
▁प्रविष्टि	-3483
ones	-3484
▁अवै	-3485
▁सोच	-3486
▁साना	-3487
▁whether	-3488
▁तपाईँलाई	-3489
▁अफ	-3490
▁अगाडि	-3491
▁@	-3492
▁Jos	-3493
ustom	-3494
▁दुःख	-3495
▁नभएको	-3496
▁जस	-3497
▁Some	-3498
▁soul	-3499
olution	-3500
▁democr	-3501
▁ठा	-3502
▁Don	-3503
▁बताउ	-3504
▁निर्णय	-3505
▁अत्यन्त	-3506
▁themselves	-3507
मू	-3508
ush	-3509
र्भ	-3510
▁तो	-3511
▁maint	-3512
▁happened	-3513
▁provided	-3514
▁तेल	-3515
ately	-3516
▁सकिएन	-3517
▁संस्करण	-3518
▁Ed	-3519
धी	-3520
gth	-3521
▁बै	-3522
▁तुल्या	-3523
मय	-3524
षित	-3525
▁Sp	-3526
▁sal	-3527
▁यन्त्र	-3528
्दा	-3529
▁cut	-3530
▁नगर	-3531
▁कहिले	-3532
agement	-3533
▁ri	-3534
ency	-3535
acher	-3536
▁प्रबन्ध	-3537
हेक	-3538
▁maj	-3539
▁lack	-3540
▁family	-3541
▁कै	-3542
▁डो	-3543
▁शाऊ	-3544
▁पाँच	-3545
▁मुलु	-3546
▁peace	-3547
▁page	-3548
▁मेनु	-3549
▁forest	-3550
ixth	-3551
▁आएका	-3552
▁polit	-3553
▁तिनका	-3554
लै	-3555
▁परेको	-3556
▁हुँदै	-3557
▁निकासी	-3558
ped	-3559
▁पे	-3560
▁बग	-3561
क्रा	-3562
ology	-3563
▁woman	-3564
▁उनलाई	-3565
▁During	-3566
▁सुरक्षा	-3567
apan	-3568
▁mode	-3569
▁आन्त	-3570
टे	-3571
▁ई	-3572
esh	-3573
▁File	-3574
▁प्रावि	-3575
▁agricultural	-3576
रुपमा	-3577
▁गर्दैछ	-3578
▁However	-3579
▁company	-3580
बल	-3581
aut	-3582
▁१२	-3583
लेको	-3584
▁sil	-3585
▁वचन	-3586
▁hear	-3587
▁init	-3588
▁फन्ट	-3589
▁औद्योग	-3590
▁understand	-3591
lt	-3592
ift	-3593
▁जस्ता	-3594
▁प्रस्तु	-3595
▁स्थानमा	-3596
शू	-3597
र्द	-3598
हुँच	-3599
▁rul	-3600
▁times	-3601
▁विद्या	-3602
▁financial	-3603
eren	-3604
ktop	-3605
▁शरीर	-3606
▁पहुँच	-3607
केर	-3608
ross	-3609
▁air	-3610
▁हेर	-3611
त्रा	-3612
र्षक	-3613
▁सङ्केत	-3614
▁Seventh	-3615
▁servant	-3616
▁यहूदाका	-3617
▁problems	-3618
थो	-3619
जाल	-3620
र्स	-3621
▁oil	-3622
▁hist	-3623
▁तर्फ	-3624
ाउँछ	-3625
▁Bec	-3626
▁unc	-3627
▁गयो	-3628
▁हिं	-3629
ential	-3630
▁disease	-3631
alf	-3632
▁since	-3633
pr	-3634
▁young	-3635
▁गराउन	-3636
▁उदाहरण	-3637
▁दिनुभयो	-3638
▁application	-3639
कृति	-3640
लामा	-3641
▁दर्श	-3642
▁seven	-3643
▁नेपालको	-3644
ीले	-3645
▁ach	-3646
▁became	-3647
▁निर्धारण	-3648
योजन	-3649
▁पाउ	-3650
▁amount	-3651
▁fathers	-3652
▁dom	-3653
▁कारो	-3654
▁वर्षको	-3655
▁नेपालमा	-3656
▁click	-3657
▁दायाँ	-3658
▁behold	-3659
▁destroy	-3660
▁Rem	-3661
ेक्षा	-3662
▁anim	-3663
▁प्रधान	-3664
▁required	-3665
▁गर्नुपर्ने	-3666
de	-3667
▁छैठ	-3668
▁cult	-3669
▁means	-3670
▁गर्छु	-3671
ospital	-3672
ठो	-3673
▁वी	-3674
ager	-3675
ails	-3676
▁नजिक	-3677
▁mater	-3678
▁विवाह	-3679
▁सुरुआ	-3680
▁प्याकेज	-3681
ification	-3682
गे	-3683
▁माउ	-3684
▁२०१	-3685
▁Conf	-3686
▁आन्तरिक	-3687
AP	-3688
सिक	-3689
पत्ति	-3690
▁camp	-3691
▁स्तर	-3692
▁सैनिक	-3693
▁त्यस्तो	-3694
▁god	-3695
▁love	-3696
▁जाति	-3697
▁shown	-3698
▁विरोध	-3699
पता	-3700
र्मि	-3701
▁mor	-3702
▁उभि	-3703
▁राखि	-3704
▁business	-3705
▁servants	-3706
याक	-3707
aged	-3708
ored	-3709
स्ताव	-3710
▁less	-3711
▁दिइएको	-3712
▁वर्षमा	-3713
▁Because	-3714
▁charact	-3715
लोड	-3716
्दै	-3717
▁beh	-3718
▁कसै	-3719
▁अवैध	-3720
▁पश्चि	-3721
▁पछिल्लो	-3722
▁दर	-3723
▁भौ	-3724
▁छौं	-3725
▁large	-3726
नुहुनेछ	-3727
ana	-3728
र्क	-3729
▁Cong	-3730
▁किना	-3731
▁Click	-3732
डाइ	-3733
▁arr	-3734
▁क्रि	-3735
▁मध्ये	-3736
▁कार्यालय	-3737
▁es	-3738
▁फु	-3739
iles	-3740
रिएको	-3741
▁cities	-3742
hu	-3743
▁gre	-3744
▁चिन्ह	-3745
ग्र	-3746
ayat	-3747
▁न्यून	-3748
▁सकिने	-3749
▁capital	-3750
▁village	-3751
cl	-3752
▁औष	-3753
▁उपा	-3754
झा	-3755
med	-3756
दिए	-3757
▁rural	-3758
▁जसलाई	-3759
▁बस्ने	-3760
▁supply	-3761
▁तिम्रा	-3762
स्कट	-3763
▁pay	-3764
▁भण्ड	-3765
▁सक्त	-3766
▁सङ्ग	-3767
▁distribution	-3768
टै	-3769
gle	-3770
टको	-3771
पित	-3772
▁थु	-3773
ccess	-3774
▁त्यसले	-3775
▁परमेश्वरलाई	-3776
क्षक	-3777
▁सभा	-3778
▁begin	-3779
▁जान्छ	-3780
▁माध्यम	-3781
दूत	-3782
orts	-3783
त्ता	-3784
▁भेडा	-3785
ication	-3786
▁written	-3787
▁व्यवहार	-3788
▁संरक्षण	-3789
▁सामग्री	-3790
▁effective	-3791
ternational	-3792
▁One	-3793
▁नहु	-3794
▁तत्व	-3795
▁तथ्या	-3796
▁निकाय	-3797
▁यसैले	-3798
▁दाऊदले	-3799
▁शान्ति	-3800
▁सन्तान	-3801
▁certain	-3802
▁particip	-3803
▁प्रभावकारी	-3804
hip	-3805
▁rev	-3806
▁द्व	-3807
पट्टी	-3808
▁enem	-3809
change	-3810
▁table	-3811
▁गराउने	-3812
▁expected	-3813
▁गैर	-3814
▁याक	-3815
▁रिस	-3816
▁With	-3817
▁offic	-3818
▁opp	-3819
ittle	-3820
▁holy	-3821
▁डाटा	-3822
▁शैली	-3823
▁दक्षि	-3824
▁अन्तर्	-3825
▁डेस्कट	-3826
▁बिक्री	-3827
पण	-3828
ley	-3829
atab	-3830
▁सही	-3831
▁पर्ख	-3832
oci	-3833
umb	-3834
च्छा	-3835
▁ब्र	-3836
▁dead	-3837
▁step	-3838
▁प्रस्ताव	-3839
▁रक	-3840
rect	-3841
फाइल	-3842
▁काँ	-3843
▁दाख	-3844
्रष्ट	-3845
▁आकाश	-3846
▁सुले	-3847
▁deter	-3848
▁स्क्रि	-3849
▁सुरक्षित	-3850
▁राष्ट्रिय	-3851
▁ऐ	-3852
लित	-3853
ffic	-3854
रिक्त	-3855
▁पढ्न	-3856
▁प्रग	-3857
▁सातौं	-3858
▁बनाउने	-3859
▁औद्योगिक	-3860
▁पञ्	-3861
▁सम्भव	-3862
▁प्लगइन	-3863
▁बद	-3864
▁हार	-3865
▁task	-3866
▁हेर्न	-3867
▁implemented	-3868
म्र	-3869
▁By	-3870
▁ते	-3871
▁imp	-3872
▁King	-3873
▁prophe	-3874
▁स्वतन्त्र	-3875
gun	-3876
▁15	-3877
▁गण	-3878
ension	-3879
▁bread	-3880
▁living	-3881
hi	-3882
▁Or	-3883
▁लुगा	-3884
▁That	-3885
▁अस्पता	-3886
▁स्ट्रि	-3887
धु	-3888
▁i	-3889
▁लै	-3890
▁आशा	-3891
▁मन्दिर	-3892
▁उहाँलाई	-3893
ling	-3894
▁भवि	-3895
▁चेला	-3896
▁हेर्	-3897
▁elect	-3898
▁त्यति	-3899
▁याकूब	-3900
▁industrial	-3901
▁कन्फिगरेसन	-3902
ape	-3903
ron	-3904
ारि	-3905
▁थो	-3906
well	-3907
▁alt	-3908
▁नक्	-3909
▁wife	-3910
▁cause	-3911
▁बायाँ	-3912
▁heaven	-3913
▁position	-3914
काल	-3915
iety	-3916
जुमा	-3917
र्वज	-3918
▁अरु	-3919
riend	-3920
▁Japan	-3921
▁पृष्ठभूमि	-3922
▁प्राविधिक	-3923
▁रुप	-3924
▁mouth	-3925
▁भनेको	-3926
▁शहरमा	-3927
ल्ड	-3928
▁Even	-3929
▁known	-3930
▁अगुवा	-3931
▁places	-3932
▁वरिपरि	-3933
▁सू	-3934
▁eas	-3935
▁Check	-3936
▁हुनुपर्छ	-3937
ann	-3938
pri	-3939
इनेछ	-3940
▁प्राय	-3941
▁created	-3942
▁राष्टि्रय	-3943
दम	-3944
▁छेउ	-3945
▁auth	-3946
▁कायम	-3947
र्वजनिक	-3948
▁answered	-3949
▁share	-3950
▁far	-3951
▁hig	-3952
icked	-3953
▁cost	-3954
सम	-3955
▁टो	-3956
▁Are	-3957
▁fru	-3958
▁विवरण	-3959
▁condition	-3960
▁configuration	-3961
irc	-3962
▁ढो	-3963
ched	-3964
aster	-3965
▁case	-3966
▁करार	-3967
▁सेयर	-3968
▁going	-3969
▁demand	-3970
anchayat	-3971
▁research	-3972
अघि	-3973
लेर	-3974
▁HT	-3975
▁meas	-3976
▁ठूला	-3977
▁सन्त	-3978
▁देवता	-3979
▁always	-3980
▁improve	-3981
▁agriculture	-3982
▁Pre	-3983
▁एका	-3984
▁establish	-3985
▁विद्यार्थ	-3986
▁शो	-3987
▁सय	-3988
मार्	-3989
▁told	-3990
▁values	-3991
▁dri	-3992
▁जमी	-3993
earch	-3994
▁sing	-3995
▁चाहे	-3996
▁comes	-3997
▁Congress	-3998
amb	-3999
ges	-4000
▁sat	-4001
▁निकै	-4002
▁रगत	-4003
▁pract	-4004
ability	-4005
▁little	-4006
त्सा	-4007
▁few	-4008
▁ट्र	-4009
com	-4010
ंदैन	-4011
▁साँ	-4012
▁प्रभु	-4013
▁द्वारा	-4014
▁राजाले	-4015
▁connection	-4016
कोण	-4017
▁पदा	-4018
▁बाबु	-4019
▁whole	-4020
▁पञ्चा	-4021
▁सम्पर्क	-4022
▁selection	-4023
पात	-4024
▁Ass	-4025
ember	-4026
▁सकेको	-4027
▁वृ	-4028
▁२००	-4029
▁उपभो	-4030
▁समुद्र	-4031
िका	-4032
▁भन	-4033
itud	-4034
▁कारोबार	-4035
▁language	-4036
▁{	-4037
rif	-4038
ivers	-4039
▁अन्न	-4040
▁active	-4041
▁assist	-4042
▁बनाउनु	-4043
DM	-4044
ope	-4045
▁त्	-4046
ship	-4047
▁iss	-4048
▁date	-4049
▁port	-4050
▁धर्म	-4051
▁संलग्न	-4052
▁प्रतिमा	-4053
▁National	-4054
▁settings	-4055
▁सबैभन्दा	-4056
hab	-4057
▁Not	-4058
▁low	-4059
▁भएन	-4060
▁free	-4061
▁छैठौं	-4062
▁योग्य	-4063
▁भविष्य	-4064
▁मूर्ति	-4065
▁version	-4066
▁उत्पन्न	-4067
▁तर्जुमा	-4068
▁गरिरहेका	-4069
▁प्रतिशतले	-4070
बै	-4071
िन	-4072
पाल	-4073
हरुबाट	-4074
कट	-4075
मूल	-4076
▁२५	-4077
र्जा	-4078
▁अभाव	-4079
ज्यू	-4080
▁adv	-4081
▁बनाए	-4082
▁remove	-4083
▁स्वीकार	-4084
yle	-4085
▁fact	-4086
▁उचित	-4087
▁क्यारे	-4088
▁अतिरिक्त	-4089
▁irrigation	-4090
▁}	-4091
oot	-4092
सिल	-4093
stit	-4094
▁कमा	-4095
▁bord	-4096
atabase	-4097
दिनु	-4098
▁नराम्रो	-4099
गर	-4100
bar	-4101
▁25	-4102
▁Dh	-4103
लाको	-4104
▁bene	-4105
▁request	-4106
परम	-4107
uted	-4108
utes	-4109
नन्द	-4110
▁अनुभव	-4111
▁सम्बन्धी	-4112
राई	-4113
▁16	-4114
▁wa	-4115
▁URL	-4116
▁valid	-4117
श्व	-4118
▁फरक	-4119
ilarly	-4120
▁sound	-4121
▁विद्यालय	-4122
भूत	-4123
hing	-4124
▁Reg	-4125
▁From	-4126
▁link	-4127
▁मार्	-4128
▁night	-4129
▁प्रवेश	-4130
▁respect	-4131
▁existing	-4132
▁commanded	-4133
▁आक	-4134
▁३०	-4135
▁यहूद	-4136
▁लुका	-4137
▁विज्ञ	-4138
▁प्रगति	-4139
मेल	-4140
▁छोराहरू	-4141
▁गर्नेछन्	-4142
इन्	-4143
ल्ने	-4144
▁दाय	-4145
▁menu	-4146
▁सञ्जाल	-4147
ills	-4148
tend	-4149
म्बा	-4150
▁lib	-4151
▁ब्या	-4152
▁सिका	-4153
▁Sixth	-4154
▁फाइलहरू	-4155
▁झू	-4156
acity	-4157
▁regular	-4158
▁५०	-4159
▁कार	-4160
▁खान	-4161
▁पुनः	-4162
▁think	-4163
▁write	-4164
▁सक्तैन	-4165
▁बसे	-4166
वस्तु	-4167
▁उपचार	-4168
▁परिभा	-4169
▁success	-4170
▁]	-4171
▁हौ	-4172
ards	-4173
▁lot	-4174
▁stre	-4175
▁wild	-4176
▁मिति	-4177
▁शुरू	-4178
▁Enable	-4179
▁depart	-4180
▁अनुरोध	-4181
▁प्रस्तुत	-4182
▁स्वर्गदूत	-4183
sc	-4184
▁>	-4185
प्रा	-4186
▁टाइ	-4187
ledge	-4188
▁अस्वी	-4189
▁दोस्रो	-4190
टु	-4191
ंसा	-4192
लोकन	-4193
▁जारी	-4194
▁विभाग	-4195
▁making	-4196
▁plugin	-4197
▁express	-4198
विध	-4199
mark	-4200
शाली	-4201
ethod	-4202
▁क्रो	-4203
▁districts	-4204
ull	-4205
▁स्थ	-4206
▁goods	-4207
▁इतिहा	-4208
ilt	-4209
▁हृ	-4210
over	-4211
thing	-4212
▁जानु	-4213
▁सर्भ	-4214
▁ident	-4215
▁की	-4216
▁Who	-4217
▁caus	-4218
▁फाइलमा	-4219
लका	-4220
▁ic	-4221
बेला	-4222
▁मध्य	-4223
▁याता	-4224
▁strong	-4225
▁पूर्वाव	-4226
▁transport	-4227
लत	-4228
ग्गा	-4229
▁लाइ	-4230
▁wicked	-4231
▁क्षमता	-4232
वृ	-4233
ribe	-4234
▁वेदी	-4235
▁appear	-4236
▁प्रश्न	-4237
▁भण्डार	-4238
▁billion	-4239
▁considered	-4240
▁Why	-4241
▁Cont	-4242
▁जन्म	-4243
▁सधैं	-4244
▁मिलियन	-4245
omatically	-4246
.1	-4247
जस्ता	-4248
▁लाइन	-4249
कका	-4250
▁30	-4251
▁दी	-4252
▁mer	-4253
▁creat	-4254
▁sword	-4255
▁अमेरि	-4256
▁custom	-4257
कृतिक	-4258
▁separ	-4259
▁फ्रेम	-4260
▁encour	-4261
▁यातायात	-4262
▁पङ्	-4263
▁मिला	-4264
▁हटाउन	-4265
▁related	-4266
्त	-4267
pty	-4268
▁भन्न	-4269
▁विगत	-4270
न्द्री	-4271
▁dwell	-4272
▁भएकोले	-4273
▁जनशक्ति	-4274
▁हृदय	-4275
▁शुद्ध	-4276
▁पुर्खा	-4277
राम	-4278
▁fear	-4279
▁लैजा	-4280
▁जग्गा	-4281
मेत	-4282
▁dig	-4283
▁forever	-4284
▁industries	-4285
णि	-4286
लिप	-4287
उँदै	-4288
▁Rep	-4289
▁grad	-4290
▁मुद्रा	-4291
▁Similarly	-4292
aper	-4293
▁तिर	-4294
▁seek	-4295
मन्त्र	-4296
▁ट्याब	-4297
▁नम्बर	-4298
▁अमेरिकी	-4299
▁कार्यमा	-4300
▁daughter	-4301
▁received	-4302
▁सार्वजनिक	-4303
यं	-4304
▁सृ	-4305
▁fut	-4306
▁साध	-4307
alend	-4308
▁चेता	-4309
▁शुरु	-4310
▁images	-4311
▁Nepalese	-4312
धित	-4313
बीच	-4314
▁क्व	-4315
▁clear	-4316
▁depend	-4317
▁network	-4318
▁location	-4319
ll	-4320
आब	-4321
▁आय	-4322
▁निर	-4323
याप्त	-4324
▁treat	-4325
▁यसबाट	-4326
▁benef	-4327
▁पुत्र	-4328
▁comput	-4329
▁भिडियो	-4330
▁पूजाहार	-4331
▁additional	-4332
ठन	-4333
wise	-4334
▁आफै	-4335
ering	-4336
▁fell	-4337
▁inte	-4338
▁ह्या	-4339
▁समिति	-4340
▁instead	-4341
▁reached	-4342
▁भइरहेको	-4343
ala	-4344
ison	-4345
▁nation	-4346
▁अन्तर्गत	-4347
ump	-4348
लाप	-4349
▁18	-4350
▁मै	-4351
▁थिच	-4352
▁यति	-4353
त्त्व	-4354
ेस्रो	-4355
▁किलो	-4356
▁output	-4357
▁working	-4358
▁छन	-4359
▁फै	-4360
ल्यु	-4361
cture	-4362
otion	-4363
▁कक्ष	-4364
pendit	-4365
priate	-4366
▁नियमित	-4367
▁ल्याउन	-4368
vi	-4369
▁११	-4370
igin	-4371
▁कम्	-4372
▁सजि	-4373
▁स्म	-4374
▁Cent	-4375
▁tree	-4376
▁प्रहर	-4377
▁प्रमाणपत्र	-4378
दृ	-4379
ery	-4380
वास	-4381
▁आठ	-4382
प्लेट	-4383
▁अनुकूल	-4384
▁लागेको	-4385
पय	-4386
िच	-4387
▁एस	-4388
▁pan	-4389
▁रूख	-4390
ances	-4391
▁विभा	-4392
▁needs	-4393
▁opened	-4394
▁string	-4395
▁भूमिका	-4396
▁दृष्टिकोण	-4397
▁below	-4398
▁faith	-4399
▁यस्तै	-4400
▁हस्ता	-4401
▁reason	-4402
▁समाचार	-4403
itive	-4404
ंग्रे	-4405
▁kept	-4406
▁एउटै	-4407
▁त्रि	-4408
▁बोला	-4409
▁राख्ने	-4410
▁respons	-4411
▁currently	-4412
▁GN	-4413
aken	-4414
नेको	-4415
वादी	-4416
arent	-4417
र्षिक	-4418
▁today	-4419
▁कम्प्यु	-4420
▁अस्वीकार	-4421
▁परमप्रभुलाई	-4422
▁implementation	-4423
▁दू	-4424
▁१८	-4425
नीको	-4426
ारम्भ	-4427
▁phys	-4428
▁विधि	-4429
▁बाबेल	-4430
▁protect	-4431
▁परिमार्	-4432
ium	-4433
्दछ	-4434
▁भी	-4435
काली	-4436
पक्ष	-4437
म्परा	-4438
▁stop	-4439
▁ground	-4440
▁डेस्कटप	-4441
▁[	-4442
enc	-4443
्ले	-4444
ceed	-4445
▁तस्	-4446
▁सत्र	-4447
▁क्रममा	-4448
▁खोल्नुहोस्	-4449
▁Me	-4450
▁Due	-4451
ptions	-4452
▁कतिपय	-4453
▁सुन्द	-4454
▁teacher	-4455
▁स्ट्रिङ	-4456
▁progress	-4457
▁तपाईंलाई	-4458
र्फत	-4459
▁गरें	-4460
▁price	-4461
▁इन्टर	-4462
▁economy	-4463
▁यरूशलेम	-4464
arn	-4465
aun	-4466
▁हालै	-4467
▁items	-4468
▁अब्रा	-4469
▁रूपले	-4470
▁तिनलाई	-4471
▁installed	-4472
▁tradition	-4473
tee	-4474
ued	-4475
च्च	-4476
oved	-4477
semb	-4478
▁bal	-4479
igned	-4480
ालिका	-4481
▁based	-4482
▁राख्नु	-4483
ani	-4484
▁आवाज	-4485
aching	-4486
▁बीचमा	-4487
▁proper	-4488
▁तालिका	-4489
▁सम्पन्न	-4490
ूक	-4491
▁sky	-4492
▁Saul	-4493
▁coming	-4494
▁friend	-4495
▁पङ्क्ति	-4496
ेन	-4497
ंदै	-4498
चान	-4499
akes	-4500
enty	-4501
ङ्कन	-4502
▁दोष	-4503
▁hold	-4504
▁news	-4505
▁plant	-4506
▁accept	-4507
▁screen	-4508
▁morning	-4509
▁वास्तविक	-4510
▁knowledge	-4511
ग्रह	-4512
▁tit	-4513
▁देऊ	-4514
ising	-4515
▁prim	-4516
▁शासन	-4517
atural	-4518
▁occur	-4519
▁आनन्द	-4520
▁टुक्रा	-4521
▁परम्परा	-4522
▁प्रकार्य	-4523
▁including	-4524
ws	-4525
▁Gener	-4526
▁third	-4527
▁दक्षिण	-4528
▁प्रशंसा	-4529
▁राखिएको	-4530
agn	-4531
▁Def	-4532
▁talk	-4533
▁कष्ट	-4534
portun	-4535
▁ढुङ्गा	-4536
▁गर्नेछु	-4537
▁गरिरहेको	-4538
uk	-4539
box	-4540
▁mind	-4541
▁week	-4542
पूर्ति	-4543
▁आधारित	-4544
▁पदार्थ	-4545
▁general	-4546
ृह	-4547
▁Mo	-4548
ideo	-4549
▁san	-4550
▁सामु	-4551
▁bless	-4552
▁इच्छा	-4553
▁method	-4554
▁meeting	-4555
▁operation	-4556
▁प्रजातन्त्र	-4557
▁उम	-4558
itch	-4559
▁Des	-4560
▁box	-4561
रुद्ध	-4562
▁पैसा	-4563
▁हासिल	-4564
alendar	-4565
▁police	-4566
▁hospital	-4567
▁प्रोत्सा	-4568
▁वस्तुहरू	-4569
▁क्यारेक्टर	-4570
▁मानिसहरूका	-4571
वट	-4572
न्ज	-4573
ware	-4574
▁game	-4575
▁गुप्ति	-4576
▁contact	-4577
▁society	-4578
▁management	-4579
ided	-4580
प्ता	-4581
वारी	-4582
▁Mah	-4583
▁max	-4584
▁study	-4585
ring	-4586
▁कथा	-4587
▁self	-4588
▁एक्स	-4589
▁पहाड	-4590
▁spirit	-4591
▁समाधान	-4592
▁हुनुहु	-4593
फो	-4594
ots	-4595
eric	-4596
▁swe	-4597
▁wall	-4598
▁रोक्	-4599
urther	-4600
कोलागि	-4601
▁months	-4602
▁दिनेछु	-4603
▁भन्छन्	-4604
▁प्रारम्भ	-4605
▁व्यवस्थापन	-4606
एस	-4607
वर	-4608
▁नब	-4609
atic	-4610
▁half	-4611
▁आँखा	-4612
▁प्ले	-4613
▁चित्र	-4614
बेस	-4615
रूप	-4616
▁try	-4617
▁रूप	-4618
▁exper	-4619
▁Config	-4620
▁priests	-4621
▁निर्देश	-4622
▁cast	-4623
▁item	-4624
itation	-4625
go	-4626
ya	-4627
ams	-4628
▁१३	-4629
▁कुन	-4630
graph	-4631
▁आकार	-4632
▁खेती	-4633
▁opportun	-4634
aced	-4635
▁कला	-4636
power	-4637
▁poor	-4638
▁सङ्क	-4639
ruction	-4640
▁सुरुआत	-4641
▁expendit	-4642
tt	-4643
▁खेत	-4644
▁hous	-4645
▁अन्तर	-4646
▁महिना	-4647
▁efforts	-4648
गल	-4649
▁11	-4650
रिया	-4651
▁Aut	-4652
▁करि	-4653
▁पाउने	-4654
▁भूमिमा	-4655
▁example	-4656
▁संस्थान	-4657
OR	-4658
ट्	-4659
uss	-4660
नेर	-4661
समेत	-4662
▁Cor	-4663
▁बहि	-4664
▁रहने	-4665
▁glory	-4666
▁सीमित	-4667
▁आक्रमण	-4668
ees	-4669
rie	-4670
▁Inv	-4671
▁असर	-4672
▁स्क	-4673
ament	-4674
▁coun	-4675
▁उनका	-4676
पान्तरण	-4677
▁office	-4678
▁correct	-4679
▁गर्दछन्	-4680
▁developed	-4681
तै	-4682
सुफ	-4683
▁यौ	-4684
▁201	-4685
▁sea	-4686
▁typ	-4687
▁true	-4688
▁उन्न	-4689
▁निष्	-4690
▁Color	-4691
▁लिङ्क	-4692
pose	-4693
▁Inc	-4694
▁Phil	-4695
▁born	-4696
▁रोजग	-4697
though	-4698
▁मेट्न	-4699
▁13	-4700
medi	-4701
▁पुग्	-4702
▁stood	-4703
▁अर्था	-4704
▁सक्छन्	-4705
▁farmers	-4706
▁विस्तृत	-4707
▁व्यवसाय	-4708
▁technical	-4709
▁50	-4710
न्छौ	-4711
▁Bab	-4712
▁deb	-4713
ctors	-4714
▁layer	-4715
▁पर्यटन	-4716
▁साँच्च	-4717
▁policies	-4718
me	-4719
ins	-4720
कर्	-4721
थिर	-4722
▁Ser	-4723
▁tax	-4724
▁रकम	-4725
itude	-4726
▁room	-4727
▁वित्	-4728
▁स्वत	-4729
side	-4730
केको	-4731
▁income	-4732
aps	-4733
ior	-4734
▁El	-4735
▁sac	-4736
▁ten	-4737
▁why	-4738
▁केवल	-4739
पूर्वक	-4740
▁asked	-4741
व्यक्ति	-4742
▁having	-4743
▁हुनसक्	-4744
▁nothing	-4745
▁प्रकारले	-4746
ोस	-4747
lesh	-4748
ण्डा	-4749
सँगै	-4750
▁sex	-4751
▁एली	-4752
▁पहिला	-4753
▁organization	-4754
▁झु	-4755
▁Par	-4756
▁hard	-4757
▁quot	-4758
▁spok	-4759
▁वित्तीय	-4760
ians	-4761
पाटी	-4762
▁सजा	-4763
हरुका	-4764
▁suff	-4765
▁परेन	-4766
utions	-4767
▁यूसुफ	-4768
▁record	-4769
▁तेस्रो	-4770
▁संयुक्त	-4771
.2	-4772
शः	-4773
हाज	-4774
▁फा	-4775
▁१६	-4776
rest	-4777
स्को	-4778
▁ess	-4779
urity	-4780
▁doesn	-4781
▁organiz	-4782
▁सन्दर्भ	-4783
▁political	-4784
ात	-4785
dle	-4786
uel	-4787
acob	-4788
कारण	-4789
न्थे	-4790
वधिक	-4791
▁sol	-4792
▁changed	-4793
▁तरिकाले	-4794
▁वार्षिक	-4795
▁el	-4796
▁रोज्	-4797
▁Jacob	-4798
▁human	-4799
▁collect	-4800
▁राजनीति	-4801
ali	-4802
▁Of	-4803
▁कठ	-4804
▁Bir	-4805
▁भवन	-4806
▁host	-4807
▁अपना	-4808
▁होला	-4809
▁रक्षा	-4810
▁choose	-4811
▁नगर्ने	-4812
▁democracy	-4813
रित	-4814
्यौ	-4815
▁कल	-4816
ince	-4817
कालमा	-4818
▁औषधि	-4819
▁empty	-4820
▁ब्राउ	-4821
SL	-4822
ama	-4823
▁छुट	-4824
▁निस्	-4825
▁बाँकी	-4826
▁पुगेको	-4827
▁सम्पाद	-4828
आर	-4829
्ध	-4830
ken	-4831
र्घ	-4832
oper	-4833
▁हाँ	-4834
▁flesh	-4835
▁quest	-4836
▁direct	-4837
▁निर्गत	-4838
▁पार्ने	-4839
▁येशूलाई	-4840
▁mountain	-4841
बर	-4842
▁१४	-4843
ixed	-4844
▁flow	-4845
▁लगइन	-4846
▁invol	-4847
▁priority	-4848
फ्ट	-4849
▁धन	-4850
ergy	-4851
load	-4852
स्ति	-4853
▁die	-4854
सकेका	-4855
▁draw	-4856
▁keys	-4857
▁कालो	-4858
▁major	-4859
▁border	-4860
▁दास	-4861
▁parts	-4862
▁expand	-4863
▁listen	-4864
▁origin	-4865
▁पुरानो	-4866
▁carried	-4867
▁industry	-4868
▁गुप्तिकरण	-4869
सान	-4870
▁Sol	-4871
योग्य	-4872
▁Image	-4873
▁altar	-4874
▁built	-4875
▁whose	-4876
▁delete	-4877
▁exists	-4878
▁higher	-4879
▁others	-4880
▁प्रसार	-4881
▁शहरहरू	-4882
▁हेर्नुहोस्	-4883
ung	-4884
▁सदा	-4885
जस्तो	-4886
▁ग्रह	-4887
▁killed	-4888
▁बेलामा	-4889
▁शीर्षक	-4890
▁हुनाले	-4891
▁विज्ञान	-4892
▁मात्रामा	-4893
oud	-4894
▁care	-4895
▁feet	-4896
▁role	-4897
▁खोज्	-4898
▁पत्नी	-4899
▁status	-4900
▁परीक्षण	-4901
▁database	-4902
▁Government	-4903
रेर	-4904
▁तु	-4905
nown	-4906
मिति	-4907
▁job	-4908
▁desc	-4909
▁midst	-4910
▁मोशाले	-4911
▁eng	-4912
▁माइ	-4913
▁अधिकतम	-4914
AN	-4915
स्तर	-4916
▁sun	-4917
▁expl	-4918
▁real	-4919
▁हुला	-4920
▁सक्दछ	-4921
▁स्त्री	-4922
▁शक्तिशाली	-4923
▁appropriate	-4924
▁धू	-4925
lict	-4926
▁गीत	-4927
▁ताल	-4928
ivity	-4929
▁repl	-4930
▁महान	-4931
क्षेत्र	-4932
▁device	-4933
▁arrange	-4934
▁discipl	-4935
▁पहिल्यै	-4936
▁previous	-4937
irm	-4938
mit	-4939
▁अभ	-4940
▁र्	-4941
▁वैध	-4942
▁decl	-4943
▁चौथो	-4944
▁worship	-4945
▁गर्नुभएको	-4946
▁मत	-4947
▁पलि	-4948
्यानल	-4949
▁घण्ट	-4950
▁दिनमा	-4951
▁sacrif	-4952
▁दाज्यू	-4953
▁प्रतिवेदन	-4954
तर	-4955
▁Co	-4956
▁Pe	-4957
aron	-4958
▁अंश	-4959
▁fulf	-4960
▁hour	-4961
▁डाउन	-4962
▁stock	-4963
▁स्वयं	-4964
▁विकासमा	-4965
▁capacity	-4966
▁programs	-4967
AT	-4968
hel	-4969
▁cell	-4970
▁अद्या	-4971
▁filter	-4972
▁background	-4973
ते	-4974
द्धा	-4975
▁hor	-4976
▁एकै	-4977
▁गलत	-4978
▁याद	-4979
venue	-4980
erning	-4981
▁chief	-4982
▁भन्यो	-4983
▁प्रचार	-4984
▁यात्रा	-4985
▁require	-4986
▁running	-4987
here	-4988
▁age	-4989
▁bar	-4990
▁ple	-4991
▁Bank	-4992
▁दिशा	-4993
▁बालब	-4994
▁lines	-4995
▁क्रमशः	-4996
▁natural	-4997
▁consider	-4998
▁थप्नुहोस्	-4999
yl	-5000
eph	-5001
fer	-5002
गरी	-5003
ल्न	-5004
▁US	-5005
रामी	-5006
▁वेब	-5007
▁Only	-5008
▁roads	-5009
▁saved	-5010
▁पर्यो	-5011
▁future	-5012
▁windows	-5013
▁Ma	-5014
▁Sw	-5015
▁समान	-5016
▁break	-5017
▁names	-5018
▁surve	-5019
▁गर्यौ	-5020
▁पलिश्	-5021
▁सम्पत्ति	-5022
OME	-5023
▁Sam	-5024
▁ang	-5025
▁भर्	-5026
▁विज	-5027
▁मारि	-5028
▁black	-5029
▁coord	-5030
▁बनाउनुहोस्	-5031
cut	-5032
ँजी	-5033
निय	-5034
rypt	-5035
▁aud	-5036
▁kill	-5037
▁आफैं	-5038
▁never	-5039
▁चाँदी	-5040
परमप्रभु	-5041
mon	-5042
pur	-5043
क्सी	-5044
ध्या	-5045
▁hid	-5046
▁राखे	-5047
▁famil	-5048
▁lived	-5049
▁प्रतिज्ञा	-5050
udd	-5051
क्क	-5052
षणा	-5053
▁मी	-5054
कियाह	-5055
▁बनाउ	-5056
▁clean	-5057
▁संसूच	-5058
▁राजाको	-5059
▁perform	-5060
▁प्रोफाइल	-5061
िय	-5062
▁शे	-5063
न्ती	-5064
▁पाए	-5065
▁HTML	-5066
▁जसको	-5067
▁रोटी	-5068
▁began	-5069
▁turned	-5070
▁आफूलाई	-5071
▁डाटाबेस	-5072
▁prepared	-5073
नाथ	-5074
▁चरण	-5075
ename	-5076
▁List	-5077
overed	-5078
▁undert	-5079
▁द्रष्ट	-5080
tr	-5081
ina	-5082
irl	-5083
urs	-5084
▁ढा	-5085
▁196	-5086
▁XML	-5087
▁fif	-5088
▁काट	-5089
▁जाऊ	-5090
gthen	-5091
▁Edit	-5092
▁util	-5093
▁सिक्	-5094
▁party	-5095
▁तिनको	-5096
▁भएपछि	-5097
▁spread	-5098
▁पर्दैन	-5099
यक	-5100
ten	-5101
athe	-5102
▁100	-5103
▁बाली	-5104
▁lower	-5105
▁चेताव	-5106
▁twenty	-5107
▁जनताको	-5108
▁students	-5109
▁technology	-5110
तृ	-5111
cil	-5112
गमन	-5113
▁धु	-5114
म्मे	-5115
▁२०३	-5116
▁मानव	-5117
▁कर्जा	-5118
▁बिहान	-5119
▁पञ्चायत	-5120
▁computer	-5121
ंस	-5122
हू	-5123
यदि	-5124
िकित्	-5125
▁burnt	-5126
▁mention	-5127
▁विशेषता	-5128
▁Ag	-5129
▁आउनु	-5130
▁Aaron	-5131
▁mouse	-5132
▁contrib	-5133
▁subject	-5134
▁विषयवस्तु	-5135
.5	-5136
▁Copy	-5137
▁font	-5138
▁खुला	-5139
▁seems	-5140
▁बढाउन	-5141
▁स्विच	-5142
▁standard	-5143
खि	-5144
ल्क	-5145
▁डर	-5146
▁डी	-5147
▁mob	-5148
▁पर्वत	-5149
▁पहाडी	-5150
▁Search	-5151
▁recent	-5152
▁शिक्षक	-5153
इने	-5154
हीन	-5155
▁Yes	-5156
▁big	-5157
▁फाइ	-5158
र्मिक	-5159
▁बराब	-5160
▁सम्झौ	-5161
▁सञ्चाल	-5162
▁Program	-5163
अप	-5164
aim	-5165
ilk	-5166
▁arg	-5167
▁गल्	-5168
▁session	-5169
ging	-5170
▁रचना	-5171
▁fruit	-5172
▁kings	-5173
▁relig	-5174
▁users	-5175
▁सक्छौ	-5176
▁Change	-5177
▁खाद्या	-5178
▁समुदाय	-5179
▁history	-5180
नाव	-5181
विद	-5182
lean	-5183
phas	-5184
▁pie	-5185
▁जाँ	-5186
ively	-5187
known	-5188
▁assemb	-5189
▁कामहरू	-5190
▁सम्मान	-5191
▁achieve	-5192
▁products	-5193
▁अन्तर्रा	-5194
▁प्रकारका	-5195
एली	-5196
ighb	-5197
भागि	-5198
रीको	-5199
▁fav	-5200
▁gar	-5201
▁More	-5202
▁adop	-5203
▁circ	-5204
▁alarm	-5205
▁तरवार	-5206
▁वास्तवमा	-5207
▁assistance	-5208
▁सार्नुहोस्	-5209
▁कार्यक्रमहरु	-5210
rah	-5211
जसो	-5212
▁दै	-5213
▁mus	-5214
▁एक्	-5215
▁dark	-5216
▁श्रे	-5217
▁named	-5218
▁प्रशस्त	-5219
▁continue	-5220
▁drinking	-5221
▁हुन्थ्यो	-5222
▁materials	-5223
▁अद्यावधिक	-5224
ma	-5225
च्या	-5226
▁court	-5227
▁answer	-5228
▁manpower	-5229
▁international	-5230
val	-5231
द्व	-5232
रीय	-5233
eral	-5234
▁fund	-5235
▁entry	-5236
▁video	-5237
▁पुग्न	-5238
▁सामान	-5239
▁concern	-5240
.0	-5241
ैया	-5242
▁चल	-5243
तालाई	-5244
राज्य	-5245
itable	-5246
▁added	-5247
▁silver	-5248
▁desktop	-5249
▁physical	-5250
इँ	-5251
मल	-5252
ालो	-5253
▁Per	-5254
▁crop	-5255
▁करिब	-5256
▁beaut	-5257
▁input	-5258
▁घोषणा	-5259
▁जीवित	-5260
▁सल्ला	-5261
ificate	-5262
▁मूल्या	-5263
▁sectors	-5264
▁कम्प्युटर	-5265
▁ru	-5266
face	-5267
यारी	-5268
लम्ब	-5269
▁197	-5270
उँछन्	-5271
▁High	-5272
▁अन्ध	-5273
▁आत्म	-5274
▁खाना	-5275
▁दिइनेछ	-5276
▁विद्युत	-5277
▁character	-5278
ati	-5279
छाडि	-5280
▁publ	-5281
▁stay	-5282
▁लागे	-5283
▁Import	-5284
▁quality	-5285
▁difficult	-5286
▁essential	-5287
नेट	-5288
तमान	-5289
मलाई	-5290
▁som	-5291
कालीन	-5292
▁burn	-5293
▁pray	-5294
▁ways	-5295
▁कुरो	-5296
▁विनि	-5297
▁समन्व	-5298
▁बुद्धि	-5299
▁परिभाषित	-5300
▁Ben	-5301
▁कमी	-5302
▁राखी	-5303
▁Photo	-5304
▁least	-5305
▁style	-5306
▁परिमाण	-5307
▁Project	-5308
▁चेतावनी	-5309
▁everyone	-5310
bs	-5311
▁hy	-5312
resp	-5313
▁आधारभूत	-5314
▁त्रुटिः	-5315
▁determin	-5316
▁मन्त्रालय	-5317
▁concerning	-5318
▁विद्यार्थी	-5319
रीमा	-5320
▁Arm	-5321
▁sle	-5322
▁bott	-5323
▁sold	-5324
▁leave	-5325
▁primary	-5326
शन	-5327
▁Em	-5328
विष्ट	-5329
▁इमेल	-5330
▁बाकस	-5331
▁तस्वी	-5332
▁भिन्न	-5333
▁चिकित्	-5334
▁चीजहरू	-5335
ाइन	-5336
राको	-5337
▁vol	-5338
▁यौन	-5339
▁multi	-5340
▁अडियो	-5341
▁Minister	-5342
▁परमेश्वरका	-5343
ढी	-5344
तार	-5345
भरि	-5346
▁17	-5347
▁90	-5348
▁डरा	-5349
▁Move	-5350
▁विमान	-5351
▁remote	-5352
▁सूचीमा	-5353
▁त्यस्ता	-5354
▁पर्याप्त	-5355
ee	-5356
▁Jo	-5357
gest	-5358
rary	-5359
▁Key	-5360
▁बनि	-5361
ought	-5362
▁धन्य	-5363
▁श्रम	-5364
cially	-5365
▁मूर्ख	-5366
▁supported	-5367
▁cub	-5368
▁ord	-5369
▁Here	-5370
▁hect	-5371
▁उमेर	-5372
▁परिणा	-5373
▁व्यापक	-5374
ij	-5375
गी	-5376
▁lt	-5377
▁हाइ	-5378
ients	-5379
▁stri	-5380
▁भागमा	-5381
▁भौतिक	-5382
▁struck	-5383
▁चढा	-5384
estic	-5385
inter	-5386
▁term	-5387
▁कमजो	-5388
▁sight	-5389
▁धार्मिक	-5390
यान	-5391
▁ide	-5392
▁आधा	-5393
light	-5394
▁sell	-5395
▁गरीब	-5396
▁पाउँ	-5397
▁पावल	-5398
▁common	-5399
▁neighb	-5400
▁members	-5401
to	-5402
▁af	-5403
rodu	-5404
▁thus	-5405
▁नसक्	-5406
▁along	-5407
▁खाद्य	-5408
▁लेख्न	-5409
▁prices	-5410
▁enabled	-5411
▁अब्राहा	-5412
तु	-5413
▁टन	-5414
ताले	-5415
▁spoken	-5416
▁Default	-5417
▁building	-5418
▁calendar	-5419
▁स्क्रिप्ट	-5420
.&	-5421
ext	-5422
खित	-5423
▁wis	-5424
▁कान	-5425
ching	-5426
▁drop	-5427
▁laid	-5428
वृत्ति	-5429
▁किसान	-5430
▁देशका	-5431
▁please	-5432
▁सुलेमा	-5433
▁इस्राएली	-5434
▁strengthen	-5435
▁automatically	-5436
har	-5437
ब्रे	-5438
मण्ड	-5439
्याँ	-5440
▁Dep	-5441
र्चाइ	-5442
▁feel	-5443
▁साँचो	-5444
▁Indian	-5445
▁निरन्तर	-5446
▁contains	-5447
▁समाविष्ट	-5448
भी	-5449
रस	-5450
▁अल्	-5451
▁दया	-5452
▁लाभ	-5453
किएको	-5454
▁died	-5455
▁energy	-5456
ौँ	-5457
प्रै	-5458
माले	-5459
▁won	-5460
▁त्यसो	-5461
▁स्थिर	-5462
▁Spirit	-5463
▁निर्भर	-5464
▁package	-5465
▁सरकारको	-5466
▁अर्थतन्त्र	-5467
▁हटाउनुहोस्	-5468
aint	-5469
साथै	-5470
▁GDM	-5471
▁Son	-5472
▁खोज	-5473
urban	-5474
▁gone	-5475
▁तारा	-5476
resent	-5477
▁basic	-5478
▁inher	-5479
▁कुरामा	-5480
▁appoint	-5481
▁आपूर्ति	-5482
▁returned	-5483
ची	-5484
िकरण	-5485
▁यथा	-5486
मित्त	-5487
▁बताए	-5488
▁माउस	-5489
▁Start	-5490
osition	-5491
▁script	-5492
▁देखिएको	-5493
▁internal	-5494
▁regional	-5495
▁id	-5496
ises	-5497
obal	-5498
▁six	-5499
▁mean	-5500
▁मासु	-5501
▁title	-5502
▁integr	-5503
▁limited	-5504
▁workers	-5505
▁कांग्रे	-5506
▁यरूशलेममा	-5507
abb	-5508
लाइन	-5509
▁गणना	-5510
▁भेला	-5511
▁शाखा	-5512
▁स्मृ	-5513
▁चौडाइ	-5514
▁regard	-5515
▁further	-5516
▁attention	-5517
▁employment	-5518
men	-5519
ume	-5520
ype	-5521
▁Out	-5522
▁lik	-5523
▁arch	-5524
▁icon	-5525
▁छिटो	-5526
▁न्यु	-5527
▁agree	-5528
▁प्रशि	-5529
ज्ञानिक	-5530
▁राजस्व	-5531
▁setting	-5532
▁ce	-5533
▁बट	-5534
▁मरू	-5535
▁ढोका	-5536
▁थप्न	-5537
▁chann	-5538
▁सकेनः	-5539
▁associ	-5540
▁पहिचान	-5541
▁पार्टी	-5542
न्नुहोस्	-5543
▁रोजगारी	-5544
▁वर्तमान	-5545
▁सम्भावना	-5546
▁conducted	-5547
▁treatment	-5548
▁administration	-5549
ंक	-5550
दृढ	-5551
प्प	-5552
राध	-5553
istry	-5554
ज्ञात	-5555
देशिक	-5556
▁gate	-5557
▁lord	-5558
▁coven	-5559
▁किनकि	-5560
▁पत्ता	-5561
▁temple	-5562
▁पर्खाल	-5563
▁सुन्दर	-5564
▁अस्पताल	-5565
▁स्थितिमा	-5566
ाँट	-5567
▁Bl	-5568
छ्या	-5569
▁once	-5570
▁carry	-5571
▁later	-5572
▁liter	-5573
▁commer	-5574
▁waters	-5575
▁तपाईंका	-5576
▁अधिराज्य	-5577
▁beginning	-5578
▁परिमार्जन	-5579
ches	-5580
ेक्षण	-5581
▁Dele	-5582
▁Most	-5583
▁आयोग	-5584
▁उपलव	-5585
▁प्रच	-5586
erness	-5587
▁While	-5588
▁Father	-5589
▁letter	-5590
▁kingdom	-5591
▁मूल्यमा	-5592
▁election	-5593
▁उनीहरूले	-5594
ठी	-5595
तया	-5596
▁सक	-5597
▁Ter	-5598
▁करी	-5599
▁क्र	-5600
▁ड्र	-5601
▁anal	-5602
▁close	-5603
▁revenue	-5604
▁उत्पादनमा	-5605
TP	-5606
▁सघ	-5607
agar	-5608
ocus	-5609
▁000	-5610
▁got	-5611
▁गृह	-5612
ently	-5613
▁none	-5614
▁song	-5615
▁truth	-5616
▁गर्छौ	-5617
▁लाग्छ	-5618
▁हुलाक	-5619
▁ज्यादै	-5620
▁सञ्चार	-5621
▁options	-5622
▁अघिल्लो	-5623
▁विकासका	-5624
▁covenant	-5625
▁wilderness	-5626
ks	-5627
दको	-5628
मिटर	-5629
्यास	-5630
▁army	-5631
▁कोठा	-5632
▁व्याव	-5633
▁पाइन्छ	-5634
▁बजारमा	-5635
▁विश्ले	-5636
▁Display	-5637
▁invalid	-5638
▁outside	-5639
▁घृ	-5640
न्दो	-5641
▁GNOME	-5642
▁यहोशू	-5643
▁सुदृढ	-5644
▁त्यसमा	-5645
▁yourself	-5646
ips	-5647
ttp	-5648
▁बल	-5649
्राम	-5650
▁pot	-5651
▁दियो	-5652
pecially	-5653
▁manager	-5654
▁specify	-5655
▁exchange	-5656
ats	-5657
नाइ	-5658
वाट	-5659
aled	-5660
क्षे	-5661
▁Cur	-5662
▁Jeh	-5663
▁View	-5664
▁space	-5665
▁देख्न	-5666
▁middle	-5667
▁किनारा	-5668
▁inherit	-5669
▁Gr	-5670
▁”‘	-5671
▁ign	-5672
▁Every	-5673
▁Under	-5674
athered	-5675
▁immedi	-5676
▁उपेक्षा	-5677
▁डाउनलोड	-5678
▁मन्दिरको	-5679
.4	-5680
yn	-5681
नोम	-5682
▁Ah	-5683
▁कच	-5684
▁तँ	-5685
land	-5686
omon	-5687
ँ्रय	-5688
▁Pol	-5689
▁tra	-5690
▁धर्	-5691
▁धार	-5692
attle	-5693
मार्ग	-5694
▁जापा	-5695
▁माटो	-5696
▁लाग्ने	-5697
▁enemies	-5698
▁Us	-5699
▁Wr	-5700
most	-5701
दानी	-5702
▁कदम	-5703
iscal	-5704
▁भोजन	-5705
ricity	-5706
▁frame	-5707
▁ध्वंश	-5708
▁असक्षम	-5709
▁सल्लाह	-5710
▁writing	-5711
▁प्रतिनि	-5712
▁मानिसहरु	-5713
▁सम्बन्धमा	-5714
▁अभिव्यक्ति	-5715
भार	-5716
राज	-5717
ाँडा	-5718
▁base	-5719
▁टाइप	-5720
▁टेलि	-5721
▁त्या	-5722
▁types	-5723
▁center	-5724
▁अमेरिका	-5725
▁ल्याउनु	-5726
त्न	-5727
वाई	-5728
raid	-5729
न्छे	-5730
लाग्	-5731
▁dre	-5732
▁map	-5733
▁आउँछ	-5734
▁पठाए	-5735
▁urban	-5736
▁दिएका	-5737
▁पिक्स	-5738
▁context	-5739
▁complete	-5740
▁हुनुपर्दछ	-5741
▁participation	-5742
eb	-5743
खु	-5744
▁sn	-5745
▁डु	-5746
▁नस	-5747
▁सौ	-5748
▁hon	-5749
▁org	-5750
ieved	-5751
▁brow	-5752
▁root	-5753
▁Other	-5754
▁steps	-5755
▁सफलता	-5756
▁Window	-5757
▁propert	-5758
▁Although	-5759
▁खानेपानी	-5760
▁सम्भाव्य	-5761
ंदा	-5762
imin	-5763
ables	-5764
redit	-5765
▁निको	-5766
▁पानीको	-5767
▁प्रायः	-5768
▁maximum	-5769
▁persons	-5770
▁gathered	-5771
▁पुस्तकचि	-5772
▁righteousness	-5773
वधि	-5774
ह्य	-5775
▁Fil	-5776
▁फिर	-5777
पट्टि	-5778
▁बनाइ	-5779
estern	-5780
▁schem	-5781
▁extend	-5782
▁panchayat	-5783
ew	-5784
of	-5785
▁फ्	-5786
ylon	-5787
▁bow	-5788
दैनन्	-5789
▁deal	-5790
▁आठौं	-5791
▁उसका	-5792
▁निस्क	-5793
▁अध्यक्ष	-5794
▁उनीहरूको	-5795
gre	-5796
▁Ev	-5797
empt	-5798
▁तत्	-5799
▁रहन	-5800
▁रात	-5801
▁रुको	-5802
▁हावा	-5803
▁भनेका	-5804
▁emphas	-5805
▁फाइलको	-5806
▁Solomon	-5807
▁discuss	-5808
▁किसिमको	-5809
▁क्षेत्रीय	-5810
▁कार्यक्रमको	-5811
▁institutions	-5812
▁IM	-5813
▁Qu	-5814
ाउको	-5815
▁अने	-5816
▁Four	-5817
▁laun	-5818
▁कानु	-5819
▁खराब	-5820
verage	-5821
▁river	-5822
▁दायरा	-5823
▁termin	-5824
▁displayed	-5825
gn	-5826
aff	-5827
पको	-5828
▁भरि	-5829
▁पाउन	-5830
▁Print	-5831
▁रहनेछ	-5832
▁हातमा	-5833
▁Americ	-5834
▁afraid	-5835
▁fiscal	-5836
▁nature	-5837
▁समन्वय	-5838
▁believe	-5839
▁anything	-5840
▁भर	-5841
irth	-5842
▁neg	-5843
▁yes	-5844
▁टगल	-5845
▁चारै	-5846
ansion	-5847
▁iniqu	-5848
▁labor	-5849
▁track	-5850
▁houses	-5851
▁कसैलाई	-5852
▁तस्वीर	-5853
▁Philist	-5854
▁element	-5855
एम	-5856
पक	-5857
▁Dr	-5858
gunj	-5859
ires	-5860
गामी	-5861
निया	-5862
▁inde	-5863
▁खाता	-5864
▁सिंह	-5865
▁stone	-5866
▁दिनको	-5867
▁महिमा	-5868
▁cooper	-5869
▁त्यसरी	-5870
▁प्रवर्	-5871
▁भारतीय	-5872
▁Babylon	-5873
▁folders	-5874
▁परिचालन	-5875
▁मरूभूमि	-5876
▁स्थापित	-5877
▁security	-5878
.9	-5879
gal	-5880
▁आर	-5881
निम्	-5882
लिया	-5883
▁cal	-5884
▁che	-5885
▁एल्	-5886
▁सधै	-5887
▁copy	-5888
▁often	-5889
▁better	-5890
▁entered	-5891
▁families	-5892
.3	-5893
just	-5894
च्छेद	-5895
▁Trans	-5896
▁range	-5897
▁Server	-5898
▁purpose	-5899
▁community	-5900
▁sug	-5901
▁vir	-5902
ouble	-5903
▁hill	-5904
▁sanct	-5905
▁छेउमा	-5906
▁प्रथम	-5907
▁बनाउँ	-5908
▁पार्नु	-5909
▁स्मृति	-5910
▁receive	-5911
▁खाद्यान्न	-5912
▁द्रष्टव्य	-5913
add	-5914
▁गई	-5915
▁अश्	-5916
▁कोष	-5917
▁खरि	-5918
▁दुख	-5919
ength	-5920
नात्मक	-5921
▁Since	-5922
▁makes	-5923
▁itself	-5924
▁movement	-5925
बे	-5926
▁१७	-5927
▁आउन	-5928
▁norm	-5929
▁जसरी	-5930
▁फिरऊ	-5931
▁encod	-5932
▁उपहार	-5933
▁objects	-5934
▁reading	-5935
▁महत्त्व	-5936
▁प्रबन्धक	-5937
▁प्रत्यक्ष	-5938
▁योजनाकालमा	-5939
agr	-5940
let	-5941
trl	-5942
्दो	-5943
▁Ob	-5944
डिया	-5945
न्ना	-5946
▁pix	-5947
right	-5948
र्वाद	-5949
▁door	-5950
▁बिना	-5951
▁सेवक	-5952
▁ट्याग	-5953
▁Export	-5954
▁भनिन्छ	-5955
▁pattern	-5956
▁bookmark	-5957
▁planning	-5958
▁mentioned	-5959
af	-5960
band	-5961
र्का	-5962
▁Lev	-5963
▁joy	-5964
▁sum	-5965
▁भाव	-5966
▁लेव	-5967
णिज्य	-5968
▁Mess	-5969
▁http	-5970
▁prob	-5971
ensive	-5972
uments	-5973
▁inhab	-5974
▁क्लिप	-5975
▁शहरको	-5976
▁अज्ञात	-5977
▁परिणाम	-5978
▁ल्याउने	-5979
▁offerings	-5980
▁रूपान्तरण	-5981
▁institution	-5982
RB	-5983
▁बू	-5984
aves	-5985
▁पेश	-5986
▁माझ	-5987
fully	-5988
▁Mark	-5989
▁anger	-5990
isation	-5991
▁फोल्डरमा	-5992
▁organizations	-5993
13	-5994
MP	-5995
कीय	-5996
ाँउ	-5997
▁एन	-5998
▁४०	-5999
▁pal	-6000
▁rad	-6001
▁curs	-6002
▁rise	-6003
▁पट्ट	-6004
▁राख्	-6005
ctions	-6006
▁north	-6007
▁plans	-6008
▁उन्नत	-6009
▁बच्चा	-6010
▁संभाव	-6011
▁सन्तुल	-6012
▁complet	-6013
▁contain	-6014
▁मन्दिरमा	-6015
▁व्यक्तिगत	-6016
▁सञ्झ्यालमा	-6017
▁expenditure	-6018
.7	-6019
नौट	-6020
▁मल	-6021
▁केटा	-6022
▁तराई	-6023
▁तर्क	-6024
▁भक्त	-6025
▁index	-6026
▁ऊर्जा	-6027
▁Armies	-6028
▁deliver	-6029
▁सर्भरमा	-6030
na	-6031
oub	-6032
▁ब्	-6033
वर्ष	-6034
हामी	-6035
▁देख्	-6036
atives	-6037
▁भन्दै	-6038
▁Public	-6039
▁happen	-6040
▁passed	-6041
▁points	-6042
▁लगाउने	-6043
▁नानीहरू	-6044
▁बालबालिका	-6045
▁<	-6046
▁अह	-6047
नबाट	-6048
▁Act	-6049
▁bit	-6050
▁घुस	-6051
▁चलि	-6052
▁पैठ	-6053
▁पोख	-6054
▁bond	-6055
erence	-6056
▁indic	-6057
▁param	-6058
▁colors	-6059
▁प्रवाह	-6060
▁Agricult	-6061
▁resource	-6062
▁constructed	-6063
▁लड	-6064
कारा	-6065
▁अग्	-6066
▁जरु	-6067
▁लगि	-6068
araoh	-6069
plate	-6070
▁उपाय	-6071
▁लगाइ	-6072
▁सोधे	-6073
istics	-6074
हरूसँग	-6075
▁पात्र	-6076
▁फाइदा	-6077
▁delive	-6078
▁mighty	-6079
▁कुञ्जीपाटी	-6080
IF	-6081
डर	-6082
▁लोक	-6083
▁छैनौ	-6084
▁पर्न	-6085
▁memory	-6086
▁Pharaoh	-6087
▁throughout	-6088
▁कप	-6089
न्तु	-6090
▁बेच	-6091
▁मना	-6092
लिएको	-6093
▁1990	-6094
▁Serv	-6095
▁अग्र	-6096
▁defic	-6097
▁mobil	-6098
▁affect	-6099
▁संचालन	-6100
▁प्राकृतिक	-6101
▁राख्नुहोस्	-6102
लिन	-6103
सर्थ	-6104
▁१९८	-6105
▁foot	-6106
▁मर्म	-6107
▁सुनि	-6108
▁आकर्ष	-6109
▁विविध	-6110
▁सहायक	-6111
▁filled	-6112
▁height	-6113
▁पैठारी	-6114
▁विभाजन	-6115
poration	-6116
▁introdu	-6117
▁profile	-6118
▁आयोजनाहरु	-6119
▁पुस्तकचिनो	-6120
apt	-6121
ङ्ग४	-6122
रेका	-6123
▁pra	-6124
▁आशी	-6125
▁बैठ	-6126
▁fast	-6127
▁अनेक	-6128
▁बैंक	-6129
▁स्टक	-6130
▁हिंड	-6131
▁white	-6132
▁ल्याए	-6133
▁survey	-6134
▁उहाँका	-6135
▁strength	-6136
▁employees	-6137
चाई	-6138
हां	-6139
imal	-6140
मानि	-6141
▁Name	-6142
▁cover	-6143
▁matter	-6144
▁raised	-6145
▁rights	-6146
▁सकिदैन	-6147
▁balance	-6148
eds	-6149
unt	-6150
▁24	-6151
▁अद	-6152
ably	-6153
प्रे	-6154
▁Sec	-6155
▁असम	-6156
▁गाई	-6157
gment	-6158
बोर्ड	-6159
▁Fold	-6160
▁clot	-6161
▁edit	-6162
▁pain	-6163
▁अवसर	-6164
▁favor	-6165
▁media	-6166
▁author	-6167
▁inside	-6168
▁delivered	-6169
▁पुर्याउने	-6170
▁आधु	-6171
▁गएर	-6172
▁tele	-6173
निम्ति	-6174
▁effic	-6175
▁gives	-6176
▁lives	-6177
▁medic	-6178
▁रहन्छ	-6179
नुहुन्न	-6180
म्प्लेट	-6181
▁execut	-6182
▁संसूचक	-6183
▁studies	-6184
▁extension	-6185
▁हस्ताक्षर	-6186
.6	-6187
uck	-6188
▁di	-6189
▁cry	-6190
▁tag	-6191
umber	-6192
vation	-6193
▁serve	-6194
▁देखाउन	-6195
▁स्तरमा	-6196
▁प्रकाशित	-6197
डै	-6198
यल	-6199
pees	-6200
ruct	-6201
▁नाग	-6202
▁२०२	-6203
▁best	-6204
▁ones	-6205
▁पल्ट	-6206
▁गरिनु	-6207
▁Invalid	-6208
▁सम्झौता	-6209
▁practice	-6210
▁क्रमबद्ध	-6211
▁daughters	-6212
▁expansion	-6213
wr	-6214
▁Up	-6215
▁fre	-6216
▁कूल	-6217
▁jour	-6218
▁थियौ	-6219
▁लगाउन	-6220
▁bottom	-6221
▁निमित्त	-6222
▁मोशालाई	-6223
▁Fr	-6224
izon	-6225
किने	-6226
▁Loc	-6227
ighth	-6228
▁घृणा	-6229
▁Where	-6230
▁ध्वनि	-6231
▁विनिमय	-6232
▁initial	-6233
▁removed	-6234
▁क्रियाक	-6235
▁ह्यान्ड	-6236
zz	-6237
▁पं	-6238
rast	-6239
rupt	-6240
▁bud	-6241
▁reb	-6242
▁खाल	-6243
▁छनौट	-6244
usband	-6245
▁email	-6246
▁गरेमा	-6247
▁गर्थे	-6248
▁पूँजी	-6249
▁उपलव्ध	-6250
▁especially	-6251
▁लगाउनुहोस्	-6252
चय	-6253
साब	-6254
▁aw	-6255
त्ती	-6256
▁वाक	-6257
cious	-6258
▁Make	-6259
▁canc	-6260
▁हारू	-6261
ething	-6262
▁पत्रु	-6263
▁really	-6264
▁खुट्टा	-6265
▁regions	-6266
▁schools	-6267
आई	-6268
▁CD	-6269
रहेछ	-6270
▁eld	-6271
▁कोइ	-6272
▁जनस	-6273
veral	-6274
स्कार	-6275
▁theme	-6276
▁princes	-6277
▁भइसकेको	-6278
▁वाणिज्य	-6279
▁हुनसक्छ	-6280
▁domestic	-6281
▁छल	-6282
▁milk	-6283
▁ज्ञा	-6284
▁पुगे	-6285
encies	-6286
▁birth	-6287
▁दीर्घ	-6288
▁पछाडि	-6289
▁formul	-6290
▁hidden	-6291
▁objective	-6292
पथ	-6293
▁1,	-6294
▁Kh	-6295
▁km	-6296
▁आप	-6297
तपाई	-6298
▁दिई	-6299
▁होम	-6300
ribes	-6301
▁Comp	-6302
▁Dist	-6303
▁bear	-6304
▁clip	-6305
▁held	-6306
▁अप्र	-6307
▁खरिद	-6308
▁चिनो	-6309
▁बन्न	-6310
▁लिने	-6311
▁विना	-6312
ressed	-6313
स्थामा	-6314
▁wrong	-6315
▁गरिदि	-6316
▁बतायो	-6317
▁length	-6318
▁लाग्यो	-6319
▁देखाउने	-6320
▁इस्राएलको	-6321
ID	-6322
use	-6323
▁22	-6324
▁भय	-6325
cing	-6326
व्या	-6327
▁Exp	-6328
▁uns	-6329
▁दर्	-6330
▁श्र	-6331
▁eval	-6332
▁gods	-6333
▁wise	-6334
▁रद्द	-6335
स्थापन	-6336
▁trust	-6337
▁fields	-6338
▁निर्वा	-6339
▁साधनको	-6340
▁preview	-6341
ech	-6342
ँदा	-6343
चाइ	-6344
▁fat	-6345
▁red	-6346
▁upd	-6347
▁Ctrl	-6348
▁girl	-6349
▁System	-6350
▁needed	-6351
▁भण्डारण	-6352
▁आशीर्वाद	-6353
▁permission	-6354
टल	-6355
किन	-6356
file	-6357
▁नभए	-6358
▁hope	-6359
▁wait	-6360
▁Those	-6361
▁doing	-6362
▁reach	-6363
▁नहुने	-6364
▁giving	-6365
▁जिम्मे	-6366
▁सेवाको	-6367
▁allowed	-6368
▁husband	-6369
▁सबभन्दा	-6370
▁disabled	-6371
▁टेम्प्लेट	-6372
TE	-6373
शे	-6374
्यू	-6375
तिमा	-6376
रहनु	-6377
हिने	-6378
▁कृषक	-6379
▁लिनु	-6380
▁टाउको	-6381
▁तसर्थ	-6382
▁मुक्त	-6383
न्त्रिक	-6384
▁leaders	-6385
▁pressure	-6386
▁ge	-6387
▁thr	-6388
▁छाउ	-6389
▁लगे	-6390
प्पणी	-6391
ाउँदै	-6392
▁town	-6393
▁नोकर	-6394
▁बस्न	-6395
▁First	-6396
▁reform	-6397
▁पुग्ने	-6398
▁बिरामी	-6399
ike	-6400
aiah	-6401
वासी	-6402
▁आएर	-6403
▁male	-6404
▁उल्ट	-6405
▁ग्रे	-6406
▁सहित	-6407
▁आफूले	-6408
▁broken	-6409
▁caused	-6410
▁prepar	-6411
▁कार्यको	-6412
▁प्रशासन	-6413
▁improved	-6414
▁कार्यहरू	-6415
26	-6416
हको	-6417
▁Gl	-6418
osen	-6419
ग्ने	-6420
ललाई	-6421
ष्टा	-6422
▁Tog	-6423
▁आरो	-6424
▁नमू	-6425
▁Spec	-6426
▁thir	-6427
▁initi	-6428
▁story	-6429
▁इतिहास	-6430
▁संरचना	-6431
ological	-6432
▁towards	-6433
▁लेखिएको	-6434
▁Configure	-6435
▁disciples	-6436
▁providing	-6437
▁सुख	-6438
▁1989	-6439
▁Note	-6440
▁tons	-6441
▁wine	-6442
▁wood	-6443
▁shows	-6444
▁बाहेक	-6445
▁Choose	-6446
▁असमर्थ	-6447
▁सबैलाई	-6448
▁राजालाई	-6449
▁वस्तुको	-6450
.8	-6451
िया	-6452
fort	-6453
▁अशु	-6454
▁पेट	-6455
orrow	-6456
▁Sing	-6457
▁cook	-6458
▁भ्रम	-6459
▁शहरी	-6460
▁banks	-6461
▁seeds	-6462
▁काममा	-6463
▁जिनोम	-6464
▁थिइन्	-6465
▁अनुसरण	-6466
▁फाइलनाम	-6467
▁hectares	-6468
बास	-6469
ाइट	-6470
ोमा	-6471
्वा	-6472
▁बौ	-6473
▁syn	-6474
▁tou	-6475
▁अम्	-6476
▁खानु	-6477
▁paper	-6478
▁कमजोर	-6479
▁बलियो	-6480
▁rupees	-6481
▁trying	-6482
▁येशूको	-6483
▁greater	-6484
▁पिक्सेल	-6485
▁neighbor	-6486
▁वैज्ञानिक	-6487
▁Philistines	-6488
▁bad	-6489
▁buy	-6490
धिकार	-6491
▁goes	-6492
▁करीब	-6493
▁दिएर	-6494
▁पारे	-6495
▁Depart	-6496
▁Joseph	-6497
▁parent	-6498
▁remain	-6499
▁saving	-6500
▁sexual	-6501
▁ताल्चा	-6502
ervation	-6503
▁Levites	-6504
▁उपभोक्ता	-6505
देऊ	-6506
रुष	-6507
asad	-6508
ival	-6509
कल्प	-6510
▁rej	-6511
▁focus	-6512
▁quant	-6513
▁sleep	-6514
▁width	-6515
▁ग्रहण	-6516
▁रुपले	-6517
▁credit	-6518
▁likely	-6519
▁single	-6520
▁taking	-6521
▁भएकाले	-6522
▁prophet	-6523
▁टिप्पणी	-6524
▁question	-6525
▁केन्द्री	-6526
▁companies	-6527
▁commercial	-6528
hua	-6529
ury	-6530
▁गइ	-6531
▁गे	-6532
▁शू	-6533
पोरे	-6534
▁Fin	-6535
▁Sup	-6536
▁गहि	-6537
▁मनो	-6538
स्थान	-6539
▁दोहो	-6540
▁बजेट	-6541
▁सुरू	-6542
▁trave	-6543
▁दैनिक	-6544
▁Delete	-6545
▁compet	-6546
▁enough	-6547
▁थिएनन्	-6548
▁पर्नेछ	-6549
▁मार्फत	-6550
▁animals	-6551
▁average	-6552
▁kindness	-6553
IN	-6554
डको	-6555
iful	-6556
रीका	-6557
osing	-6558
र्मिन	-6559
▁नेता	-6560
▁भन्छ	-6561
▁alone	-6562
▁audio	-6563
▁कस्तो	-6564
▁पुनरा	-6565
ription	-6566
▁People	-6567
▁visible	-6568
▁सङ्ग्रह	-6569
▁assembly	-6570
▁occurred	-6571
▁certificate	-6572
▁पूजाहारीहरू	-6573
जक	-6574
ray	-6575
साद	-6576
▁Ba	-6577
uary	-6578
एनन्	-6579
ित्व	-6580
ुक्त	-6581
▁बार	-6582
▁vess	-6583
▁weak	-6584
▁किशो	-6585
▁रहेछ	-6586
ट्टामा	-6587
▁तयारी	-6588
▁टाढाको	-6589
▁checked	-6590
▁जिल्लामा	-6591
▁भविष्यमा	-6592
▁विमानस्थ	-6593
▁आयोजनाहरुको	-6594
▁पूर्वावलोकन	-6595
ogn	-6596
ँदै	-6597
▁ये	-6598
amin	-6599
द्धन	-6600
▁१००	-6601
▁अञ्च	-6602
▁चालु	-6603
▁पठाइ	-6604
▁event	-6605
▁चाहिं	-6606
▁मर्मत	-6607
▁Couldn	-6608
▁scient	-6609
▁contents	-6610
▁signific	-6611
▁शिक्षाको	-6612
▁Evolution	-6613
▁destroyed	-6614
▁promotion	-6615
▁क्षेत्रका	-6616
cul	-6617
▁Fl	-6618
▁उड	-6619
▁खत	-6620
▁तै	-6621
ताका	-6622
लेखन	-6623
्यूब	-6624
▁Att	-6625
▁Mar	-6626
▁नदि	-6627
▁मही	-6628
▁Jews	-6629
▁फिल्ड	-6630
liament	-6631
stitute	-6632
▁wisdom	-6633
▁किसिमका	-6634
▁creation	-6635
▁iniquity	-6636
▁२२	-6637
न्डर	-6638
▁एकद	-6639
▁छाड	-6640
▁दूध	-6641
▁वीर	-6642
ators	-6643
▁loss	-6644
▁ताकि	-6645
itting	-6646
ribute	-6647
▁raise	-6648
▁गुप्त	-6649
▁जरुरी	-6650
▁Fourth	-6651
▁master	-6652
▁shares	-6653
▁टर्मिन	-6654
▁बनाएको	-6655
▁content	-6656
▁teachers	-6657
▁जानुहोस्	-6658
▁multitude	-6659
▁बताउनुभयो	-6660
▁understanding	-6661
gs	-6662
न्थ	-6663
▁Ge	-6664
▁Jan	-6665
▁den	-6666
▁flo	-6667
raham	-6668
▁IMAP	-6669
▁wind	-6670
▁झूटो	-6671
▁परिष	-6672
▁प्रस	-6673
▁अधिका	-6674
▁आन्दो	-6675
▁गर्नमा	-6676
▁तुलनामा	-6677
▁mountains	-6678
▁undertaken	-6679
be	-6680
चो	-6681
सक	-6682
adh	-6683
राय	-6684
▁Tw	-6685
omes	-6686
▁अबी	-6687
स्तार	-6688
▁तेर्	-6689
▁eight	-6690
▁पठाउन	-6691
▁सहभाग	-6692
▁पठाउनु	-6693
▁Abraham	-6694
▁constit	-6695
▁deficit	-6696
▁agreement	-6697
▁रोज्नुहोस्	-6698
▁immediately	-6699
▁ँ	-6700
ony	-6701
uge	-6702
वान	-6703
ivil	-6704
दछन्	-6705
रेखा	-6706
ह्रै	-6707
▁Raj	-6708
▁इला	-6709
▁बढा	-6710
▁साझ	-6711
aries	-6712
बाहेक	-6713
▁ever	-6714
▁upon	-6715
▁ठाडो	-6716
▁स्या	-6717
र्मिया	-6718
▁chosen	-6719
▁पर्यटक	-6720
▁sources	-6721
▁दाऊदलाई	-6722
▁सर्वेक्षण	-6723
डिङ	-6724
book	-6725
श्या	-6726
▁Joh	-6727
▁led	-6728
▁lif	-6729
oples	-6730
▁Paul	-6731
▁जमीन	-6732
▁लेखि	-6733
▁Const	-6734
▁sheep	-6735
▁होस्ट	-6736
erences	-6737
▁Indust	-6738
▁annual	-6739
▁reduce	-6740
▁अशुद्ध	-6741
▁आधुनिक	-6742
▁पुस्ति	-6743
▁General	-6744
▁unclean	-6745
▁अय	-6746
क्ने	-6747
▁ago	-6748
▁चर्	-6749
▁Many	-6750
▁east	-6751
▁गराई	-6752
▁worth	-6753
▁wrath	-6754
▁गर्नको	-6755
▁conduct	-6756
▁inhabit	-6757
▁अपेक्षा	-6758
▁उत्पादक	-6759
▁त्र्चाइ	-6760
▁पृथ्वीमा	-6761
▁something	-6762
BAR	-6763
तका	-6764
▁एम	-6765
ache	-6766
▁बेत	-6767
▁rose	-6768
▁tent	-6769
▁दुर्	-6770
▁साझा	-6771
▁bound	-6772
▁पोर्ट	-6773
▁सार्न	-6774
▁फर्केर	-6775
iversity	-6776
ita	-6777
view	-6778
▁esc	-6779
▁खडा	-6780
▁Inst	-6781
▁slow	-6782
▁जहाज	-6783
isions	-6784
▁princ	-6785
▁मुलुक	-6786
▁सजिलो	-6787
▁Commit	-6788
▁editor	-6789
▁either	-6790
▁उपयोगी	-6791
▁adopted	-6792
▁धन्यवाद	-6793
▁remember	-6794
▁हुनुहुन्थ्यो	-6795
gl	-6796
oll	-6797
ols	-6798
term	-6799
मैले	-6800
▁Sub	-6801
▁ren	-6802
▁saf	-6803
▁गते	-6804
izing	-6805
▁Such	-6806
▁desire	-6807
▁modern	-6808
▁मान्छे	-6809
▁evening	-6810
▁किलोमिटर	-6811
▁objectives	-6812
▁inheritance	-6813
जको	-6814
omet	-6815
ट्टै	-6816
▁See	-6817
▁abs	-6818
▁bes	-6819
avior	-6820
verse	-6821
जस्तै	-6822
▁feas	-6823
▁lost	-6824
▁जसमा	-6825
▁बनाई	-6826
▁हवाई	-6827
▁Their	-6828
▁यहूदी	-6829
▁सबैले	-6830
▁साझेद	-6831
▁peoples	-6832
▁prophets	-6833
▁collection	-6834
▁conditions	-6835
▁administrative	-6836
दल	-6837
akh	-6838
केा	-6839
जमा	-6840
राइ	-6841
▁jo	-6842
born	-6843
▁147	-6844
▁Val	-6845
▁und	-6846
▁चम्	-6847
▁बीउ	-6848
▁१९९	-6849
▁Also	-6850
▁Budd	-6851
▁घोडा	-6852
idence	-6853
▁एकदमै	-6854
▁ड्राइ	-6855
▁बाध्य	-6856
▁मान्य	-6857
▁मित्र	-6858
izontal	-6859
▁budget	-6860
▁entire	-6861
▁simple	-6862
▁channel	-6863
▁prevent	-6864
oom	-6865
▁औस	-6866
▁ill	-6867
▁रेक	-6868
issing	-6869
▁Region	-6870
▁valley	-6871
▁तिनीहरु	-6872
▁त्यसबेला	-6873
▁माथिल्लो	-6874
▁योजनावधि	-6875
▁कार्यक्रममा	-6876
iol	-6877
पहि	-6878
anced	-6879
ental	-6880
▁feed	-6881
▁२०४८	-6882
▁Third	-6883
▁rules	-6884
▁छविको	-6885
▁रह्यो	-6886
ष्ट्रिय	-6887
▁गराइनेछ	-6888
▁सङ्केतन	-6889
▁६०	-6890
▁dra	-6891
▁hur	-6892
▁brid	-6893
▁कार्	-6894
▁२०४६	-6895
▁नागरिक	-6896
▁बाटोमा	-6897
▁attract	-6898
▁looking	-6899
▁चाहन्छु	-6900
▁पारिएको	-6901
▁यिनीहरू	-6902
▁राजमार्ग	-6903
▁सामाग्री	-6904
▁सुलेमानले	-6905
▁Department	-6906
▁expression	-6907
▁generation	-6908
ety	-6909
मोन	-6910
▁row	-6911
▁अलग	-6912
▁जला	-6913
▁forg	-6914
▁lock	-6915
▁पद्ध	-6916
सम्ममा	-6917
साधारण	-6918
▁पुरुष	-6919
▁सुन्न	-6920
▁breast	-6921
▁परास्त	-6922
▁offices	-6923
▁several	-6924
▁राजनीतिक	-6925
▁उद्देश्यले	-6926
PG	-6927
ेरी	-6928
▁40	-6929
▁82	-6930
▁गुरु	-6931
▁दुबै	-6932
नामकरण	-6933
▁artic	-6934
▁quick	-6935
▁मोडमा	-6936
▁सालमा	-6937
▁निश्चय	-6938
▁tourism	-6939
▁परीक्षा	-6940
▁included	-6941
▁original	-6942
▁मेट्नुहोस्	-6943
▁arrangements	-6944
ंसी	-6945
aily	-6946
cher	-6947
▁seem	-6948
▁मण्ड	-6949
▁सपना	-6950
▁साथी	-6951
▁२०४७	-6952
▁पुनर्	-6953
▁groups	-6954
▁review	-6955
▁गराउनु	-6956
▁covered	-6957
▁प्रेरित	-6958
▁external	-6959
▁व्यवस्थाको	-6960
atch	-6961
hent	-6962
नीमा	-6963
▁aim	-6964
atter	-6965
▁यूआर	-6966
▁आगामी	-6967
▁शहरका	-6968
▁except	-6969
▁होमबलि	-6970
▁न्यूनतम	-6971
▁पुर्याउन	-6972
▁committee	-6973
▁परम्परागत	-6974
▁क्षेत्रलाई	-6975
▁थिच्नुहोस्	-6976
br	-6977
pa	-6978
चे	-6979
पद	-6980
ept	-6981
gry	-6982
▁एल	-6983
esty	-6984
mend	-6985
▁fig	-6986
▁एकल	-6987
▁घुमा	-6988
▁cloth	-6989
▁staff	-6990
▁Second	-6991
▁चाहन्छ	-6992
▁साह्रै	-6993
▁measures	-6994
▁terminal	-6995
▁उनीहरूलाई	-6996
▁electricity	-6997
▁respectively	-6998
चेत	-6999
▁23	-7000
▁Gu	-7001
▁यूह	-7002
▁साव	-7003
bered	-7004
▁अङ्क	-7005
▁जवान	-7006
▁तथ्य	-7007
atever	-7008
ीहरूका	-7009
▁अर्का	-7010
▁दर्ता	-7011
▁behind	-7012
▁पुग्यो	-7013
▁published	-7014
▁नगर्नुहोस्	-7015
▁प्रतिक्रिया	-7016
year	-7017
केका	-7018
ञ्जू	-7019
स्सा	-7020
▁Ins	-7021
▁इभो	-7022
▁साट	-7023
▁1991	-7024
▁vine	-7025
▁संकल	-7026
▁force	-7027
▁सुनको	-7028
▁तेर्सो	-7029
▁प्रहरी	-7030
कारात्मक	-7031
तान्त्रिक	-7032
▁कम्पनीले	-7033
▁yourselves	-7034
▁opportunities	-7035
चर	-7036
nal	-7037
ठित	-7038
मार	-7039
▁अम	-7040
used	-7041
▁rule	-7042
▁नारी	-7043
▁बाँध	-7044
▁लाग्	-7045
ograph	-7046
कल्पिक	-7047
▁early	-7048
▁panel	-7049
▁देखाउ	-7050
▁सक्नु	-7051
▁Prasad	-7052
▁बढाउने	-7053
▁स्थायी	-7054
missions	-7055
▁coordin	-7056
▁numbers	-7057
▁similar	-7058
▁समायोजन	-7059
▁followed	-7060
▁गरिनेछन्	-7061
▁मानचित्र	-7062
▁structure	-7063
▁क्लिपबोर्ड	-7064
era	-7065
ien	-7066
दुर	-7067
▁ID	-7068
▁झा	-7069
▁हरू	-7070
▁crow	-7071
▁disk	-7072
▁skin	-7073
▁फाँट	-7074
▁यद्य	-7075
pected	-7076
▁अस्था	-7077
▁दाखरस	-7078
▁मौलिक	-7079
ression	-7080
▁Remove	-7081
▁च्यानल	-7082
▁मुद्रक	-7083
▁central	-7084
▁धेरैजसो	-7085
PS	-7086
टकट	-7087
▁घा	-7088
▁नप	-7089
hood	-7090
क्का	-7091
दाता	-7092
▁ris	-7093
▁गठन	-7094
▁infl	-7095
▁भयोः	-7096
▁मारे	-7097
▁युवा	-7098
▁रहनु	-7099
▁सिय्	-7100
▁द्वार	-7101
▁परेका	-7102
▁राम्र	-7103
प्राप्त	-7104
▁course	-7105
▁metric	-7106
▁normal	-7107
▁इभोल्यु	-7108
▁विरुद्ध	-7109
▁sacrifice	-7110
▁—	-7111
bum	-7112
▁धो	-7113
विधि	-7114
▁Edu	-7115
▁Eli	-7116
▁Med	-7117
▁आगत	-7118
▁आम्	-7119
▁टाँ	-7120
▁नपा	-7121
vings	-7122
हित्य	-7123
▁पक्र	-7124
▁रङ्ग	-7125
▁south	-7126
▁trees	-7127
▁pieces	-7128
▁rather	-7129
▁तिमीहरु	-7130
▁specific	-7131
▁तथ्याङ्क	-7132
oid	-7133
राख	-7134
▁छः	-7135
▁२४	-7136
्युल	-7137
▁Her	-7138
▁exc	-7139
▁उठा	-7140
atory	-7141
oices	-7142
▁Send	-7143
▁Time	-7144
▁उचाइ	-7145
▁कठिन	-7146
▁Terai	-7147
▁judge	-7148
▁हत्या	-7149
▁levels	-7150
▁दिन्छु	-7151
▁सर्टकट	-7152
▁forward	-7153
▁हुनेछैन	-7154
mi	-7155
्म	-7156
वेयर	-7157
▁May	-7158
▁Ram	-7159
▁Sun	-7160
odies	-7161
▁Pres	-7162
▁अनिय	-7163
▁issue	-7164
respond	-7165
▁Joshua	-7166
▁हेक्टर	-7167
▁printer	-7168
▁involved	-7169
▁organized	-7170
▁क्रियाकलाप	-7171
मत	-7172
माई	-7173
लगा	-7174
ैन्	-7175
▁जग	-7176
ping	-7177
ैंचा	-7178
▁धनी	-7179
▁फूल	-7180
▁विध	-7181
नैतिक	-7182
▁Coun	-7183
▁Load	-7184
▁pros	-7185
▁भित्	-7186
हरूसित	-7187
▁block	-7188
▁enemy	-7189
▁stones	-7190
▁अनुरुप	-7191
▁राखेको	-7192
▁Connect	-7193
▁produce	-7194
▁science	-7195
▁relations	-7196
ेसन	-7197
▁TR	-7198
elve	-7199
pace	-7200
र्दन	-7201
▁Get	-7202
▁सां	-7203
▁हिज	-7204
ories	-7205
verty	-7206
▁Take	-7207
▁छलफल	-7208
▁takes	-7209
▁tribe	-7210
▁क्यास	-7211
▁anyone	-7212
▁thirty	-7213
▁जापानी	-7214
▁दुइवटा	-7215
▁मानहरू	-7216
▁विकसित	-7217
▁monitor	-7218
▁वितरणको	-7219
▁shortcut	-7220
▁अहिलेसम्म	-7221
▁सञ्झ्यालको	-7222
▁responsibility	-7223
isf	-7224
बुल	-7225
▁Ir	-7226
▁२१	-7227
मेरा	-7228
लाले	-7229
स्ती	-7230
▁ant	-7231
▁गरू	-7232
पहिलो	-7233
▁fert	-7234
▁rele	-7235
▁एल्ब	-7236
व्यापी	-7237
▁pleas	-7238
▁अत्या	-7239
▁चलाउन	-7240
▁पछ्या	-7241
▁भएकोछ	-7242
▁विशाल	-7243
▁सहमति	-7244
▁poverty	-7245
▁देखाउनु	-7246
▁अत्यन्तै	-7247
▁तपाईँसँग	-7248
▁पुननामकरण	-7249
▁प्रतिस्थापन	-7250
xy	-7251
ैत	-7252
▁Sm	-7253
▁Eph	-7254
▁बसि	-7255
▁Find	-7256
▁Tool	-7257
▁pict	-7258
▁ट्रे	-7259
बृद्धि	-7260
▁subst	-7261
▁चिहान	-7262
▁प्रती	-7263
▁फर्कि	-7264
▁फ्याँ	-7265
▁बीचको	-7266
▁समक्ष	-7267
▁secret	-7268
▁गरेपछि	-7269
▁चाहेको	-7270
▁रेकर्ड	-7271
▁प्रणालीमा	-7272
▁सन्देशहरू	-7273
▁Commission	-7274
▁correspond	-7275
▁परिवर्तनहरू	-7276
ey	-7277
ps	-7278
रूष	-7279
▁आम	-7280
▁Air	-7281
▁फला	-7282
▁Beth	-7283
▁fail	-7284
▁pref	-7285
▁गोली	-7286
iction	-7287
▁daily	-7288
▁बराबर	-7289
▁स्कूल	-7290
▁Folder	-7291
▁संग्रह	-7292
▁समूहका	-7293
utr	-7294
▁Mod	-7295
▁dry	-7296
▁fal	-7297
▁डिज	-7298
▁समी	-7299
plied	-7300
▁earn	-7301
▁fine	-7302
▁सुना	-7303
▁सेतो	-7304
▁store	-7305
▁नदीको	-7306
▁बनेको	-7307
▁बैङ्क	-7308
▁gather	-7309
▁दाहिने	-7310
▁सर्वदा	-7311
▁friends	-7312
▁teaching	-7313
▁अनुक्रमण	-7314
▁विरूद्धमा	-7315
धै	-7316
oir	-7317
une	-7318
मती	-7319
▁बर्	-7320
▁ब्य	-7321
अगाडि	-7322
▁Educ	-7323
▁magn	-7324
▁reve	-7325
▁रातो	-7326
▁सार्	-7327
▁Group	-7328
▁fixed	-7329
▁photo	-7330
शास्त्र	-7331
▁Switch	-7332
▁pixels	-7333
▁बिन्या	-7334
▁साहित्य	-7335
▁differen	-7336
▁clipboard	-7337
▁प्रशिक्षण	-7338
▁पूजाहारीले	-7339
▁राष्टिँ्रय	-7340
िन्	-7341
▁Ret	-7342
ifies	-7343
rency	-7344
▁sort	-7345
▁छोडि	-7346
▁ध्या	-7347
▁पाना	-7348
▁flock	-7349
▁music	-7350
▁क्षमा	-7351
ryption	-7352
▁Health	-7353
▁cubits	-7354
▁widget	-7355
▁यद्यपि	-7356
▁सहभागि	-7357
▁सृष्टि	-7358
fficient	-7359
▁prepare	-7360
▁गुणस्तर	-7361
▁गर्नुपर्दछ	-7362
▁वस्तुहरुको	-7363
णु	-7364
ler	-7365
ows	-7366
डमा	-7367
▁नी	-7368
ners	-7369
plet	-7370
गञ्ज	-7371
▁Bar	-7372
▁Dan	-7373
▁Tod	-7374
aring	-7375
▁easy	-7376
▁fight	-7377
▁एलीशा	-7378
▁प्राण	-7379
▁सर्वो	-7380
▁जीवनको	-7381
▁रेडियो	-7382
▁हुँदैछ	-7383
▁significant	-7384
▁applications	-7385
adi	-7386
unk	-7387
ियो	-7388
▁एच	-7389
▁सँ	-7390
▁सत	-7391
▁web	-7392
▁दाउ	-7393
▁नया	-7394
स्पर्	-7395
▁Back	-7396
▁गर्द	-7397
▁मनश्	-7398
▁ordin	-7399
▁अय्यूब	-7400
▁कुराको	-7401
▁देखिने	-7402
▁योगदान	-7403
▁हेर्दा	-7404
▁Current	-7405
▁क्रोधित	-7406
▁ब्राउजर	-7407
▁मोड्युल	-7408
▁सम्पादक	-7409
▁keyboard	-7410
▁विश्लेषण	-7411
हाल	-7412
▁लिए	-7413
सायिक	-7414
▁fool	-7415
▁rain	-7416
▁कारखा	-7417
▁Toggle	-7418
▁sister	-7419
▁useful	-7420
▁चाहिने	-7421
▁यूआरएल	-7422
▁वार्ता	-7423
▁शब्दको	-7424
▁हाइलाइ	-7425
▁details	-7426
▁filename	-7427
▁packages	-7428
▁gradually	-7429
शास	-7430
▁२३	-7431
▁Maj	-7432
▁जगे	-7433
aging	-7434
▁soil	-7435
▁viol	-7436
▁चालू	-7437
▁ल्याउ	-7438
▁closed	-7439
▁अनुपात	-7440
▁ज्ञानी	-7441
▁हुनेछौ	-7442
▁savings	-7443
▁अधिलेखन	-7444
▁Japanese	-7445
▁व्यक्तिले	-7446
▁योजनावधिमा	-7447
सल	-7448
टिल	-7449
▁Wor	-7450
▁lad	-7451
▁कतै	-7452
▁ग्र	-7453
asons	-7454
▁Fore	-7455
▁John	-7456
▁Play	-7457
▁Text	-7458
▁shad	-7459
▁बर्ष	-7460
▁वायु	-7461
estock	-7462
▁चाँडै	-7463
▁बढ्दै	-7464
▁बढ्दो	-7465
▁यर्दन	-7466
▁surely	-7467
▁trading	-7468
▁महिनाको	-7469
▁उत्पादनको	-7470
▁तिनीहरुले	-7471
दु	-7472
क्व	-7473
चाह	-7474
चिव	-7475
हले	-7476
▁80	-7477
▁Bo	-7478
▁हद	-7479
▁४७	-7480
द्दी	-7481
रुवा	-7482
ordan	-7483
श्वास	-7484
▁dece	-7485
▁Mount	-7486
▁घण्टा	-7487
▁बाह्र	-7488
▁Number	-7489
▁गरेनन्	-7490
▁दृश्या	-7491
▁अस्थायी	-7492
▁कुञ्जीहरू	-7493
ढे	-7494
हका	-7495
▁21	-7496
▁३२	-7497
ीकृत	-7498
▁Try	-7499
▁औसत	-7500
नुहार	-7501
▁bull	-7502
▁hide	-7503
porary	-7504
▁decre	-7505
▁honor	-7506
▁उपत्य	-7507
▁उपभोग	-7508
▁देखिन	-7509
▁भ्रमण	-7510
▁Jordan	-7511
▁अनुहार	-7512
▁कुराका	-7513
▁defined	-7514
▁लगानीको	-7515
▁inhabitants	-7516
▁प्रजातान्त्रिक	-7517
SC	-7518
elt	-7519
law	-7520
okh	-7521
ria	-7522
काई	-7523
छौं	-7524
जनक	-7525
▁ur	-7526
▁अं	-7527
▁४२	-7528
iced	-7529
मूएल	-7530
▁pun	-7531
▁घरे	-7532
adesh	-7533
▁desp	-7534
▁कसले	-7535
▁लेवी	-7536
▁धारणा	-7537
▁eating	-7538
▁खुल्ला	-7539
▁पश्चिम	-7540
▁रुपैया	-7541
▁वैकल्पिक	-7542
▁ह्यान्डल	-7543
by	-7544
ml	-7545
चु	-7546
सव	-7547
ितो	-7548
cast	-7549
वाणी	-7550
▁dut	-7551
लाहरू	-7552
▁उत्सा	-7553
▁एप्रै	-7554
▁सुम्प	-7555
▁altern	-7556
▁perman	-7557
▁twelve	-7558
▁अनुगमन	-7559
▁कलाकार	-7560
▁remains	-7561
▁साँच्चै	-7562
▁represent	-7563
▁permissions	-7564
जब	-7565
▁घे	-7566
▁दौ	-7567
▁भग	-7568
ipur	-7569
rase	-7570
सहित	-7571
▁fem	-7572
▁गाउ	-7573
▁हरा	-7574
्यालो	-7575
▁pill	-7576
▁rock	-7577
▁खेला	-7578
▁नक्सा	-7579
▁bodies	-7580
▁enable	-7581
▁exceed	-7582
▁instru	-7583
▁मानसिक	-7584
▁maintain	-7585
▁presented	-7586
▁president	-7587
▁protection	-7588
नोट	-7589
▁पप	-7590
▁Int	-7591
▁अंग	-7592
aught	-7593
ञ्जेल	-7594
▁front	-7595
▁limit	-7596
▁घरेलु	-7597
▁जानेछ	-7598
▁डिस्क	-7599
▁सम्मि	-7600
▁battle	-7601
▁अधिकांश	-7602
▁facility	-7603
▁direction	-7604
▁केन्द्रीय	-7605
▁प्रतिस्पर्	-7606
▁प्रोत्साहन	-7607
खे	-7608
lier	-7609
तीमा	-7610
▁पुल	-7611
athan	-7612
▁Benj	-7613
▁Keep	-7614
▁loan	-7615
▁soon	-7616
▁बाँड	-7617
▁मेटि	-7618
▁elders	-7619
▁अर्थात	-7620
▁बचाउनु	-7621
▁मात्रै	-7622
▁thought	-7623
▁लाइब्रे	-7624
▁पुस्तिका	-7625
▁characters	-7626
▁traditional	-7627
▁installation	-7628
दू	-7629
केल	-7630
हाब	-7631
iled	-7632
पाही	-7633
लेका	-7634
▁ark	-7635
▁चोट	-7636
▁भरो	-7637
▁सरल	-7638
▁Will	-7639
▁harm	-7640
▁हिमा	-7641
▁South	-7642
▁Today	-7643
▁login	-7644
▁उत्तम	-7645
▁पुरूष	-7646
मन्त्री	-7647
▁longer	-7648
▁medium	-7649
▁replace	-7650
▁decision	-7651
▁बिन्यामी	-7652
▁वर्षसम्म	-7653
▁livestock	-7654
▁particular	-7655
.00	-7656
key	-7657
obo	-7658
रिङ	-7659
िकै	-7660
▁60	-7661
▁खि	-7662
▁पौ	-7663
▁Red	-7664
▁har	-7665
▁rid	-7666
▁जंग	-7667
▁पुर	-7668
▁मरि	-7669
▁sens	-7670
▁sins	-7671
▁छोटो	-7672
▁शारी	-7673
ftware	-7674
icense	-7675
▁Table	-7676
▁recom	-7677
▁units	-7678
▁कार्ड	-7679
▁नमूना	-7680
▁मकहाँ	-7681
▁transl	-7682
▁नसक्ने	-7683
▁सिपाही	-7684
▁execute	-7685
▁Ministry	-7686
▁statement	-7687
▁establishment	-7688
tle	-7689
▁उस	-7690
▁ढि	-7691
द्दा	-7692
▁Sat	-7693
▁cam	-7694
▁sus	-7695
▁कले	-7696
▁मरे	-7697
eting	-7698
ffice	-7699
▁drag	-7700
▁मापन	-7701
▁योआब	-7702
▁सियो	-7703
स्तरीय	-7704
▁alloc	-7705
▁angel	-7706
हरूमाथि	-7707
▁Associ	-7708
▁impact	-7709
▁सिद्धा	-7710
▁प्रकाशन	-7711
▁संस्थागत	-7712
▁Panchayat	-7713
▁statistics	-7714
ेशन	-7715
▁.2	-7716
ique	-7717
धानी	-7718
▁Bah	-7719
▁Our	-7720
ading	-7721
ented	-7722
ointed	-7723
श्चर्य	-7724
▁match	-7725
▁बढेको	-7726
▁मार्न	-7727
▁prison	-7728
▁जीवनमा	-7729
▁परिषद्	-7730
▁deleted	-7731
▁Exchange	-7732
▁download	-7733
▁produced	-7734
▁हिजकियाह	-7735
gers	-7736
्राफ	-7737
▁गधा	-7738
▁दान	-7739
क्षिक	-7740
नुहोस	-7741
▁Moab	-7742
▁arri	-7743
▁clim	-7744
▁mass	-7745
▁माया	-7746
▁World	-7747
▁grain	-7748
▁model	-7749
▁बुझ्न	-7750
▁विद्य	-7751
▁aspect	-7752
▁डाक्टर	-7753
▁Council	-7754
▁Desktop	-7755
▁शास्त्र	-7756
▁संसारमा	-7757
▁diseases	-7758
▁proposed	-7759
▁उदाहरणका	-7760
government	-7761
▁importance	-7762
खो	-7763
aan	-7764
घाट	-7765
▁CU	-7766
acle	-7767
ल्ली	-7768
▁Part	-7769
▁मोआब	-7770
enance	-7771
▁Shift	-7772
▁broad	-7773
▁ready	-7774
▁बस्नु	-7775
hemical	-7776
▁fourth	-7777
▁पलिश्त	-7778
▁portion	-7779
▁अर्थात्	-7780
▁जनतालाई	-7781
▁हालसम्म	-7782
▁आयोजनाको	-7783
▁कार्यहरु	-7784
▁Education	-7785
▁प्रदर्शित	-7786
▁प्रारम्भिक	-7787
-2	-7788
sy	-7789
set	-7790
ओस्	-7791
▁औं	-7792
▁Net	-7793
▁aid	-7794
▁mot	-7795
▁ver	-7796
ट्टान	-7797
▁Work	-7798
▁meal	-7799
▁तलको	-7800
▁cloud	-7801
▁obser	-7802
▁समस्त	-7803
▁accord	-7804
▁handle	-7805
▁unable	-7806
▁ट्रयाक	-7807
▁स्वागत	-7808
▁blessed	-7809
▁चारैतिर	-7810
▁वैदेशिक	-7811
▁affected	-7812
▁व्यावसायिक	-7813
लब	-7814
een	-7815
▁FY	-7816
▁eye	-7817
▁squ	-7818
▁चरा	-7819
▁योआ	-7820
oured	-7821
तियार	-7822
▁बूढा	-7823
ration	-7824
▁heads	-7825
▁rates	-7826
▁scale	-7827
▁क्रोध	-7828
▁भरोसा	-7829
▁cultiv	-7830
▁labour	-7831
▁looked	-7832
▁recogn	-7833
▁infrast	-7834
▁शारीरिक	-7835
do	-7836
टोक	-7837
व्र	-7838
▁दल	-7839
conf	-7840
ivid	-7841
व्यव	-7842
▁hot	-7843
▁जित	-7844
▁Book	-7845
▁note	-7846
▁गरिए	-7847
▁फर्क	-7848
▁शाऊल	-7849
▁Peter	-7850
▁throne	-7851
▁प्रदेश	-7852
▁सहभागी	-7853
▁effects	-7854
▁offered	-7855
▁concerned	-7856
▁सन्दर्भमा	-7857
▁दृश्यात्मक	-7858
▁प्रमाणीकरण	-7859
ux	-7860
ंच	-7861
णको	-7862
पदा	-7863
▁28	-7864
▁रथ	-7865
▁२७	-7866
apur	-7867
list	-7868
फ्रे	-7869
्यौं	-7870
▁Cal	-7871
▁Mer	-7872
▁Pri	-7873
▁बोट	-7874
▁सीप	-7875
ekiah	-7876
where	-7877
▁quar	-7878
ञ्जूषा	-7879
▁जगेडा	-7880
▁attack	-7881
▁loving	-7882
स्थितिमा	-7883
▁attempt	-7884
▁keeping	-7885
▁सुलेमान	-7886
▁remained	-7887
▁provision	-7888
▁प्रोत्साहित	-7889
इस	-7890
पत	-7891
134	-7892
ane	-7893
uly	-7894
गार	-7895
सेट	-7896
▁अर	-7897
न्यो	-7898
▁बसो	-7899
▁Come	-7900
▁York	-7901
▁आइपु	-7902
▁ठाँउ	-7903
▁युनि	-7904
▁संके	-7905
gation	-7906
▁एल्बम	-7907
▁placed	-7908
▁फिर्ता	-7909
विद्यालय	-7910
▁आश्चर्य	-7911
▁मालिकले	-7912
▁darkness	-7913
▁ा	-7914
▁अच	-7915
▁टी	-7916
omin	-7917
कुरा	-7918
न्की	-7919
श्रम	-7920
▁दूत	-7921
माञ्च	-7922
▁नगरी	-7923
▁शासक	-7924
▁हिजो	-7925
▁civil	-7926
▁purch	-7927
▁दर्शन	-7928
▁देखें	-7929
▁बोर्ड	-7930
नुभन्दा	-7931
▁United	-7932
▁cursor	-7933
▁भुक्ता	-7934
▁Message	-7935
▁counsel	-7936
▁loading	-7937
▁minimum	-7938
▁results	-7939
▁चेलाहरू	-7940
▁transfer	-7941
▁विद्युत्	-7942
AL	-7943
▁ग्	-7944
oles	-7945
▁War	-7946
▁ast	-7947
▁कना	-7948
▁जमि	-7949
▁वाल	-7950
andom	-7951
▁Type	-7952
▁अल्प	-7953
▁थोरै	-7954
▁बालक	-7955
▁प्रकट	-7956
▁समयको	-7957
ossible	-7958
▁animal	-7959
▁belong	-7960
▁moving	-7961
▁plants	-7962
▁चट्टान	-7963
▁ढाँचामा	-7964
▁लगाइएको	-7965
▁जनशक्तिको	-7966
▁associated	-7967
▁developing	-7968
▁अन्तर्राष्टि	-7969
sal	-7970
▁अल	-7971
aray	-7972
raim	-7973
तीको	-7974
पश्च	-7975
▁250	-7976
▁Doc	-7977
▁URI	-7978
▁enh	-7979
▁सफा	-7980
▁code	-7981
▁छिमे	-7982
▁बढेर	-7983
लाग्दो	-7984
▁Press	-7985
▁equip	-7986
▁शमूएल	-7987
▁सट्टा	-7988
▁Commun	-7989
▁myself	-7990
▁मात्रा	-7991
▁शाऊलले	-7992
▁यर्मिया	-7993
▁elements	-7994
▁प्रभावित	-7995
▁राजनैतिक	-7996
PE	-7997
asc	-7998
for	-7999
sec	-8000
िकल	-8001
▁Enc	-8002
▁Ham	-8003
▁Mid	-8004
▁कैद	-8005
▁बाक	-8006
iving	-8007
▁Post	-8008
▁mill	-8009
▁कागज	-8010
▁च्या	-8011
▁धितो	-8012
▁नदेख	-8013
▁सुझा	-8014
▁green	-8015
▁reign	-8016
▁कच्चा	-8017
▁तल्लो	-8018
▁बाह्य	-8019
▁सृजना	-8020
▁हुदैन	-8021
▁Filter	-8022
▁आम्दानी	-8023
▁टर्मिनल	-8024
▁Benjamin	-8025
▁printing	-8026
▁अन्त्यमा	-8027
▁salvation	-8028
▁मूर्तिहरू	-8029
▁encouraged	-8030
atn	-8031
▁आऊ	-8032
road	-8033
▁अक्	-8034
▁घाँ	-8035
▁जुट	-8036
▁Cons	-8037
▁Like	-8038
▁कपडा	-8039
▁लगाए	-8040
▁drive	-8041
▁false	-8042
▁speed	-8043
▁पार्छ	-8044
▁browser	-8045
▁justice	-8046
▁parties	-8047
▁seventh	-8048
▁unknown	-8049
▁गर्नलाई	-8050
▁सट्टामा	-8051
▁compared	-8052
▁judgment	-8053
▁विद्यमान	-8054
▁authority	-8055
▁household	-8056
▁requested	-8057
▁निर्धारित	-8058
hy	-8059
वाइ	-8060
▁KM	-8061
▁Rel	-8062
▁Sur	-8063
▁बित	-8064
anged	-8065
▁CUPS	-8066
▁vert	-8067
▁अङ्ग	-8068
▁crops	-8069
▁fifty	-8070
▁loans	-8071
▁देखाइ	-8072
▁पढ्दा	-8073
▁बेंसी	-8074
▁हिसाब	-8075
▁allows	-8076
▁insert	-8077
▁volume	-8078
▁समूहमा	-8079
▁authent	-8080
▁culture	-8081
▁however	-8082
▁रहेकोमा	-8083
▁Moreover	-8084
▁व्याख्या	-8085
▁experience	-8086
▁improvement	-8087
मन	-8088
टिभ	-8089
▁अँ	-8090
isco	-8091
ysis	-8092
▁अब्	-8093
▁तार	-8094
▁शर्	-8095
eters	-8096
त्याग	-8097
▁acqu	-8098
▁bird	-8099
▁symb	-8100
▁औजार	-8101
▁छाला	-8102
▁देवी	-8103
▁सिमा	-8104
▁feast	-8105
▁visit	-8106
▁watch	-8107
▁तीव्र	-8108
▁धर्मी	-8109
▁नभएका	-8110
▁शून्य	-8111
▁module	-8112
▁पक्षमा	-8113
▁Kingdom	-8114
▁getting	-8115
▁क्याम्प	-8116
▁creating	-8117
▁relative	-8118
▁maintenance	-8119
▁वस्तुस्थिति	-8120
रत	-8121
ney	-8122
र्ई	-8123
erem	-8124
fect	-8125
yond	-8126
▁Kon	-8127
▁dam	-8128
▁जम्	-8129
▁नति	-8130
▁मृत	-8131
▁हौं	-8132
allen	-8133
istic	-8134
▁Data	-8135
▁fair	-8136
▁mach	-8137
▁poll	-8138
▁sick	-8139
स्तरमा	-8140
▁Prime	-8141
▁desol	-8142
▁हप्ता	-8143
▁अवधिको	-8144
▁बनाएका	-8145
▁भरिएको	-8146
▁archive	-8147
▁possess	-8148
▁startup	-8149
▁परिवर्त	-8150
▁विरोधमा	-8151
▁positive	-8152
▁separate	-8153
▁Committee	-8154
▁Corporation	-8155
▁International	-8156
akt	-8157
▁उज	-8158
▁ऐन	-8159
aria	-8160
chan	-8161
ङ्गो	-8162
▁pit	-8163
riage	-8164
▁Koir	-8165
▁User	-8166
▁card	-8167
▁विके	-8168
बारेमा	-8169
▁Right	-8170
▁chari	-8171
▁defin	-8172
▁hours	-8173
▁moved	-8174
▁satisf	-8175
▁पशुहरू	-8176
▁बिलियन	-8177
ल्नुहोस्	-8178
▁Ephraim	-8179
▁reasons	-8180
▁अनियमित	-8181
▁religion	-8182
▁त्यसकारण	-8183
▁दिनुहुन्छ	-8184
▁लगानीकर्ता	-8185
भे	-8186
शै	-8187
ख्य	-8188
डाई	-8189
▁OF	-8190
मूलक	-8191
▁Del	-8192
▁cop	-8193
▁धूप	-8194
▁बढि	-8195
▁सरा	-8196
▁Down	-8197
▁else	-8198
▁आईडी	-8199
▁कोशि	-8200
▁खोजि	-8201
▁घाटा	-8202
▁ब्रा	-8203
▁शिशु	-8204
▁सफ्ट	-8205
▁brick	-8206
▁spend	-8207
▁थाल्यो	-8208
▁Koirala	-8209
▁encrypt	-8210
▁श्रेष्ठ	-8211
▁behavior	-8212
▁villages	-8213
▁संख्यामा	-8214
▁beautiful	-8215
IS	-8216
जत	-8217
तल	-8218
ndra	-8219
quer	-8220
ग्नु	-8221
▁500	-8222
▁cit	-8223
▁hyd	-8224
▁अवि	-8225
▁भोज	-8226
▁सित	-8227
anger	-8228
तृत्व	-8229
▁deep	-8230
▁lamb	-8231
▁shut	-8232
▁unit	-8233
▁परिण	-8234
▁सजाय	-8235
▁Allow	-8236
▁depos	-8237
▁एलिया	-8238
▁profit	-8239
▁weight	-8240
▁healthy	-8241
▁systems	-8242
▁properly	-8243
▁सम्मिलित	-8244
▁appointed	-8245
▁highlight	-8246
▁thousands	-8247
▁प्रतिनिधि	-8248
▁Association	-8249
GB	-8250
eal	-8251
डित	-8252
नाई	-8253
▁नव	-8254
ahar	-8255
ples	-8256
▁Jon	-8257
▁fle	-8258
▁कवि	-8259
▁वेश	-8260
▁साह	-8261
onent	-8262
▁flag	-8263
▁जटिल	-8264
▁प्रय	-8265
▁मसित	-8266
▁मुटु	-8267
▁विरा	-8268
▁सचेत	-8269
abbath	-8270
▁upper	-8271
▁आफन्त	-8272
▁पाएको	-8273
▁भन्छु	-8274
▁लिखित	-8275
▁member	-8276
▁एकीकृत	-8277
▁भारतमा	-8278
▁भेक्टर	-8279
▁सकेनन्	-8280
▁meaning	-8281
▁patient	-8282
▁शक्तिको	-8283
▁समक्रमण	-8284
▁template	-8285
▁सिद्धान्त	-8286
▁कार्यकर्ता	-8287
▁परमप्रभुका	-8288
गण	-8289
▁नौ	-8290
onts	-8291
▁करा	-8292
▁खरा	-8293
▁दूर	-8294
▁Draw	-8295
▁Tent	-8296
▁sake	-8297
▁निरा	-8298
mitted	-8299
ternet	-8300
पर्नेछ	-8301
सिन्दा	-8302
▁cross	-8303
▁इन्जि	-8304
▁कामको	-8305
▁जन्मा	-8306
▁वर्षा	-8307
▁सुसमा	-8308
▁अभ्यास	-8309
▁मिल्दो	-8310
▁Control	-8311
▁afflict	-8312
▁clothes	-8313
▁fulfill	-8314
▁measure	-8315
▁अत्यधिक	-8316
▁संभाव्य	-8317
▁agencies	-8318
▁variable	-8319
▁परित्याग	-8320
▁continued	-8321
▁opportunity	-8322
ON	-8323
यद	-8324
ें	-8325
रोग	-8326
ालु	-8327
aign	-8328
ateg	-8329
head	-8330
क्रो	-8331
▁raw	-8332
▁नभई	-8333
▁idea	-8334
▁जङ्ग	-8335
▁तहमा	-8336
▁स्थल	-8337
omatic	-8338
▁छाउनी	-8339
▁देखेर	-8340
▁पढ्ने	-8341
▁targets	-8342
▁समीक्षा	-8343
▁speaking	-8344
▁operating	-8345
▁प्रतिक्षा	-8346
▁प्रविधिको	-8347
▁सर्वशक्ति	-8348
▁evaluation	-8349
▁पठाउनुहोस्	-8350
▁क्षेत्रहरुमा	-8351
OP	-8352
छो	-8353
IME	-8354
विक	-8355
हेर	-8356
ेषण	-8357
▁32	-8358
adur	-8359
roll	-8360
न्टि	-8361
▁Max	-8362
▁Mon	-8363
▁पका	-8364
लगायत	-8365
▁Pokh	-8366
▁ताली	-8367
▁मानक	-8368
▁joint	-8369
▁label	-8370
▁चाँहि	-8371
▁यहोया	-8372
▁सजिलै	-8373
▁beyond	-8374
▁देखियो	-8375
▁हेरचाह	-8376
▁include	-8377
▁Settings	-8378
▁कम्पनीको	-8379
▁उपकरणपट्टी	-8380
▁institutional	-8381
▁विश्वविद्यालय	-8382
साव	-8383
एपछि	-8384
मोजि	-8385
▁hab	-8386
▁wit	-8387
▁करू	-8388
▁होऊ	-8389
नुसार	-8390
र्ारा	-8391
▁site	-8392
▁vict	-8393
▁माछा	-8394
▁हस्त	-8395
▁spent	-8396
▁teach	-8397
▁कोइरा	-8398
▁म्याद	-8399
▁Object	-8400
▁formed	-8401
▁praise	-8402
▁library	-8403
▁directly	-8404
▁director	-8405
▁multiple	-8406
▁विमानस्थल	-8407
ds	-8408
ीर	-8409
पार	-8410
जुली	-8411
▁Dev	-8412
oring	-8413
शुल्क	-8414
▁dust	-8415
▁गार्	-8416
▁सधैँ	-8417
▁भाँडा	-8418
▁रद्दी	-8419
▁सूर्य	-8420
▁interp	-8421
▁strike	-8422
▁ज्यादा	-8423
▁पात्रो	-8424
▁प्रर्द	-8425
▁farming	-8426
▁देखाउँछ	-8427
▁राम्ररी	-8428
▁increases	-8429
▁officials	-8430
▁description	-8431
oe	-8432
ल्ल	-8433
aran	-8434
come	-8435
ooth	-8436
rose	-8437
नाका	-8438
▁Log	-8439
▁Tem	-8440
▁mom	-8441
▁धरा	-8442
▁रंग	-8443
▁लज्	-8444
▁५००	-8445
aints	-8446
द्वार	-8447
▁wish	-8448
▁कोर्	-8449
▁तेरो	-8450
▁दोषी	-8451
▁संसा	-8452
ीहरूमा	-8453
▁भनिन्	-8454
▁रोक्न	-8455
▁रोगको	-8456
▁engine	-8457
▁manner	-8458
▁speech	-8459
▁छुट्या	-8460
▁प्रोटो	-8461
▁संघर्ष	-8462
▁opening	-8463
▁बाबेलका	-8464
▁समर्थित	-8465
▁argument	-8466
▁emphasis	-8467
▁property	-8468
▁कुराकानी	-8469
▁सञ्चालित	-8470
▁मानिसहरूबाट	-8471
यस	-8472
acc	-8473
equ	-8474
हास	-8475
▁00	-8476
▁GT	-8477
▁इन	-8478
ocol	-8479
न्टा	-8480
▁ens	-8481
iency	-8482
▁Dire	-8483
▁fill	-8484
▁इन्ड	-8485
idents	-8486
ission	-8487
urance	-8488
▁अक्षर	-8489
▁अस्ति	-8490
▁कक्षा	-8491
▁वृक्ष	-8492
▁rivers	-8493
▁पूर्ति	-8494
▁individ	-8495
▁District	-8496
▁हुनुपर्ने	-8497
▁democratic	-8498
यव	-8499
हल	-8500
rec	-8501
सूच	-8502
▁85	-8503
▁gn	-8504
aked	-8505
ilit	-8506
omen	-8507
क्कै	-8508
त्री	-8509
नेका	-8510
यामा	-8511
समूह	-8512
▁obt	-8513
▁एला	-8514
▁दिएँ	-8515
▁Again	-8516
▁China	-8517
▁skill	-8518
▁sweet	-8519
▁लिएको	-8520
▁female	-8521
▁छविहरू	-8522
▁छिमेकी	-8523
▁सन्दूक	-8524
▁surface	-8525
▁कार्यका	-8526
▁सर्भरले	-8527
▁activity	-8528
▁presence	-8529
▁आज्ञाहरू	-8530
▁सन्तानहरू	-8531
▁क्षेत्रबाट	-8532
▁प्रतिस्पर्धा	-8533
bed	-8534
ops	-8535
uro	-8536
▁२८	-8537
एलका	-8538
साको	-8539
▁Cle	-8540
▁lin	-8541
▁अना	-8542
▁तुर	-8543
write	-8544
▁rich	-8545
▁गराउ	-8546
▁चाहा	-8547
▁दिदी	-8548
▁fully	-8549
▁parse	-8550
▁strug	-8551
▁youth	-8552
▁राखेर	-8553
▁सूचका	-8554
▁across	-8555
▁त्यसका	-8556
▁Sabbath	-8557
▁continu	-8558
▁growing	-8559
▁दिनसम्म	-8560
▁स्वामित	-8561
▁whatever	-8562
▁माध्यमिक	-8563
▁President	-8564
▁मूल्याङ्कन	-8565
pg	-8566
जू	-8567
्ा	-8568
ixt	-8569
क्न	-8570
डले	-8571
▁२६	-8572
▁८०	-8573
ille	-8574
imes	-8575
room	-8576
tons	-8577
इन्ड	-8578
गरमा	-8579
ब्रो	-8580
रहित	-8581
▁खबर	-8582
▁थपि	-8583
▁पस्	-8584
▁सिक	-8585
ensus	-8586
नेछैन	-8587
▁lamp	-8588
▁cried	-8589
▁डलरको	-8590
▁परिचय	-8591
▁सुझाव	-8592
▁announ	-8593
▁थालेको	-8594
▁मुद्दा	-8595
▁सम्झना	-8596
▁स्थाना	-8597
▁स्वदेश	-8598
▁कुरालाई	-8599
▁हाइलाइट	-8600
▁chemical	-8601
▁finished	-8602
▁minister	-8603
▁surround	-8604
▁remaining	-8605
ini	-8606
▁92	-8607
टरमा	-8608
षामा	-8609
ैंले	-8610
▁Lay	-8611
▁पात	-8612
▁भयभ	-8613
केन्ड	-8614
▁Holy	-8615
▁firm	-8616
▁heav	-8617
▁आहाब	-8618
▁इसहा	-8619
▁केटी	-8620
▁गर्भ	-8621
▁ग्रि	-8622
▁प्ला	-8623
▁शाही	-8624
▁सीडी	-8625
▁pages	-8626
▁terms	-8627
▁treas	-8628
▁yield	-8629
▁नाममा	-8630
▁परिणत	-8631
▁लेबुल	-8632
▁Global	-8633
▁expect	-8634
▁भएकोमा	-8635
▁लगातार	-8636
▁व्यक्त	-8637
▁शरीरमा	-8638
▁समाजमा	-8639
▁स्वभाव	-8640
▁appears	-8641
▁corrupt	-8642
▁suitable	-8643
▁tourists	-8644
▁चलिरहेको	-8645
▁सामुन्ने	-8646
▁सुसमाचार	-8647
▁certainly	-8648
▁conscious	-8649
▁temporary	-8650
▁पूर्वाधार	-8651
▁सम्भाव्यता	-8652
12	-8653
कुल	-8654
लीय	-8655
ाइज	-8656
erve	-8657
कियो	-8658
रामा	-8659
▁Lab	-8660
▁mis	-8661
▁आदर	-8662
▁एदो	-8663
▁दाँ	-8664
▁बेल	-8665
▁माल	-8666
लार्ई	-8667
▁Form	-8668
▁exit	-8669
▁iron	-8670
▁rout	-8671
▁एउटी	-8672
▁घरको	-8673
▁झूटा	-8674
▁बढ्न	-8675
▁लगाई	-8676
action	-8677
ottage	-8678
ेक्षित	-8679
▁House	-8680
▁पाएका	-8681
▁सेटअप	-8682
▁layers	-8683
▁नसकेको	-8684
▁पद्धति	-8685
▁Bahadur	-8686
▁centres	-8687
▁showing	-8688
▁प्रतिफल	-8689
▁campaign	-8690
▁construct	-8691
▁recommend	-8692
▁operations	-8693
ंछ	-8694
थी	-8695
bit	-8696
जले	-8697
▁75	-8698
▁कू	-8699
▁री	-8700
▁४५	-8701
▁७५	-8702
asse	-8703
atal	-8704
ilot	-8705
▁Art	-8706
▁ori	-8707
हादुर	-8708
▁Bang	-8709
▁Look	-8710
▁beat	-8711
▁comb	-8712
▁pure	-8713
▁गिला	-8714
▁गुणा	-8715
▁भनें	-8716
▁arose	-8717
▁claim	-8718
▁अपराध	-8719
▁सेन्ट	-8720
▁extent	-8721
▁स्वस्थ	-8722
▁reigned	-8723
▁नगरिएको	-8724
▁sanctuary	-8725
▁अधिकारीहरू	-8726
ero	-8727
म्म	-8728
यती	-8729
▁IP	-8730
▁गौ	-8731
emon	-8732
रहने	-8733
▁असा	-8734
▁ठोस	-8735
based	-8736
रिएका	-8737
▁News	-8738
▁bore	-8739
▁लागत	-8740
▁साँझ	-8741
वृद्धि	-8742
▁apply	-8743
▁board	-8744
▁final	-8745
▁प्रकृ	-8746
▁विनाश	-8747
▁चिच्या	-8748
▁पराजित	-8749
▁feature	-8750
▁weather	-8751
▁नेतृत्व	-8752
▁personal	-8753
▁secondary	-8754
▁प्रवर्द्धन	-8755
▁productivity	-8756
▁महत्त्वपूर्ण	-8757
▁communication	-8758
सू	-8759
rew	-8760
फेस	-8761
ीमा	-8762
▁३५	-8763
vant	-8764
वाही	-8765
▁Bal	-8766
▁तपा	-8767
वार्य	-8768
ित्री	-8769
▁stir	-8770
▁अदाल	-8771
▁मुनि	-8772
▁श्रृ	-8773
▁Jerem	-8774
▁जन्मे	-8775
▁पत्रम	-8776
▁संकलन	-8777
▁सजावट	-8778
raction	-8779
▁Eighth	-8780
▁अनुवाद	-8781
▁क्वेरी	-8782
▁भाइहरू	-8783
▁शरीरको	-8784
▁सहकारी	-8785
▁Majesty	-8786
▁rejoice	-8787
▁returns	-8788
▁स्क्रिन	-8789
▁encoding	-8790
▁केन्द्रित	-8791
▁commandment	-8792
IL	-8793
दन	-8794
apa	-8795
org	-8796
▁बह	-8797
पचार	-8798
याली	-8799
शाला	-8800
स्मा	-8801
ेन्ट	-8802
▁Alt	-8803
▁Its	-8804
▁Mus	-8805
▁mal	-8806
▁rot	-8807
▁अमा	-8808
▁चैत	-8809
▁फेस	-8810
▁ears	-8811
▁purs	-8812
▁wear	-8813
▁केहि	-8814
▁प्रि	-8815
isters	-8816
सकेपछि	-8817
▁abund	-8818
▁arrow	-8819
▁bonds	-8820
▁हुन्न	-8821
▁histor	-8822
▁season	-8823
expected	-8824
▁Disable	-8825
▁minutes	-8826
▁serious	-8827
▁गर्नेछौ	-8828
▁signature	-8829
▁ख्रीष्टको	-8830
चक	-8831
ब्य	-8832
▁LD	-8833
▁वच	-8834
▁९०	-8835
ट्रि	-8836
म्या	-8837
▁Car	-8838
▁bed	-8839
▁चल्	-8840
▁नाश	-8841
▁Good	-8842
▁tong	-8843
▁एन्ड	-8844
▁खोलि	-8845
queror	-8846
▁repro	-8847
▁गल्ती	-8848
▁पोष्ट	-8849
तिमीहरू	-8850
▁Canaan	-8851
▁charge	-8852
▁corpor	-8853
▁played	-8854
▁thanks	-8855
▁त्यहीं	-8856
▁दाऊदका	-8857
▁विज्ञा	-8858
▁हिस्सा	-8859
▁markets	-8860
▁stopped	-8861
▁suggest	-8862
▁परिमिति	-8863
▁पलिश्ती	-8864
▁मन्त्री	-8865
▁American	-8866
▁imported	-8867
▁इभोल्युसन	-8868
▁विकेन्द्री	-8869
▁मानिसहरूसित	-8870
▁दृष्टिकोणबाट	-8871
र्ज	-8872
▁Pal	-8873
▁imm	-8874
▁ठाउ	-8875
agers	-8876
ल्पना	-8877
▁gard	-8878
▁दरले	-8879
तिमीले	-8880
▁अर्पण	-8881
▁भेट्न	-8882
▁सातौँ	-8883
▁सम्ममा	-8884
▁printed	-8885
▁configure	-8886
▁माध्यमबाट	-8887
▁जिम्मेवारी	-8888
▁consumption	-8889
ba	-8890
ov	-8891
erc	-8892
rix	-8893
टिन	-8894
नेल	-8895
यमा	-8896
oted	-8897
▁GTK	-8898
▁bug	-8899
▁pet	-8900
▁झन्	-8901
विधान	-8902
ाउँदछ	-8903
▁Mail	-8904
▁Zion	-8905
▁हानि	-8906
प्रसाद	-8907
▁hills	-8908
▁चाहनु	-8909
▁झण्डा	-8910
atnagar	-8911
central	-8912
▁beauty	-8913
▁easily	-8914
▁frames	-8915
▁reject	-8916
▁shadow	-8917
▁terror	-8918
▁जिम्मा	-8919
▁मार्ने	-8920
▁सङ्कलन	-8921
▁divided	-8922
▁अनिवार्य	-8923
▁अस्तित्व	-8924
▁potential	-8925
▁कार्यक्रमलाई	-8926
rs	-8927
पू	-8928
भू	-8929
oti	-8930
वाल	-8931
ette	-8932
haps	-8933
iple	-8934
छिन्	-8935
प्ती	-8936
▁Ext	-8937
▁kil	-8938
▁भत्	-8939
▁राम	-8940
▁सिफ	-8941
phone	-8942
ँग्रे	-8943
ताहरू	-8944
मूल्य	-8945
श्चित	-8946
▁जोडा	-8947
▁पारी	-8948
▁सुत्	-8949
formed	-8950
क्टरमा	-8951
▁fonts	-8952
▁forty	-8953
▁gates	-8954
▁अनन्त	-8955
▁गहिरो	-8956
▁मध्यम	-8957
▁विवाद	-8958
▁हारून	-8959
तिहासिक	-8960
▁cancel	-8961
▁design	-8962
▁doctor	-8963
▁लिइएको	-8964
▁विराटन	-8965
▁buttons	-8966
▁प्रकृति	-8967
▁expanded	-8968
▁कार्यलाई	-8969
▁scientific	-8970
▁प्याकेजहरू	-8971
▁environmental	-8972
▁पूर्वावस्थामा	-8973
ava	-8974
टका	-8975
पटक	-8976
▁GI	-8977
▁४१	-8978
ipal	-8979
▁Est	-8980
▁Hor	-8981
▁Run	-8982
▁mur	-8983
▁कडा	-8984
▁सुग	-8985
निएका	-8986
▁Left	-8987
▁अवयव	-8988
▁गराइ	-8989
▁गोरू	-8990
दिनेछु	-8991
▁KMail	-8992
▁citiz	-8993
▁wrote	-8994
▁अवरोध	-8995
▁आफ्नी	-8996
▁जोनाथ	-8997
▁दिइने	-8998
▁पाउनु	-8999
▁बसेका	-9000
ructure	-9001
▁actual	-9002
▁मुक्ति	-9003
▁Address	-9004
▁reduced	-9005
▁काँग्रे	-9006
▁गतिविधि	-9007
▁प्रचलित	-9008
▁शैक्षिक	-9009
▁संस्कार	-9010
▁conflict	-9011
▁चिकित्सा	-9012
▁विशेषज्ञ	-9013
▁सूचकाङ्क	-9014
▁उल्लेखनीय	-9015
▁लुकाउनुहोस्	-9016
wh	-9017
▁ि	-9018
lay	-9019
न्ह	-9020
माइ	-9021
विर	-9022
▁PD	-9023
▁नं	-9024
▁००	-9025
क्षी	-9026
मारी	-9027
▁थिई	-9028
▁शपथ	-9029
▁हैन	-9030
▁Rest	-9031
▁mour	-9032
▁चुनौ	-9033
▁संकट	-9034
▁सचिव	-9035
▁सोही	-9036
▁Cisco	-9037
▁girls	-9038
▁mercy	-9039
▁कानुन	-9040
▁क्षति	-9041
▁चुनाव	-9042
▁बनाएर	-9043
▁शान्त	-9044
▁सङ्कु	-9045
▁Though	-9046
▁almost	-9047
▁lifted	-9048
▁vision	-9049
▁खर्चको	-9050
▁म्यानु	-9051
▁सिस्को	-9052
▁हतियार	-9053
▁heavens	-9054
▁planned	-9055
▁vessels	-9056
▁ध्यानमा	-9057
▁विश्राम	-9058
▁reported	-9059
▁जिल्लाको	-9060
▁अभिबृद्धि	-9061
▁तिनीहरुको	-9062
▁मरूभूमिमा	-9063
▁Agriculture	-9064
▁अन्तर्राष्ट्रिय	-9065
CP	-9066
झैं	-9067
दने	-9068
▁Es	-9069
दायक	-9070
▁Hez	-9071
▁MIME	-9072
▁duty	-9073
▁अपरि	-9074
▁थ्रे	-9075
▁sheet	-9076
▁छोडेर	-9077
▁नतिजा	-9078
स्कृतिक	-9079
▁भन्सार	-9080
▁मिडिया	-9081
▁व्यस्त	-9082
▁सम्मेल	-9083
▁airport	-9084
▁section	-9085
▁constant	-9086
▁सम्भावित	-9087
▁प्रवृत्ति	-9088
▁utilization	-9089
▁परमप्रभुबाट	-9090
ze	-9091
ram	-9092
ंगा	-9093
▁झो	-9094
▁नर	-9095
sequ	-9096
्नेछ	-9097
्रास	-9098
▁अही	-9099
▁बिट	-9100
▁शिर	-9101
त्कार	-9102
▁Auth	-9103
▁Face	-9104
▁Last	-9105
▁ज्यो	-9106
▁पञ्च	-9107
▁बस्थ	-9108
▁बैठक	-9109
▁हराइ	-9110
वर्षीय	-9111
▁Local	-9112
▁flood	-9113
▁guard	-9114
▁radio	-9115
▁गरून्	-9116
▁त्याग	-9117
▁compar	-9118
▁header	-9119
▁mental	-9120
▁केटाके	-9121
▁challen	-9122
▁prophes	-9123
▁analysis	-9124
▁extended	-9125
▁starting	-9126
▁ऐतिहासिक	-9127
▁बृद्धिदर	-9128
▁सहायताको	-9129
▁suffering	-9130
▁व्यापारिक	-9131
▁individual	-9132
▁तान्नुहोस्	-9133
▁दीर्घकालीन	-9134
▁destruction	-9135
▁generations	-9136
▁परमेश्वरबाट	-9137
uf	-9138
फे	-9139
ीन	-9140
▁26	-9141
किलो	-9142
्रोल	-9143
▁hun	-9144
▁inn	-9145
▁भूत	-9146
itter	-9147
oboam	-9148
ँर्या	-9149
▁पठाउ	-9150
▁dream	-9151
▁funds	-9152
▁proxy	-9153
▁utter	-9154
▁हल्ला	-9155
नीहरूले	-9156
▁fertil	-9157
▁माथिको	-9158
▁benefit	-9159
▁follows	-9160
▁playing	-9161
▁promote	-9162
▁quickly	-9163
▁restart	-9164
▁usually	-9165
▁गर्दैनन्	-9166
▁प्रोक्सी	-9167
▁connected	-9168
दका	-9169
iven	-9170
kend	-9171
रायण	-9172
▁यता	-9173
ining	-9174
क्वेर	-9175
याहले	-9176
ूकदने	-9177
▁Jeho	-9178
▁आवास	-9179
▁गन्त	-9180
▁न्यू	-9181
▁Files	-9182
▁album	-9183
▁graph	-9184
▁अश्शू	-9185
▁शिकार	-9186
eration	-9187
▁Secret	-9188
▁excess	-9189
▁खण्डमा	-9190
▁डिजाइन	-9191
▁पारेको	-9192
▁भित्री	-9193
▁सीमाना	-9194
▁Meeting	-9195
▁imports	-9196
▁उपलब्धि	-9197
▁गर्नुको	-9198
तिमीहरूले	-9199
▁सफ्टवेयर	-9200
▁Konqueror	-9201
▁स्वामित्व	-9202
▁विश्वव्यापी	-9203
mer	-9204
बान	-9205
याम	-9206
र्ा	-9207
हिन	-9208
mine	-9209
▁Mic	-9210
▁ble	-9211
▁boy	-9212
▁जाग	-9213
दर्शी	-9214
ाउँदा	-9215
▁GIMP	-9216
▁Hind	-9217
▁fled	-9218
▁lear	-9219
▁sust	-9220
▁अर्ध	-9221
▁त्र्	-9222
ection	-9223
elfare	-9224
▁accom	-9225
▁waste	-9226
▁संकेत	-9227
▁सामना	-9228
attered	-9229
▁circum	-9230
▁shared	-9231
▁त्रिभु	-9232
▁राम्रा	-9233
▁becomes	-9234
▁comfort	-9235
▁missing	-9236
▁उज्यालो	-9237
▁नबूकदने	-9238
▁Jeremiah	-9239
▁hospitals	-9240
▁जिल्लाहरुमा	-9241
,5	-9242
ada	-9243
▁Oh	-9244
▁gt	-9245
▁३७	-9246
▁४८	-9247
izer	-9248
सायी	-9249
▁Lib	-9250
▁San	-9251
▁आयु	-9252
▁पति	-9253
▁हित	-9254
▁Vari	-9255
▁glad	-9256
▁nutr	-9257
▁छैन्	-9258
▁बिता	-9259
▁राती	-9260
▁विजय	-9261
parent	-9262
▁blind	-9263
▁novel	-9264
▁उस्तै	-9265
▁फलस्व	-9266
▁tongue	-9267
▁बताउनु	-9268
▁राजाका	-9269
▁लज्जित	-9270
▁वस्त्र	-9271
▁प्रसारण	-9272
plication	-9273
▁Training	-9274
▁benefits	-9275
▁recently	-9276
▁दिनुभएको	-9277
▁पुरस्कार	-9278
▁शत्रुहरू	-9279
▁संस्कृति	-9280
▁University	-9281
▁completion	-9282
▁commandments	-9283
▁transportation	-9284
19	-9285
घा	-9286
aud	-9287
bal	-9288
ril	-9289
▁CP	-9290
▁Su	-9291
airs	-9292
back	-9293
igen	-9294
umbn	-9295
तिकै	-9296
न्तै	-9297
संगै	-9298
▁Det	-9299
▁एशि	-9300
▁LDAP	-9301
▁Tour	-9302
▁छनोट	-9303
▁रक्त	-9304
▁सुन्	-9305
▁angry	-9306
▁drawn	-9307
▁कर्सर	-9308
▁बचाउँ	-9309
▁loaded	-9310
▁seeing	-9311
▁चढाउनु	-9312
▁यथार्थ	-9313
▁लागेका	-9314
▁प्रयत्न	-9315
▁बनाइएको	-9316
▁शब्दहरू	-9317
stitution	-9318
▁Internet	-9319
▁consumed	-9320
▁standing	-9321
▁प्रर्दशन	-9322
▁bookmarks	-9323
▁दिनुहुनेछ	-9324
▁प्रणालीको	-9325
▁Biratnagar	-9326
▁successful	-9327
▁administrator	-9328
rel	-9329
ब्र	-9330
hest	-9331
नीले	-9332
▁Mal	-9333
glish	-9334
▁disp	-9335
▁edge	-9336
▁lest	-9337
▁liqu	-9338
▁rice	-9339
▁जोखि	-9340
▁बनाऊ	-9341
▁हेडर	-9342
▁नामको	-9343
▁बोल्न	-9344
▁सक्छु	-9345
▁abroad	-9346
▁burden	-9347
▁domain	-9348
▁events	-9349
▁fruits	-9350
▁sought	-9351
▁सिंचाई	-9352
▁Another	-9353
▁English	-9354
▁कर्मचार	-9355
▁समाप्ति	-9356
▁believed	-9357
▁patients	-9358
▁रद्दीटोक	-9359
▁firstborn	-9360
▁languages	-9361
▁यरूशलेमका	-9362
▁horizontal	-9363
▁educational	-9364
▁स्थानान्तरण	-9365
--	-9366
ौल	-9367
uta	-9368
डका	-9369
पान	-9370
▁27	-9371
onse	-9372
कर्म	-9373
पल्ट	-9374
▁lie	-9375
▁rap	-9376
▁rat	-9377
▁अतः	-9378
▁फलफ	-9379
asion	-9380
asseh	-9381
मानित	-9382
▁हटाइ	-9383
▁हेरि	-9384
▁books	-9385
▁लगाएर	-9386
▁Screen	-9387
▁driver	-9388
▁retrie	-9389
▁unless	-9390
▁उपन्या	-9391
▁गर्दछु	-9392
▁लेख्ने	-9393
gregation	-9394
▁Manasseh	-9395
▁statutes	-9396
▁परिवारको	-9397
▁यहूदीहरू	-9398
▁efficient	-9399
▁equipment	-9400
▁तिमीहरूसित	-9401
▁सक्नुहुन्न	-9402
▁अनुक्रमणिका	-9403
▁सर्वशक्तिमान	-9404
▁विकेन्द्रीकरण	-9405
82	-9406
aur	-9407
now	-9408
ठोर	-9409
लिङ	-9410
lace	-9411
कारि	-9412
बन्द	-9413
लीको	-9414
ह्रो	-9415
▁Neb	-9416
▁ban	-9417
▁cup	-9418
▁dru	-9419
▁mag	-9420
▁sam	-9421
▁अवा	-9422
▁आसा	-9423
▁कोठ	-9424
▁भूल	-9425
लम्बन	-9426
▁Joab	-9427
▁आराध	-9428
▁कठोर	-9429
▁बादल	-9430
अनुरुप	-9431
सम्मको	-9432
▁Apply	-9433
▁delay	-9434
▁eaten	-9435
▁wants	-9436
▁आमाको	-9437
▁गार्ह	-9438
▁ग्राफ	-9439
▁Voices	-9440
▁खेलाडी	-9441
▁परिवेश	-9442
▁पूर्वी	-9443
▁बजारको	-9444
▁लगाउनु	-9445
▁सुगन्ध	-9446
entation	-9447
काअनुसार	-9448
▁Central	-9449
▁Pokhara	-9450
▁कारखाना	-9451
▁जान्दछु	-9452
▁नराम्रा	-9453
▁पुँर्या	-9454
▁युद्धमा	-9455
ictionary	-9456
▁detailed	-9457
▁launched	-9458
▁negative	-9459
▁सैनिकहरू	-9460
▁Parliament	-9461
▁encryption	-9462
▁literature	-9463
OS	-9464
SD	-9465
da	-9466
ole	-9467
pir	-9468
yal	-9469
▁Gn	-9470
▁nn	-9471
▁एफ	-9472
▁पट	-9473
ades	-9474
resh	-9475
मुखी	-9476
रीले	-9477
सीको	-9478
▁Sal	-9479
▁anc	-9480
▁nnn	-9481
▁via	-9482
▁भोग	-9483
प्रथम	-9484
रहन्छ	-9485
लादेश	-9486
▁doub	-9487
▁आरोप	-9488
▁संगठ	-9489
ensity	-9490
सायनिक	-9491
▁Close	-9492
▁equal	-9493
▁gross	-9494
▁tasks	-9495
▁सवारी	-9496
▁Samuel	-9497
▁stored	-9498
▁जनताले	-9499
▁दाऊदको	-9500
▁exports	-9501
▁letters	-9502
▁यहोशूले	-9503
▁अगुवाहरू	-9504
▁परिवारका	-9505
▁पुस्तकमा	-9506
▁प्रयोगमा	-9507
▁प्रोटोकल	-9508
▁collected	-9509
▁तिमीहरुले	-9510
▁जनसंख्याको	-9511
UI	-9512
▁^	-9513
PEG	-9514
osh	-9515
काइ	-9516
▁चम	-9517
▁७०	-9518
्छन्	-9519
्याम	-9520
▁Ear	-9521
▁inj	-9522
▁win	-9523
▁खाए	-9524
ilead	-9525
रुपले	-9526
▁1984	-9527
▁Assy	-9528
▁uses	-9529
restha	-9530
▁Bangl	-9531
▁trend	-9532
▁tried	-9533
▁आफैले	-9534
▁कमारा	-9535
▁थियौं	-9536
▁नक्कल	-9537
▁पट्टि	-9538
▁शिक्ष	-9539
itional	-9540
▁Gilead	-9541
▁adjust	-9542
▁starts	-9543
▁एप्लेट	-9544
▁करारको	-9545
▁प्यानल	-9546
▁बाँच्न	-9547
▁Convert	-9548
▁convert	-9549
▁cottage	-9550
▁entries	-9551
▁छोरीहरू	-9552
▁जान्दछौ	-9553
▁पश्चिमी	-9554
▁Shrestha	-9555
▁marriage	-9556
▁दृष्टिले	-9557
▁गर्नेतर्फ	-9558
▁व्यक्तिको	-9559
▁integrated	-9560
▁feasibility	-9561
10	-9562
ँड	-9563
mar	-9564
uls	-9565
ंमा	-9566
शेर	-9567
ष्ण	-9568
ेली	-9569
▁PN	-9570
▁घन	-9571
▁बन	-9572
दारी	-9573
श्वर	-9574
िष्ट	-9575
▁Oct	-9576
▁Pat	-9577
▁RGB	-9578
▁Yet	-9579
▁sad	-9580
▁खाँ	-9581
▁नपु	-9582
▁वेद	-9583
तपाईं	-9584
बलिको	-9585
मेन्ट	-9586
▁Just	-9587
▁गएका	-9588
▁जान्	-9589
▁थुमा	-9590
▁फोकस	-9591
anches	-9592
itions	-9593
पचारिक	-9594
सरकारी	-9595
▁alive	-9596
▁analy	-9597
▁horse	-9598
▁influ	-9599
▁mixed	-9600
▁प्रशो	-9601
▁भयभीत	-9602
▁महान्	-9603
▁यहोशा	-9604
▁causes	-9605
▁गरिरहे	-9606
▁लगाएको	-9607
▁journal	-9608
▁someone	-9609
▁आत्माले	-9610
▁सन्तुलन	-9611
▁इन्टरफेस	-9612
▁निमन्त्र	-9613
▁सेनाहरूका	-9614
▁department	-9615
▁गर्नुहुनेछ	-9616
▁तिमीहरुलाई	-9617
▁व्यक्तिलाई	-9618
▁alternative	-9619
aka	-9620
नकी	-9621
शेष	-9622
▁Bu	-9623
onal	-9624
raft	-9625
शालो	-9626
क्षेप	-9627
पोर्ट	-9628
योर्क	-9629
स्रोत	-9630
▁Corp	-9631
▁Rana	-9632
▁Organ	-9633
▁cache	-9634
▁calls	-9635
▁exerc	-9636
▁knows	-9637
▁sales	-9638
▁उपदेश	-9639
▁घमण्ड	-9640
▁जान्न	-9641
▁escape	-9642
▁walked	-9643
▁चन्द्र	-9644
▁नाउँमा	-9645
▁सिफारि	-9646
▁Unknown	-9647
▁desired	-9648
▁officer	-9649
▁traffic	-9650
▁सेनापति	-9651
▁probably	-9652
▁कन्क्वेर	-9653
▁धितोपत्र	-9654
▁encourage	-9655
▁configured	-9656
▁everything	-9657
▁monitoring	-9658
▁cooperative	-9659
▁प्रयोगकर्ताको	-9660
QL	-9661
नँ	-9662
गको	-9663
टले	-9664
दोष	-9665
वेद	-9666
▁70	-9667
▁आत	-9668
ancy	-9669
osal	-9670
एमएल	-9671
▁SSL	-9672
▁चाप	-9673
▁हटा	-9674
टीहरू	-9675
▁Brit	-9676
▁Hide	-9677
▁fuel	-9678
▁plag	-9679
▁मनमा	-9680
▁रोगी	-9681
▁Speak	-9682
▁आदिको	-9683
▁बहिनी	-9684
▁सस्तो	-9685
igenous	-9686
▁encamp	-9687
▁tribes	-9688
▁चिन्ता	-9689
▁स्वरूप	-9690
▁factors	-9691
▁prosper	-9692
▁achieved	-9693
▁विकल्पले	-9694
▁parameter	-9695
▁responsible	-9696
▁constitution	-9697
RRB	-9698
any	-9699
coh	-9700
jah	-9701
दले	-9702
संघ	-9703
िता	-9704
▁91	-9705
▁Az	-9706
▁झि	-9707
▁हड	-9708
्वाइ	-9709
▁कोण	-9710
▁निः	-9711
▁बाख	-9712
▁माफ	-9713
inger	-9714
म्भीर	-9715
▁Brow	-9716
▁film	-9717
▁थम्ब	-9718
▁पूरै	-9719
▁Creat	-9720
▁idols	-9721
▁throw	-9722
▁कोशिश	-9723
▁प्रिय	-9724
▁सबैको	-9725
पेक्षित	-9726
▁fallen	-9727
▁switch	-9728
▁फाइलका	-9729
▁article	-9730
▁कम्तिमा	-9731
▁विशिष्ट	-9732
▁appeared	-9733
▁requires	-9734
▁उद्योगको	-9735
▁Bangladesh	-9736
oms	-9737
rit	-9738
परी	-9739
▁२९	-9740
aved	-9741
मेले	-9742
लियो	-9743
ल्नु	-9744
▁Gir	-9745
▁Ign	-9746
▁एसि	-9747
▁कास	-9748
▁सेव	-9749
oming	-9750
मोजिम	-9751
ारोपण	-9752
▁Free	-9753
▁Mult	-9754
▁debt	-9755
▁fish	-9756
▁lips	-9757
▁repe	-9758
▁उदार	-9759
▁डोमे	-9760
▁यारो	-9761
▁Naray	-9762
▁cases	-9763
▁legal	-9764
▁veget	-9765
▁आइमाई	-9766
▁आउनेछ	-9767
▁आर्जन	-9768
▁जाँदा	-9769
▁पाठको	-9770
▁फलफूल	-9771
▁बुद्ध	-9772
▁रिसेट	-9773
▁forget	-9774
▁former	-9775
▁prince	-9776
▁गम्भीर	-9777
▁जमीनमा	-9778
▁नामकरण	-9779
▁पिताले	-9780
▁बगैंचा	-9781
▁लक्षित	-9782
▁decided	-9783
▁release	-9784
▁toolbar	-9785
▁चाहन्थे	-9786
▁जान्दैन	-9787
▁बाँन्की	-9788
▁शब्दकोश	-9789
▁Research	-9790
▁currency	-9791
▁independ	-9792
▁attribute	-9793
▁परिस्थिति	-9794
▁difference	-9795
▁स्वर्गदूतले	-9796
▁congregation	-9797
▁coordination	-9798
RL	-9799
SO	-9800
kh	-9801
अब	-9802
षि	-9803
कुर	-9804
तित	-9805
र्ु	-9806
हीं	-9807
▁झन	-9808
▁पच	-9809
ober	-9810
ynam	-9811
न्डै	-9812
▁204	-9813
▁Ach	-9814
▁Soc	-9815
▁voc	-9816
▁एनि	-9817
▁नाप	-9818
▁सार	-9819
elled	-9820
▁Euro	-9821
▁ship	-9822
▁क्वा	-9823
▁रुमा	-9824
airman	-9825
▁Polic	-9826
▁brass	-9827
▁compl	-9828
▁query	-9829
▁भर्ना	-9830
▁ल्याइ	-9831
▁factor	-9832
▁global	-9833
▁issues	-9834
▁matrix	-9835
▁symbol	-9836
▁vector	-9837
▁बिजुली	-9838
▁सेवामा	-9839
▁Service	-9840
▁दायित्व	-9841
▁नियमहरू	-9842
▁यहूदाको	-9843
▁यूहन्ना	-9844
▁garments	-9845
▁म्याट्रि	-9846
▁interface	-9847
▁परिवारलाई	-9848
▁तिनीहरुलाई	-9849
▁तिनीहरूसित	-9850
▁Kr	-9851
▁UN	-9852
▁घि	-9853
▁भव	-9854
▁य्	-9855
दायी	-9856
प्ला	-9857
▁GUI	-9858
▁Tab	-9859
▁घात	-9860
▁वंश	-9861
arily	-9862
कर्मी	-9863
▁coll	-9864
▁remo	-9865
▁sock	-9866
▁till	-9867
▁west	-9868
▁क्यु	-9869
▁खेतमा	-9870
▁ग्राह	-9871
▁झन्डै	-9872
▁बस्थे	-9873
ishment	-9874
▁Center	-9875
▁corner	-9876
▁forced	-9877
▁अन्यथा	-9878
▁गर्दथे	-9879
▁नसकिने	-9880
▁पापहरू	-9881
▁पार्दछ	-9882
▁ब्राउज	-9883
▁भोल्यु	-9884
▁हेर्ने	-9885
▁centers	-9886
▁columns	-9887
▁operate	-9888
▁parents	-9889
▁sending	-9890
▁अनुग्रह	-9891
▁गर्नाले	-9892
▁clicking	-9893
▁contract	-9894
▁departed	-9895
▁division	-9896
▁बासिन्दा	-9897
▁संस्थाको	-9898
▁percentage	-9899
▁प्रस्तावित	-9900
60	-9901
Sc	-9902
St	-9903
TF	-9904
भग	-9905
ैमा	-9906
▁सै	-9907
oser	-9908
प्ने	-9909
▁rob	-9910
▁tri	-9911
▁ठहर	-9912
▁बिग	-9913
▁मेश	-9914
aches	-9915
▁fest	-9916
▁fort	-9917
▁reli	-9918
▁upgr	-9919
▁काटि	-9920
▁तुरु	-9921
▁भेटी	-9922
▁स्टे	-9923
▁हेरे	-9924
▁Bless	-9925
▁learn	-9926
▁train	-9927
▁क्लाइ	-9928
▁जम्मै	-9929
▁साथमा	-9930
निर्माण	-9931
▁Buddha	-9932
▁famine	-9933
▁अन्तमा	-9934
▁अभियान	-9935
▁दुईवटा	-9936
▁सकिएको	-9937
▁फाइलबाट	-9938
▁पृथ्वीको	-9939
▁प्रतिकूल	-9940
▁Administr	-9941
▁Nepalgunj	-9942
▁correctly	-9943
▁यहूदीहरूले	-9944
षे	-9945
LRB	-9946
eed	-9947
hic	-9948
चाप	-9949
दमा	-9950
दूर	-9951
▁45	-9952
▁PC	-9953
aste	-9954
cend	-9955
जाजत	-9956
▁Bet	-9957
▁Ken	-9958
▁Wid	-9959
▁कोड	-9960
▁रोक	-9961
▁शोक	-9962
▁सिँ	-9963
inary	-9964
गोलिक	-9965
धिकरण	-9966
▁HTTP	-9967
▁कोरि	-9968
▁गाली	-9969
▁गुमा	-9970
▁चक्र	-9971
▁द्रु	-9972
▁मौसम	-9973
▁योशि	-9974
यन्त्र	-9975
▁demon	-9976
▁inner	-9977
▁looks	-9978
▁shout	-9979
▁जनावर	-9980
▁तैंले	-9981
▁govern	-9982
▁layout	-9983
▁scheme	-9984
▁भन्दछु	-9985
▁माउन्ट	-9986
▁सम्पदा	-9987
▁सुन्नु	-9988
▁incense	-9989
▁दिन्छन्	-9990
▁महिनामा	-9991
▁सूचीबाट	-9992
▁Hospital	-9993
▁cultural	-9994
▁इन्टरनेट	-9995
▁केटाकेटी	-9996
▁व्यवसायी	-9997
▁गार्हस्थ्य	-9998
▁व्यवस्थामा	-9999
TD	-10000
फर	-10001
र्ण	-10002
alit	-10003
उँदा	-10004
मबाट	-10005
मानी	-10006
▁300	-10007
▁Rec	-10008
▁उज्	-10009
etary	-10010
डिएको	-10011
▁Asia	-10012
▁hair	-10013
▁knew	-10014
▁उद्ध	-10015
▁मिटर	-10016
▁लम्ब	-10017
atures	-10018
engers	-10019
▁ended	-10020
▁freed	-10021
▁slain	-10022
▁विजेट	-10023
▁हरियो	-10024
▁indeed	-10025
▁moment	-10026
▁showed	-10027
▁गाह्रो	-10028
▁पठाउने	-10029
▁बनाउँछ	-10030
▁होइनन्	-10031
▁कर्पोरे	-10032
▁क्षमताको	-10033
▁प्रतिष्ठ	-10034
▁religious	-10035
▁फोल्डरहरू	-10036
▁उत्पादकत्व	-10037
▁चलाउनुहोस्	-10038
▁पुनप्राप्त	-10039
▁35	-10040
▁PG	-10041
▁४९	-10042
orns	-10043
धारा	-10044
बाटै	-10045
वाला	-10046
▁Dec	-10047
▁Did	-10048
▁उब्	-10049
▁उही	-10050
▁बद्	-10051
▁रहि	-10052
cohol	-10053
eless	-10054
सँगको	-10055
▁URLs	-10056
▁cash	-10057
▁fors	-10058
▁अपमा	-10059
▁फागु	-10060
▁बसेर	-10061
▁मेरी	-10062
ackend	-10063
▁notes	-10064
▁thick	-10065
aughter	-10066
▁arrest	-10067
▁backup	-10068
▁double	-10069
▁modify	-10070
▁suffer	-10071
▁क्रमिक	-10072
▁perfect	-10073
▁trained	-10074
▁witness	-10075
▁अब्शालो	-10076
▁आकर्षित	-10077
▁भौगोलिक	-10078
▁याकूबले	-10079
▁विच्छेद	-10080
▁response	-10081
▁भुक्तानी	-10082
▁वातावरणीय	-10083
▁स्त्रीहरू	-10084
▁निमन्त्रणा	-10085
▁हस्तान्तरण	-10086
▁requirements	-10087
ORS	-10088
रिस	-10089
हमा	-10090
▁Ac	-10091
▁लौ	-10092
mber	-10093
olid	-10094
pher	-10095
plit	-10096
ंशिक	-10097
जनको	-10098
न्दू	-10099
मुनि	-10100
म्री	-10101
वद्ध	-10102
▁195	-10103
▁BAR	-10104
▁Mor	-10105
▁ded	-10106
▁तीस	-10107
apped	-10108
inion	-10109
▁Stat	-10110
▁busy	-10111
▁info	-10112
▁shek	-10113
▁डिस्	-10114
▁तहको	-10115
▁फिल्	-10116
▁राणा	-10117
▁Would	-10118
▁grant	-10119
▁resol	-10120
▁असफलः	-10121
▁कल्या	-10122
▁छायाँ	-10123
▁तुरही	-10124
▁पालको	-10125
▁ensure	-10126
▁refuge	-10127
▁testim	-10128
▁गरिएमा	-10129
▁जबसम्म	-10130
▁भारतको	-10131
▁यारोबा	-10132
▁स्तरीय	-10133
▁therein	-10134
▁अस्पष्ट	-10135
▁निर्दोष	-10136
▁मान्यता	-10137
▁म्यानुअ	-10138
▁Possible	-10139
▁material	-10140
▁क्लाइन्ट	-10141
▁निर्देशन	-10142
▁प्रमाणित	-10143
▁यहोशापात	-10144
▁प्रशासनिक	-10145
▁commission	-10146
▁productive	-10147
▁preparation	-10148
▁मानिसहरुलाई	-10149
▁successfully	-10150
AS	-10151
रल	-10152
फिस	-10153
▁आह	-10154
azar	-10155
rate	-10156
डाको	-10157
मेरो	-10158
वाको	-10159
▁cou	-10160
▁spr	-10161
▁सहज	-10162
icial	-10163
ifier	-10164
▁Shah	-10165
▁lies	-10166
▁tear	-10167
▁tend	-10168
▁कानू	-10169
▁किता	-10170
▁ग्लो	-10171
▁बुबा	-10172
▁रोकि	-10173
▁लेखा	-10174
▁kinds	-10175
▁viney	-10176
▁चर्चा	-10177
▁बटनमा	-10178
▁वर्षे	-10179
▁reward	-10180
▁update	-10181
▁कोठामा	-10182
▁दिशामा	-10183
▁दृष्टा	-10184
▁मिल्ने	-10185
▁रिसाइज	-10186
▁समूहको	-10187
▁actions	-10188
▁तथ्याङ्	-10189
▁ल्याएको	-10190
▁clothing	-10191
▁majority	-10192
▁सुरुआतमा	-10193
▁determine	-10194
▁properties	-10195
▁बदल्नुहोस्	-10196
oes	-10197
उन्	-10198
फोन	-10199
▁CV	-10200
▁IC	-10201
▁ld	-10202
▁अध	-10203
▁कट	-10204
▁धै	-10205
eler	-10206
hand	-10207
▁Heb	-10208
▁Isa	-10209
▁Two	-10210
▁kde	-10211
▁चाड	-10212
▁बीस	-10213
▁लिइ	-10214
anges	-10215
इस्रा	-10216
▁Sept	-10217
ported	-10218
▁icons	-10219
▁wound	-10220
▁अग्लो	-10221
▁गरिन्	-10222
▁दिनेछ	-10223
▁पोखरा	-10224
▁ब्याक	-10225
istered	-10226
▁attach	-10227
▁served	-10228
▁आराधना	-10229
▁क्रिया	-10230
▁प्रष्ट	-10231
▁सम्भार	-10232
▁located	-10233
▁welfare	-10234
▁स्रोतको	-10235
▁अपेक्षित	-10236
▁चाहन्छन्	-10237
▁समस्याको	-10238
▁सहभागिता	-10239
▁questions	-10240
▁दृष्टान्त	-10241
▁व्यवस्थाप	-10242
▁introduced	-10243
▁पत्रमञ्जूषा	-10244
OL	-10245
ias	-10246
rep	-10247
▁GC	-10248
▁३६	-10249
श्रो	-10250
सुरु	-10251
▁upl	-10252
▁धान	-10253
▁बचा	-10254
▁सोझ	-10255
osite	-10256
ously	-10257
परिका	-10258
पर्यो	-10259
वश्यक	-10260
▁Goes	-10261
▁Have	-10262
▁Stud	-10263
▁TRAN	-10264
▁nine	-10265
▁pars	-10266
▁safe	-10267
▁अन्व	-10268
▁आजको	-10269
▁पोषण	-10270
▁मोटर	-10271
▁लगाउ	-10272
▁Isaac	-10273
▁March	-10274
▁Water	-10275
▁अध्या	-10276
▁छोड्न	-10277
▁वाक्य	-10278
ception	-10279
vention	-10280
▁Europe	-10281
▁worked	-10282
▁किल्ला	-10283
▁बाख्रा	-10284
▁License	-10285
▁highway	-10286
▁medical	-10287
▁methods	-10288
▁popular	-10289
▁चलचित्र	-10290
▁नेपालका	-10291
▁Download	-10292
▁branches	-10293
▁क्यामेरा	-10294
▁व्यापारी	-10295
▁committed	-10296
▁generated	-10297
▁medicines	-10298
▁completely	-10299
▁राष्ट्रपति	-10300
▁क्लिपबोर्डमा	-10301
्ँ	-10302
जाऊ	-10303
सिन	-10304
▁Af	-10305
▁नु	-10306
arma	-10307
dess	-10308
lebr	-10309
क्नु	-10310
यन्ट	-10311
वर्ण	-10312
सनले	-10313
▁Any	-10314
▁CVS	-10315
▁Han	-10316
▁fed	-10317
▁fit	-10318
▁lat	-10319
▁अलि	-10320
▁घाउ	-10321
▁रेल	-10322
ollow	-10323
निष्ट	-10324
परेको	-10325
▁Next	-10326
▁Test	-10327
▁neck	-10328
▁दिला	-10329
▁पाइल	-10330
▁भर्ख	-10331
▁लगभग	-10332
▁लडाइ	-10333
▁Ammon	-10334
▁loved	-10335
▁posts	-10336
▁royal	-10337
▁अम्मो	-10338
▁कम्यु	-10339
▁गरीबी	-10340
▁बस्तु	-10341
▁भावना	-10342
ल्यान्ड	-10343
▁Valley	-10344
▁buried	-10345
▁पुराना	-10346
▁भूमिको	-10347
▁हिर्का	-10348
▁comment	-10349
▁आन्दोलन	-10350
▁कुराहरु	-10351
▁ड्राइभर	-10352
▁मुलुकको	-10353
▁स्थानको	-10354
▁Hezekiah	-10355
▁medicine	-10356
▁देवताहरू	-10357
▁बहिनीहरू	-10358
▁साझेदारी	-10359
▁determined	-10360
▁शत्रुहरूले	-10361
▁destination	-10362
▁relationship	-10363
▁strengthened	-10364
▁Automatically	-10365
▁प्रयोगकर्ताले	-10366
40	-10367
tw	-10368
ढो	-10369
प्न	-10370
▁जू	-10371
duct	-10372
प्रो	-10373
याको	-10374
सुकै	-10375
ालमा	-10376
▁spo	-10377
▁अगा	-10378
▁अनौ	-10379
▁खरी	-10380
▁झर्	-10381
▁फार	-10382
▁बजे	-10383
▁विच	-10384
aemon	-10385
iling	-10386
हभागि	-10387
▁lion	-10388
▁risk	-10389
▁अक्ष	-10390
▁द्वि	-10391
▁नानी	-10392
▁पपअप	-10393
▁फ्या	-10394
▁मसँग	-10395
▁माना	-10396
iation	-10397
नान्तर	-10398
▁begun	-10399
▁vehic	-10400
▁wives	-10401
▁दुर्ग	-10402
▁पीडित	-10403
ernacle	-10404
▁Insert	-10405
▁burned	-10406
▁conver	-10407
▁अनुदान	-10408
▁डोर्या	-10409
▁मार्नु	-10410
▁Specify	-10411
▁देखिएका	-10412
▁numbered	-10413
▁provides	-10414
▁revealed	-10415
▁Institute	-10416
▁initiated	-10417
▁investors	-10418
▁telephone	-10419
▁गैरसरकारी	-10420
▁त्यहाँबाट	-10421
▁लाइब्रेरी	-10422
▁wickedness	-10423
▁सफलतापूर्वक	-10424
▁Agricultural	-10425
स्प	-10426
▁झग	-10427
SLAT	-10428
ज्या	-10429
▁Inf	-10430
▁Sar	-10431
▁ate	-10432
▁पाट	-10433
iques	-10434
reens	-10435
मान्द	-10436
▁निषे	-10437
▁२०४१	-10438
orting	-10439
▁Women	-10440
▁curse	-10441
▁shame	-10442
▁sides	-10443
▁घटाउन	-10444
▁तपाइँ	-10445
SLATORS	-10446
▁Custom	-10447
▁random	-10448
▁remind	-10449
▁sinned	-10450
▁कल्याण	-10451
▁picture	-10452
▁योजनाले	-10453
▁राजाहरू	-10454
▁backward	-10455
▁शहरहरूमा	-10456
▁हेक्टरमा	-10457
▁fulfilled	-10458
▁TRANSLATORS	-10459
▁effectively	-10460
▁possibility	-10461
▁शत्रुहरूलाई	-10462
IT	-10463
pha	-10464
van	-10465
ंका	-10466
साइ	-10467
▁मज	-10468
reet	-10469
त्यस	-10470
पयोग	-10471
माको	-10472
हलाई	-10473
▁Ele	-10474
▁Mem	-10475
▁awa	-10476
▁fix	-10477
▁रही	-10478
▁Prov	-10479
▁paid	-10480
▁rede	-10481
▁गाडी	-10482
▁ब्रि	-10483
▁ब्रु	-10484
icians	-10485
विद्यु	-10486
▁birds	-10487
▁piece	-10488
▁super	-10489
▁इजाजत	-10490
▁चल्ने	-10491
▁दुःखी	-10492
▁स्थित	-10493
विरुद्ध	-10494
▁garden	-10495
▁proced	-10496
▁उत्तरी	-10497
▁ग्रेडि	-10498
▁बोल्नु	-10499
▁शिक्षण	-10500
▁Blessed	-10501
▁aspects	-10502
▁council	-10503
▁married	-10504
▁organis	-10505
▁sitting	-10506
▁नियुक्त	-10507
▁हुनुभयो	-10508
▁software	-10509
▁decentral	-10510
▁चेलाहरूले	-10511
▁व्यवस्थित	-10512
▁कार्यक्रमहरुको	-10513
hon	-10514
nel	-10515
किम	-10516
यको	-10517
सला	-10518
▁ha	-10519
down	-10520
▁Bes	-10521
▁उन्	-10522
▁कमि	-10523
▁जोग	-10524
▁फुट	-10525
▁मौस	-10526
▁समझ	-10527
chron	-10528
rated	-10529
लिखित	-10530
▁poly	-10531
▁pred	-10532
▁rows	-10533
▁गिदो	-10534
▁पोशा	-10535
ceived	-10536
▁Bhakt	-10537
▁debug	-10538
▁trash	-10539
▁troub	-10540
▁trump	-10541
▁उपर्य	-10542
▁छुट्ट	-10543
▁जन्मि	-10544
▁तुलना	-10545
▁पाइने	-10546
▁ल्याई	-10547
▁Before	-10548
▁branch	-10549
▁celebr	-10550
▁hearts	-10551
▁margin	-10552
▁अनुशास	-10553
▁क्याले	-10554
▁tourist	-10555
▁whoever	-10556
▁घटनाहरू	-10557
▁जान्छन्	-10558
▁पत्रकार	-10559
▁परामिति	-10560
▁संविधान	-10561
▁Jonathan	-10562
▁identify	-10563
▁politics	-10564
▁जलविद्यु	-10565
▁दृष्टिगत	-10566
▁सर्वोच्च	-10567
▁Necessary	-10568
▁expensive	-10569
▁regarding	-10570
▁इस्राएलमा	-10571
घु	-10572
तक	-10573
awa	-10574
ikk	-10575
ipe	-10576
reg	-10577
uff	-10578
टिक	-10579
प्य	-10580
▁अख	-10581
▁नआ	-10582
▁है	-10583
addy	-10584
ider	-10585
उँछु	-10586
र्सि	-10587
्वान	-10588
▁अवस	-10589
▁चलन	-10590
▁टिक	-10591
▁लाश	-10592
▁लिई	-10593
▁हल्	-10594
▁१९७	-10595
▁.250	-10596
▁Baal	-10597
▁Over	-10598
▁dies	-10599
▁एसाव	-10600
▁धूलो	-10601
▁नाफा	-10602
▁समर्	-10603
▁Child	-10604
▁Techn	-10605
▁avoid	-10606
▁cells	-10607
▁exact	-10608
▁explo	-10609
▁grace	-10610
▁honey	-10611
▁sugar	-10612
▁फागुन	-10613
▁commod	-10614
▁उत्साह	-10615
▁ज्योति	-10616
▁बलिदान	-10617
▁भनिएको	-10618
▁सङ्गीत	-10619
▁Whoever	-10620
▁besides	-10621
▁complex	-10622
▁decline	-10623
▁greatly	-10624
▁seconds	-10625
▁student	-10626
▁अन्धकार	-10627
▁भैरहेको	-10628
▁भोल्युम	-10629
▁स्क्यान	-10630
▁यरूशलेमको	-10631
▁tabernacle	-10632
▁इस्राएलीहरू	-10633
20	-10634
बू	-10635
ुक	-10636
ius	-10637
मेक	-10638
ुति	-10639
▁IN	-10640
▁ww	-10641
ङ्कर	-10642
मर्श	-10643
▁Irr	-10644
▁isn	-10645
▁अधी	-10646
▁दगु	-10647
▁भएँ	-10648
ingly	-10649
कृष्ट	-10650
▁hate	-10651
▁पीडा	-10652
▁२०१८	-10653
▁Chand	-10654
▁River	-10655
▁naked	-10656
▁खालका	-10657
▁मिनेट	-10658
▁हाँगा	-10659
▁कान्ति	-10660
▁पत्रुस	-10661
▁भाषामा	-10662
▁लैजाने	-10663
▁Assyria	-10664
▁confirm	-10665
▁मानिन्छ	-10666
▁modified	-10667
▁कांग्रेस	-10668
▁त्रिभुवन	-10669
▁रासायनिक	-10670
▁वरिपरिका	-10671
▁Programme	-10672
▁opposition	-10673
▁parameters	-10674
▁छोड्नुहोस्	-10675
▁infrastructure	-10676
ban	-10677
joy	-10678
किङ	-10679
हिर	-10680
aped	-10681
sole	-10682
wood	-10683
िएका	-10684
ैयाँ	-10685
▁Cap	-10686
▁GNU	-10687
▁Ger	-10688
▁unf	-10689
▁www	-10690
▁बिष	-10691
acing	-10692
ariah	-10693
icate	-10694
▁Give	-10695
▁Page	-10696
▁Pass	-10697
▁sixt	-10698
▁चालि	-10699
▁फैला	-10700
▁भेटि	-10701
▁येहू	-10702
▁साइट	-10703
actory	-10704
▁April	-10705
▁Chief	-10706
▁Himal	-10707
▁एमाले	-10708
▁लडाइँ	-10709
▁Office	-10710
▁mechan	-10711
▁wealth	-10712
▁बहुविध	-10713
▁हुनेछु	-10714
▁Samaria	-10715
▁Special	-10716
▁चाहन्छौ	-10717
▁बिस्तार	-10718
▁bringing	-10719
▁consumer	-10720
▁protocol	-10721
▁scattered	-10722
▁उपर्युक्त	-10723
▁वर्षहरुमा	-10724
▁containing	-10725
▁profession	-10726
▁Information	-10727
▁expenditures	-10728
▁प्रधानमन्त्री	-10729
ka	-10730
यू	-10731
निङ	-10732
ासो	-10733
ौरा	-10734
▁Ty	-10735
▁du	-10736
जहरू	-10737
▁Day	-10738
▁Har	-10739
▁जुम	-10740
orses	-10741
ulate	-10742
रीहरू	-10743
सिद्ध	-10744
▁2000	-10745
▁grie	-10746
▁क्षण	-10747
▁डरले	-10748
▁नामा	-10749
▁बोसो	-10750
▁रानी	-10751
▁Inter	-10752
▁categ	-10753
▁आपसमा	-10754
▁कसैको	-10755
▁डाँडा	-10756
▁राख्छ	-10757
वेदनशील	-10758
▁redeem	-10759
▁settle	-10760
▁taught	-10761
▁thread	-10762
▁thumbn	-10763
▁आफैलाई	-10764
▁निर्मा	-10765
▁स्तरको	-10766
▁Birgunj	-10767
▁earlier	-10768
▁highest	-10769
▁restore	-10770
▁यसैकारण	-10771
▁सङ्कुचन	-10772
▁सामरिया	-10773
▁arguments	-10774
governmental	-10775
II	-10776
oo	-10777
▁~	-10778
zer	-10779
सना	-10780
▁CC	-10781
▁NO	-10782
lege	-10783
rene	-10784
योस्	-10785
ाचार	-10786
िन्छ	-10787
▁Gal	-10788
▁UTF	-10789
▁sym	-10790
▁एजे	-10791
▁बाइ	-10792
▁विव	-10793
क्सान	-10794
ूर्ति	-10795
▁Path	-10796
▁cold	-10797
▁gets	-10798
▁glor	-10799
▁team	-10800
▁zoom	-10801
▁चिनि	-10802
▁Black	-10803
▁sense	-10804
▁songs	-10805
▁गिम्प	-10806
oration	-10807
▁bright	-10808
▁golden	-10809
▁rulers	-10810
▁secure	-10811
▁delight	-10812
▁doctors	-10813
▁नोक्सान	-10814
▁प्रत्या	-10815
▁यूसुफले	-10816
▁Remember	-10817
▁earnings	-10818
▁incident	-10819
▁instance	-10820
▁relating	-10821
▁अब्राहाम	-10822
▁जनसहभागि	-10823
▁अनपेक्षित	-10824
▁नबूकदनेस्	-10825
▁techniques	-10826
▁सांस्कृतिक	-10827
▁धर्मशास्त्र	-10828
षक	-10829
irt	-10830
map	-10831
wer	-10832
टौं	-10833
फाइ	-10834
शाख	-10835
सभा	-10836
▁GD	-10837
▁Jh	-10838
▁नह	-10839
▁मू	-10840
▁३८	-10841
▁३९	-10842
edit	-10843
etic	-10844
श्री	-10845
▁Ash	-10846
▁अरब	-10847
▁बटु	-10848
aming	-10849
ग्राफ	-10850
पूर्व	-10851
▁Each	-10852
▁Hear	-10853
▁July	-10854
▁Year	-10855
▁acts	-10856
▁alle	-10857
▁buff	-10858
▁crit	-10859
▁felt	-10860
▁meat	-10861
▁shot	-10862
▁खुबै	-10863
▁चलाइ	-10864
▁नगरे	-10865
▁मौका	-10866
च्छेदन	-10867
▁grass	-10868
▁द्रुत	-10869
▁पापको	-10870
▁सत्ता	-10871
▁साँढे	-10872
▁Always	-10873
▁attend	-10874
▁brings	-10875
▁camera	-10876
▁campus	-10877
▁client	-10878
▁horses	-10879
▁liquid	-10880
▁postal	-10881
▁sevent	-10882
▁smooth	-10883
▁स्तुति	-10884
▁Command	-10885
▁ignored	-10886
▁संसारको	-10887
▁सेनाहरू	-10888
▁खानेकुरा	-10889
▁प्रहरीले	-10890
▁स्तम्भको	-10891
▁केन्द्रमा	-10892
▁मार्गदर्श	-10893
▁Irrigation	-10894
ait	-10895
जीव	-10896
▁४३	-10897
urbs	-10898
उँदछ	-10899
जन्य	-10900
लीमा	-10901
▁Bag	-10902
▁UML	-10903
▁अन्	-10904
ician	-10905
omach	-10906
usion	-10907
ग्राम	-10908
▁Cert	-10909
▁Line	-10910
▁Read	-10911
▁Trib	-10912
▁fier	-10913
▁jobs	-10914
▁गरौं	-10915
▁दर्ु	-10916
▁नामक	-10917
▁निरी	-10918
▁ब्रह	-10919
▁भएता	-10920
asting	-10921
प्रकार	-10922
▁Singh	-10923
▁adequ	-10924
▁rapid	-10925
▁ratio	-10926
▁remem	-10927
▁stage	-10928
▁walls	-10929
▁अवश्य	-10930
▁छविमा	-10931
▁तालीम	-10932
▁दाउरा	-10933
▁बप्ति	-10934
▁बसेको	-10935
▁Script	-10936
▁leaves	-10937
▁perish	-10938
▁stayed	-10939
▁तत्काल	-10940
▁सातवटा	-10941
▁हिन्दू	-10942
ulations	-10943
हरुमध्ये	-10944
▁Replace	-10945
▁alcohol	-10946
▁bridges	-10947
▁concept	-10948
▁mailbox	-10949
▁reforms	-10950
▁परिश्रम	-10951
▁राजधानी	-10952
▁संवादमा	-10953
▁accepted	-10954
▁approach	-10955
▁देखाइएको	-10956
▁प्राप्ति	-10957
▁captivity	-10958
▁contribution	-10959
ऊँ	-10960
ims	-10961
inc	-10962
लाल	-10963
▁३१	-10964
body	-10965
five	-10966
सहरू	-10967
▁Bas	-10968
▁atm	-10969
▁pen	-10970
▁कठि	-10971
▁बुट	-10972
enses	-10973
तपाईँ	-10974
दायिक	-10975
रूपमा	-10976
▁Char	-10977
▁cand	-10978
▁flee	-10979
▁hurt	-10980
▁late	-10981
▁pick	-10982
▁tomb	-10983
▁एचटी	-10984
▁ग्री	-10985
▁पाकि	-10986
▁वहाँ	-10987
▁सघाउ	-10988
ध्यारो	-10989
▁Afric	-10990
▁heavy	-10991
▁popup	-10992
▁recip	-10993
▁इन्टि	-10994
▁पारेर	-10995
▁बाँडफ	-10996
▁बोलाए	-10997
▁मर्ने	-10998
▁शुल्क	-10999
▁स्मरण	-11000
कर्पोरे	-11001
▁Plugin	-11002
▁disapp	-11003
▁player	-11004
▁अधिकृत	-11005
▁चलाउने	-11006
▁जनाएको	-11007
▁देखेको	-11008
▁नाउँको	-11009
▁मान्नु	-11010
▁वर्षका	-11011
▁Network	-11012
▁beloved	-11013
▁proceed	-11014
▁कोइराला	-11015
▁गन्तव्य	-11016
▁परिभाषा	-11017
▁faithful	-11018
▁vertical	-11019
▁कागजातको	-11020
▁तुल्याउन	-11021
▁मृत्युको	-11022
▁Bhaktapur	-11023
▁formulated	-11024
▁सर्वसाधारण	-11025
▁प्रजातन्त्रको	-11026
▁authentication	-11027
ER	-11028
तले	-11029
▁यश	-11030
heet	-11031
orry	-11032
ब्या	-11033
सनको	-11034
▁Tim	-11035
▁kid	-11036
▁जेल	-11037
▁स्प	-11038
धित्व	-11039
याहका	-11040
▁Camp	-11041
▁Sign	-11042
▁ball	-11043
▁join	-11044
▁onto	-11045
▁गोठा	-11046
▁घुम्	-11047
▁चासो	-11048
▁जुलु	-11049
▁डिजि	-11050
▁मापद	-11051
ाउँछन्	-11052
▁Clear	-11053
▁Reset	-11054
▁extra	-11055
▁wheat	-11056
▁अक्टो	-11057
▁आंशिक	-11058
▁आउँदा	-11059
▁किताब	-11060
▁नजिकै	-11061
▁मास्क	-11062
▁लिएका	-11063
▁हातले	-11064
rection	-11065
▁advers	-11066
▁artist	-11067
▁poured	-11068
▁prayer	-11069
▁द्वन्द	-11070
▁पिताको	-11071
▁संयोजन	-11072
▁सिँचाइ	-11073
▁सुम्पि	-11074
▁Western	-11075
▁leaving	-11076
▁offline	-11077
▁चाहिन्छ	-11078
▁थम्बनेल	-11079
▁पर्वतमा	-11080
▁operated	-11081
▁restrict	-11082
▁struggle	-11083
▁उनीहरुको	-11084
▁डरलाग्दो	-11085
▁component	-11086
▁execution	-11087
▁कार्यकारी	-11088
▁determines	-11089
▁इन्कर्पोरे	-11090
▁requirement	-11091
लर	-11092
शक	-11093
bon	-11094
यता	-11095
▁सन	-11096
apes	-11097
host	-11098
▁Dem	-11099
▁End	-11100
▁Hot	-11101
▁Kam	-11102
▁बोल	-11103
▁भाई	-11104
level	-11105
otten	-11106
दानको	-11107
▁Requ	-11108
▁bind	-11109
▁zone	-11110
▁अलिक	-11111
▁आश्र	-11112
▁खरीद	-11113
▁ताजा	-11114
▁मेगा	-11115
▁वाली	-11116
▁Hindu	-11117
▁Shall	-11118
▁incor	-11119
▁मैदान	-11120
▁ह्रास	-11121
▁square	-11122
▁temper	-11123
▁कामदार	-11124
▁बसोबास	-11125
▁राखेका	-11126
▁वेदीमा	-11127
▁शहरलाई	-11128
▁हुंदैन	-11129
▁Besides	-11130
▁shepher	-11131
▁streets	-11132
▁जलस्रोत	-11133
▁निजीकरण	-11134
▁मापदण्ड	-11135
▁chariots	-11136
▁matching	-11137
▁सकिँदैनः	-11138
▁overwrite	-11139
▁बप्तिस्मा	-11140
▁सकारात्मक	-11141
▁चेलाहरूलाई	-11142
▁probability	-11143
▁उद्योगहरुको	-11144
▁corporations	-11145
▁अधिकारीहरूले	-11146
▁प्रतिनिधित्व	-11147
30	-11148
80	-11149
शल	-11150
ाँड	-11151
▁KP	-11152
-200	-11153
anta	-11154
unic	-11155
क्सा	-11156
यानक	-11157
▁Job	-11158
▁POP	-11159
▁चेत	-11160
▁छरि	-11161
▁ताप	-11162
▁बंग	-11163
▁शोध	-11164
acter	-11165
ishna	-11166
मण्डल	-11167
▁Land	-11168
▁blue	-11169
▁zero	-11170
▁ऋणको	-11171
▁एकदम	-11172
▁एकाइ	-11173
▁ट्रि	-11174
▁ट्री	-11175
▁तातो	-11176
▁बाढी	-11177
▁मुना	-11178
▁यिनै	-11179
▁युरो	-11180
terday	-11181
ध्यक्ष	-11182
▁About	-11183
▁Short	-11184
▁broke	-11185
▁round	-11186
▁stars	-11187
▁आगोमा	-11188
▁तँलाई	-11189
▁तरीका	-11190
▁भयानक	-11191
▁वाध्य	-11192
▁farmer	-11193
▁आकर्षक	-11194
▁उद्धार	-11195
▁जान्नु	-11196
▁पाइएको	-11197
▁लोग्ने	-11198
▁वेश्या	-11199
▁तोकिएको	-11200
▁राज्यको	-11201
▁राज्यमा	-11202
▁सेकेन्ड	-11203
▁distance	-11204
▁experien	-11205
▁occasion	-11206
▁thoughts	-11207
▁क्षमतामा	-11208
▁फोल्डरको	-11209
परमप्रभुले	-11210
▁रुपान्तरण	-11211
▁Background	-11212
▁पश्चिमाञ्च	-11213
▁formulation	-11214
▁consciousness	-11215
▁इस्राएलीहरूले	-11216
ES	-11217
la	-11218
लभ	-11219
raz	-11220
ube	-11221
काम	-11222
थान	-11223
बर्	-11224
artr	-11225
र्ति	-11226
▁Hel	-11227
▁Mad	-11228
▁PGP	-11229
▁Tar	-11230
▁van	-11231
▁आँग	-11232
▁जसो	-11233
▁दबा	-11234
▁मकै	-11235
ribed	-11236
▁Wall	-11237
▁sale	-11238
▁wave	-11239
▁क्रा	-11240
▁खतरा	-11241
▁चढाए	-11242
▁चिनी	-11243
▁भ्या	-11244
▁सित्	-11245
▁२०१७	-11246
ateral	-11247
heless	-11248
reness	-11249
नुपर्छ	-11250
स्तविक	-11251
▁Found	-11252
▁Trade	-11253
▁apart	-11254
▁phase	-11255
▁उत्सव	-11256
▁कर्पो	-11257
▁गर्भव	-11258
▁घनत्व	-11259
▁प्लगइ	-11260
▁बचाउन	-11261
▁बन्ने	-11262
▁सुनेर	-11263
osphere	-11264
ग्रीहरू	-11265
▁mainly	-11266
▁अनलाइन	-11267
▁उद्धरण	-11268
▁करोडको	-11269
▁खर्चमा	-11270
▁छविलाई	-11271
▁Written	-11272
▁backend	-11273
▁clearly	-11274
▁suburbs	-11275
▁त्यसबाट	-11276
▁प्रक्षे	-11277
▁मिश्रमा	-11278
▁citizens	-11279
▁encamped	-11280
▁geograph	-11281
▁official	-11282
▁वर्षदेखि	-11283
▁केन्द्रको	-11284
▁प्राधिकरण	-11285
▁dictionary	-11286
▁arrangement	-11287
▁permanently	-11288
▁प्रवेशद्वार	-11289
▁implementing	-11290
11	-11291
ls	-11292
कू	-11293
वत	-11294
कली	-11295
सेर	-11296
▁cy	-11297
▁अज	-11298
cour	-11299
erts	-11300
lech	-11301
lock	-11302
पीआई	-11303
स्टर	-11304
▁Kal	-11305
▁आलो	-11306
▁उता	-11307
▁छर्	-11308
▁ठिक	-11309
▁प्व	-11310
orage	-11311
दिन्छ	-11312
भाविक	-11313
▁Both	-11314
▁Used	-11315
▁susp	-11316
▁आङ्ग	-11317
▁इकाई	-11318
▁बढाउ	-11319
▁भनाइ	-11320
▁श्रा	-11321
▁Small	-11322
▁blank	-11323
▁lands	-11324
▁signs	-11325
▁एनिमे	-11326
▁क्याल	-11327
▁छैनौं	-11328
▁पट्टी	-11329
▁सालको	-11330
▁सुस्त	-11331
conomic	-11332
urities	-11333
▁Dharan	-11334
▁effort	-11335
▁stream	-11336
▁देख्नु	-11337
▁देशबाट	-11338
▁प्रहार	-11339
▁बोल्ने	-11340
▁मिलाउन	-11341
▁हटाउने	-11342
▁हेर्नु	-11343
▁Various	-11344
▁integer	-11345
▁journey	-11346
▁pillars	-11347
▁stomach	-11348
▁किनारमा	-11349
▁साझेदार	-11350
▁desolate	-11351
▁काठमाण्ड	-11352
▁कुञ्जीले	-11353
▁वास्तवमै	-11354
▁विज्ञापन	-11355
▁विराटनगर	-11356
▁excessive	-11357
▁रेखाचित्र	-11358
▁विकल्पहरू	-11359
▁अत्यावश्यक	-11360
▁व्यक्तिहरू	-11361
▁distributed	-11362
▁अगमवक्ताहरू	-11363
▁पुर्खाहरूले	-11364
▁conservation	-11365
,4	-11366
FS	-11367
Kam	-11368
hib	-11369
oph	-11370
थें	-11371
मशो	-11372
▁65	-11373
▁84	-11374
▁बृ	-11375
cont	-11376
oyal	-11377
uman	-11378
डामा	-11379
प्ले	-11380
यरको	-11381
▁Pra	-11382
▁Tot	-11383
▁beg	-11384
▁tal	-11385
▁ढाल	-11386
▁सिद	-11387
oting	-11388
▁2016	-11389
▁scar	-11390
▁shar	-11391
▁weep	-11392
▁आराम	-11393
▁कम्ब	-11394
▁खारे	-11395
▁मिठा	-11396
▁साता	-11397
▁सूचक	-11398
▁हाले	-11399
active	-11400
iverse	-11401
ङ्ख्या	-11402
▁Union	-11403
▁adult	-11404
▁angle	-11405
▁extre	-11406
▁plain	-11407
▁tresp	-11408
▁withd	-11409
▁किशोर	-11410
▁ध्वंस	-11411
▁मरेको	-11412
▁लाग्न	-11413
▁सडकको	-11414
हेन्द्र	-11415
▁Remote	-11416
▁repair	-11417
▁superv	-11418
▁अफलाइन	-11419
▁आन्दोल	-11420
▁उनीहरु	-11421
▁तत्त्व	-11422
▁तरकारी	-11423
▁तीनवटा	-11424
▁थुप्रै	-11425
▁परिचित	-11426
▁पानीमा	-11427
▁प्राणी	-11428
▁मनश्शे	-11429
▁विश्रा	-11430
परमेश्वर	-11431
▁America	-11432
▁Tourism	-11433
▁ability	-11434
▁disable	-11435
▁sustain	-11436
▁गर्भवती	-11437
▁तपाईँका	-11438
▁लेवीहरू	-11439
क्षेत्रमा	-11440
▁proposal	-11441
▁recorded	-11442
▁trespass	-11443
▁अनुमानित	-11444
▁स्वयंलाई	-11445
▁राम्रोसँग	-11446
▁साँच्चिकै	-11447
▁discussion	-11448
▁ordinances	-11449
▁इन्कर्पोरेटि	-11450
मर	-11451
ुन	-11452
५०	-11453
imp	-11454
ira	-11455
war	-11456
जका	-11457
सिस	-11458
स्म	-11459
▁दय	-11460
iKam	-11461
part	-11462
teen	-11463
vest	-11464
▁Men	-11465
▁इरा	-11466
plete	-11467
डिएका	-11468
द्रिक	-11469
▁Call	-11470
▁Date	-11471
▁mask	-11472
▁ring	-11473
▁wide	-11474
▁खानी	-11475
▁घाँस	-11476
▁चिया	-11477
▁बन्ध	-11478
▁बाजा	-11479
▁लेखक	-11480
▁हेरो	-11481
anging	-11482
ishing	-11483
▁ruler	-11484
▁shape	-11485
▁एक्लै	-11486
▁खोज्न	-11487
▁जोखिम	-11488
▁स्वतः	-11489
▁Commer	-11490
▁divide	-11491
▁online	-11492
▁अभावमा	-11493
▁गतिशील	-11494
▁चेष्टा	-11495
▁लगिनेछ	-11496
▁लम्बाइ	-11497
▁वचनहरू	-11498
▁साटोमा	-11499
▁हजारौं	-11500
▁हुनुको	-11501
तापूर्वक	-11502
हरूमध्ये	-11503
▁ancient	-11504
▁digiKam	-11505
▁extract	-11506
▁plugins	-11507
▁trouble	-11508
▁western	-11509
▁समूहलाई	-11510
▁executed	-11511
▁अश्शूरका	-11512
▁दिनुपर्छ	-11513
▁दोहोर्या	-11514
▁पारदर्शी	-11515
▁पुस्तकाल	-11516
▁Construct	-11517
▁भन्नुभएको	-11518
▁Industrial	-11519
▁processing	-11520
,7	-11521
जग	-11522
ठ्	-11523
२०	-11524
पाइ	-11525
मिन	-11526
साई	-11527
▁29	-11528
▁ht	-11529
▁डक	-11530
▁वर	-11531
▁सल	-11532
aker	-11533
dden	-11534
edia	-11535
lies	-11536
oned	-11537
owed	-11538
sect	-11539
ट्या	-11540
लिने	-11541
वन्ध	-11542
स्वा	-11543
हाले	-11544
ाइने	-11545
▁CRL	-11546
▁Pak	-11547
▁leg	-11548
▁बात	-11549
▁बिच	-11550
chers	-11551
orest	-11552
salom	-11553
▁Home	-11554
▁hint	-11555
▁laws	-11556
▁sequ	-11557
▁surv	-11558
▁क्लि	-11559
▁costs	-11560
▁floor	-11561
▁merch	-11562
▁paths	-11563
▁teeth	-11564
▁इत्या	-11565
▁कन्या	-11566
▁गोष्ठ	-11567
▁थालनी	-11568
▁पर्या	-11569
▁बौद्ध	-11570
▁रोज्न	-11571
▁देखेका	-11572
▁समूहले	-11573
▁Absalom	-11574
▁captain	-11575
▁कार्यले	-11576
▁निस्तार	-11577
▁मुलुकमा	-11578
▁शरीरलाई	-11579
▁समितिको	-11580
▁rejected	-11581
▁resident	-11582
▁thinking	-11583
▁traveled	-11584
▁मिश्रदेश	-11585
▁otherwise	-11586
▁चाहनुभएको	-11587
▁सामुदायिक	-11588
▁sufficient	-11589
▁ग्रेडियन्ट	-11590
▁विकासकर्ता	-11591
▁organisations	-11592
co	-11593
▁ष	-11594
agi	-11595
het	-11596
घात	-11597
isis	-11598
otos	-11599
rete	-11600
न्टी	-11601
बाही	-11602
▁der	-11603
▁जनक	-11604
▁दृढ	-11605
▁बास	-11606
▁हप्	-11607
ufact	-11608
▁Arab	-11609
▁Pers	-11610
▁Sikk	-11611
▁cher	-11612
▁emer	-11613
▁obey	-11614
▁अपरा	-11615
▁कन्ड	-11616
▁ब्लग	-11617
▁मिसि	-11618
▁यिनी	-11619
▁लाभा	-11620
▁संशो	-11621
गरमाथा	-11622
▁happy	-11623
▁गर्छन	-11624
▁दानिय	-11625
▁महारा	-11626
▁ल्याऊ	-11627
▁वित्त	-11628
▁व्याज	-11629
▁सन्ता	-11630
pective	-11631
स्थापना	-11632
▁signed	-11633
▁गुम्बा	-11634
▁बाहिरी	-11635
▁बैंकले	-11636
▁वाक्या	-11637
▁विरोधी	-11638
▁सम्भवत	-11639
upported	-11640
▁failure	-11641
▁फ्याँकि	-11642
▁सगरमाथा	-11643
▁Selected	-11644
▁anointed	-11645
▁quantity	-11646
▁पाकिस्ता	-11647
▁मुद्राको	-11648
▁September	-11649
▁प्रादेशिक	-11650
▁conducting	-11651
▁maintained	-11652
▁मानिसहरुले	-11653
▁कार्यान्वयनमा	-11654
▁पूजाहारीहरूले	-11655
▁इस्राएलीहरूलाई	-11656
,2	-11657
-8	-11658
ae	-11659
घर	-11660
ङको	-11661
नान	-11662
निज	-11663
▁KW	-11664
▁३३	-11665
क्री	-11666
बारी	-11667
▁Kum	-11668
▁bul	-11669
▁घाइ	-11670
▁नहर	-11671
▁फड्	-11672
▁भीड	-11673
▁भें	-11674
▁सहर	-11675
ात्मक	-11676
▁Edom	-11677
▁entr	-11678
▁gain	-11679
▁grew	-11680
▁जाभा	-11681
▁टेवा	-11682
▁थालि	-11683
▁पाइप	-11684
▁फेरी	-11685
▁सायद	-11686
antial	-11687
पक्षीय	-11688
▁crowd	-11689
▁pregn	-11690
▁अन्धा	-11691
▁आग्रह	-11692
▁पाठ्य	-11693
▁प्रया	-11694
▁बनायो	-11695
▁हाँसो	-11696
▁Sikkim	-11697
▁advert	-11698
▁breath	-11699
▁centre	-11700
▁famous	-11701
▁छुट्टै	-11702
▁वेदीको	-11703
▁संसाधन	-11704
▁walking	-11705
▁लुगाहरू	-11706
▁Keyboard	-11707
▁declared	-11708
▁festival	-11709
▁solution	-11710
▁पञ्चायती	-11711
▁पृथ्वीका	-11712
▁फर्काउँछ	-11713
▁awareness	-11714
▁buildings	-11715
▁encrypted	-11716
▁efficiency	-11717
▁unexpected	-11718
▁instruments	-11719
▁दृष्टिकोणले	-11720
▁Configuration	-11721
IC	-11722
Pr	-11723
dir	-11724
esc	-11725
pet	-11726
कला	-11727
बाद	-11728
लिस	-11729
date	-11730
more	-11731
tees	-11732
त्तर	-11733
▁Aud	-11734
▁Fif	-11735
▁Mao	-11736
▁Sri	-11737
▁hom	-11738
▁ran	-11739
▁केश	-11740
▁सिल	-11741
▁हिड	-11742
aling	-11743
स्पति	-11744
▁Size	-11745
▁Turn	-11746
▁exal	-11747
▁grid	-11748
▁heat	-11749
▁salt	-11750
▁अर्ब	-11751
▁गोदा	-11752
▁झण्ड	-11753
▁पिउन	-11754
Script	-11755
elcome	-11756
ername	-11757
▁Apart	-11758
▁White	-11759
▁aside	-11760
▁bones	-11761
▁bride	-11762
▁brush	-11763
▁dynam	-11764
▁enjoy	-11765
▁flour	-11766
▁irrig	-11767
▁prior	-11768
▁खम्बा	-11769
▁थ्रेड	-11770
▁धैर्य	-11771
▁भागको	-11772
▁शीर्ष	-11773
connect	-11774
▁Access	-11775
▁Rename	-11776
▁candid	-11777
▁daemon	-11778
▁plague	-11779
▁privat	-11780
▁skills	-11781
▁spring	-11782
▁अंग्रे	-11783
▁खासगरी	-11784
▁ड्राइभ	-11785
▁विगतमा	-11786
▁affects	-11787
▁editing	-11788
▁enhance	-11789
▁reports	-11790
▁इत्यादि	-11791
▁सदस्यता	-11792
▁समयसम्म	-11793
▁gradient	-11794
▁replaced	-11795
▁उल्लेखित	-11796
▁महेन्द्र	-11797
▁सिदकियाह	-11798
▁separated	-11799
▁व्यापारको	-11800
▁सञ्चालनमा	-11801
▁possession	-11802
OM	-11803
एफ	-11804
ओटा	-11805
बाल	-11806
▁ox	-11807
▁ढल	-11808
iers	-11809
ंछन्	-11810
क्या	-11811
च्ची	-11812
त्यो	-11813
दिने	-11814
प्टे	-11815
ल्दै	-11816
▁ric	-11817
▁अरा	-11818
▁खपत	-11819
▁गोर	-11820
▁निग	-11821
▁लहर	-11822
istan	-11823
दानमा	-11824
वलोकन	-11825
▁bill	-11826
▁flat	-11827
▁moon	-11828
▁womb	-11829
▁गिरि	-11830
▁बाला	-11831
▁यकिन	-11832
▁Among	-11833
▁Jehoi	-11834
▁Which	-11835
▁fifth	-11836
▁thres	-11837
▁उर्जा	-11838
▁घाइते	-11839
▁डलरमा	-11840
▁पाउँछ	-11841
▁फिल्म	-11842
▁बोकेर	-11843
▁सच्या	-11844
▁सन्धि	-11845
▁स्कुल	-11846
नकोलागि	-11847
▁choice	-11848
▁eighth	-11849
▁अरूलाई	-11850
▁दुइजना	-11851
▁प्राची	-11852
▁भ्रष्ट	-11853
▁consist	-11854
▁devices	-11855
▁feeling	-11856
▁visited	-11857
▁उपत्यका	-11858
▁टेलिफोन	-11859
▁प्रशोधन	-11860
▁captains	-11861
▁वाक्यांश	-11862
vertheless	-11863
▁नेपालगञ्ज	-11864
▁पुर्याउनु	-11865
▁appearance	-11866
▁communities	-11867
▁संस्थाहरुको	-11868
ox	-11869
wan	-11870
जनी	-11871
षाढ	-11872
▁62	-11873
▁३४	-11874
र्थी	-11875
ेलको	-11876
्रिक	-11877
▁mig	-11878
▁अप्	-11879
▁ओर्	-11880
▁दशक	-11881
▁नोक	-11882
▁प्य	-11883
▁माओ	-11884
▁1961	-11885
▁Sets	-11886
▁doll	-11887
▁drug	-11888
▁ends	-11889
▁goal	-11890
▁pane	-11891
▁virt	-11892
▁कुना	-11893
▁गरेन	-11894
▁ग्या	-11895
▁भोलि	-11896
▁माइम	-11897
▁रहबा	-11898
▁सँधै	-11899
cember	-11900
phrase	-11901
▁gnome	-11902
▁grave	-11903
▁lambs	-11904
▁moves	-11905
▁owner	-11906
▁shell	-11907
▁surpr	-11908
▁डिजिक	-11909
▁प्रथा	-11910
▁वृत्त	-11911
▁सन्तु	-11912
नकालागि	-11913
▁Follow	-11914
▁rename	-11915
▁आउँछन्	-11916
▁आयोगको	-11917
▁डीपीआई	-11918
▁पठाएको	-11919
▁विपक्ष	-11920
▁स्वामी	-11921
▁Foreign	-11922
▁closing	-11923
▁machine	-11924
▁protest	-11925
▁station	-11926
▁अन्वेषण	-11927
▁किसिमले	-11928
▁गरिदिनु	-11929
▁गर्नुहु	-11930
▁दृश्यमा	-11931
▁लेखिएका	-11932
▁Jeroboam	-11933
▁Services	-11934
▁अँध्यारो	-11935
▁उत्पादित	-11936
▁प्रसिद्ध	-11937
▁लिनुहोस्	-11938
▁समुद्रको	-11939
▁documents	-11940
▁publicity	-11941
▁testimony	-11942
▁अस्पतालमा	-11943
▁कान्तिपुर	-11944
▁राष्ट्रको	-11945
▁व्यापारमा	-11946
▁accordance	-11947
▁provisions	-11948
▁वृक्षारोपण	-11949
▁सामान्यतया	-11950
▁अन्तर्राष्टि्रय	-11951
OC	-11952
्छु	-11953
▁31	-11954
▁आस	-11955
▁एड	-11956
▁ओग	-11957
▁फर	-11958
8226	-11959
कक्ष	-11960
क्षि	-11961
मध्य	-11962
ालीस	-11963
▁Fed	-11964
▁obl	-11965
▁डेइ	-11966
▁महो	-11967
▁सहि	-11968
र्भिक	-11969
▁Phar	-11970
▁Sure	-11971
▁huge	-11972
▁mort	-11973
▁rail	-11974
▁sets	-11975
▁उहां	-11976
▁गर्व	-11977
▁चौकी	-11978
▁चौडा	-11979
▁छोडे	-11980
▁पैदा	-11981
▁भूइँ	-11982
▁सँगै	-11983
▁स्तन	-11984
vement	-11985
▁gedit	-11986
▁linen	-11987
▁stick	-11988
▁usage	-11989
▁कालमा	-11990
▁दिंदै	-11991
▁पिउने	-11992
▁मनश्श	-11993
▁महीना	-11994
▁शिमशो	-11995
▁Centre	-11996
▁Elijah	-11997
▁School	-11998
▁पावलले	-11999
▁Airport	-12000
▁British	-12001
▁customs	-12002
▁leading	-12003
▁planted	-12004
▁raising	-12005
▁कहिलेका	-12006
▁कारबाही	-12007
▁पहिलेको	-12008
▁पासफ्रे	-12009
▁सङ्लग्न	-12010
▁monetary	-12011
▁योजनाहरू	-12012
▁सन्देशको	-12013
▁स्वर्गमा	-12014
▁functions	-12015
▁yesterday	-12016
▁अभिवृद्धि	-12017
▁अवास्तविक	-12018
▁निर्माणको	-12019
▁panchayats	-12020
▁कम्युनिष्ट	-12021
▁घुसाउनुहोस्	-12022
15	-12023
ँट	-12024
ago	-12025
दीय	-12026
लोन	-12027
िलो	-12028
▁द्	-12029
ream	-12030
त्रि	-12031
न्दै	-12032
स्ने	-12033
▁600	-12034
▁Bus	-12035
▁Gib	-12036
▁Mrs	-12037
▁Rot	-12038
▁cum	-12039
▁ste	-12040
ष्कार	-12041
▁8226	-12042
▁कर्त	-12043
▁कृपा	-12044
▁गुना	-12045
▁ट्वी	-12046
▁ढुवा	-12047
▁नारा	-12048
▁फरिस	-12049
apping	-12050
▁Asian	-12051
▁Width	-12052
▁souls	-12053
▁अल्फा	-12054
▁आउँदै	-12055
▁उठाउन	-12056
▁किन्न	-12057
▁गतिमा	-12058
▁तथापि	-12059
▁दर्शक	-12060
▁प्यान	-12061
▁मिठाई	-12062
▁म्याक	-12063
▁संगठन	-12064
▁butter	-12065
▁saints	-12066
▁आकर्षण	-12067
▁उठाउने	-12068
▁एकातिर	-12069
▁गर्छौं	-12070
▁गर्यौं	-12071
▁गिरिजा	-12072
▁नक्कली	-12073
▁Install	-12074
▁Pharise	-12075
▁demonst	-12076
▁अगमवाणी	-12077
▁भेडाहरू	-12078
▁यहोयाकी	-12079
▁साथसाथै	-12080
▁Facebook	-12081
▁commands	-12082
▁deposits	-12083
▁subjects	-12084
▁executive	-12085
▁expressed	-12086
▁प्रशासकीय	-12087
▁मृत्युबाट	-12088
▁parliament	-12089
▁नियन्त्रणमा	-12090
▁improvements	-12091
55	-12092
फी	-12093
afe	-12094
mes	-12095
देव	-12096
शान	-12097
सुस	-12098
▁CS	-12099
▁Hy	-12100
▁गह	-12101
arge	-12102
vere	-12103
क्लो	-12104
▁DTD	-12105
▁Gad	-12106
▁ram	-12107
▁आउट	-12108
▁आखि	-12109
▁घाम	-12110
aniah	-12111
claim	-12112
going	-12113
stood	-12114
क्ष्य	-12115
▁Gork	-12116
▁Must	-12117
▁Prom	-12118
▁teen	-12119
▁आषाढ	-12120
▁उडान	-12121
▁खाँच	-12122
▁गरिब	-12123
▁धारा	-12124
▁पचास	-12125
▁बाँण	-12126
▁बिमा	-12127
▁बेहो	-12128
▁मेटा	-12129
▁सेन्	-12130
▁हुनै	-12131
urning	-12132
्नेछन्	-12133
▁Board	-12134
▁sixth	-12135
▁towns	-12136
▁बत्ती	-12137
▁लक्षण	-12138
onement	-12139
▁bridge	-12140
▁donkey	-12141
▁leader	-12142
▁render	-12143
▁डुङ्गा	-12144
▁दोश्रो	-12145
▁पानीले	-12146
▁राख्दछ	-12147
▁सक्छौं	-12148
▁सक्नेछ	-12149
ployment	-12150
▁Maximum	-12151
▁Options	-12152
▁acceler	-12153
▁applied	-12154
▁banking	-12155
▁depends	-12156
▁finance	-12157
▁injured	-12158
▁आदिवासी	-12159
▁मौद्रिक	-12160
▁December	-12161
▁oriented	-12162
▁studying	-12163
▁क्याम्पस	-12164
▁निष्पक्ष	-12165
▁फ्रेमहरू	-12166
▁foundation	-12167
▁substantial	-12168
▁सञ्झ्याललाई	-12169
,6	-12170
ms	-12171
pi	-12172
ta	-12173
PGP	-12174
ima	-12175
ugh	-12176
कुट	-12177
गमा	-12178
डरा	-12179
▁ठु	-12180
enth	-12181
only	-12182
plus	-12183
ँदैछ	-12184
मुले	-12185
र्दा	-12186
▁Pop	-12187
▁hit	-12188
▁mut	-12189
▁घडी	-12190
▁धनु	-12191
▁नेट	-12192
ening	-12193
pread	-12194
tched	-12195
बाहिर	-12196
ल्पमा	-12197
▁Port	-12198
▁inqu	-12199
▁lift	-12200
▁कङ्ग	-12201
▁गराए	-12202
▁चिसो	-12203
▁झगडा	-12204
▁ट्रा	-12205
▁दाजु	-12206
▁नत्र	-12207
▁निहु	-12208
▁नेभि	-12209
▁पिला	-12210
▁मेमो	-12211
▁सङ्ध	-12212
▁arise	-12213
▁envis	-12214
▁कानून	-12215
▁नभएमा	-12216
▁यशैया	-12217
▁लैजान	-12218
▁संघीय	-12219
▁Format	-12220
▁abomin	-12221
▁alarms	-12222
▁fellow	-12223
▁unique	-12224
▁आह्वान	-12225
▁इमान्द	-12226
▁तिर्नु	-12227
▁नीतिको	-12228
▁बस्छन्	-12229
▁consult	-12230
▁density	-12231
▁whereas	-12232
▁गइरहेको	-12233
▁पुनसुरु	-12234
▁श्रीमती	-12235
▁Database	-12236
▁अर्कोतिर	-12237
▁दिनहरूमा	-12238
▁वस्तुहरु	-12239
▁कुराहरूको	-12240
▁ख्रीष्टमा	-12241
▁देखिन्छन्	-12242
▁beneficial	-12243
▁coordinate	-12244
▁indigenous	-12245
▁remembered	-12246
▁देवताहरूको	-12247
EL	-12248
ki	-12249
▁ङ	-12250
ING	-12251
ija	-12252
ऊन्	-12253
काउ	-12254
ल्भ	-12255
▁अड	-12256
SCII	-12257
aver	-12258
wide	-12259
रिकन	-12260
विना	-12261
▁Bel	-12262
▁ISO	-12263
▁Tam	-12264
▁fly	-12265
▁कब्	-12266
▁मसि	-12267
▁यात	-12268
▁सरस	-12269
aphat	-12270
itage	-12271
rence	-12272
कालिन	-12273
हारिक	-12274
▁Link	-12275
▁auto	-12276
▁bapt	-12277
▁lakh	-12278
▁phil	-12279
▁इन्ध	-12280
▁उद्य	-12281
▁खतना	-12282
▁गारो	-12283
▁जर्म	-12284
▁नापी	-12285
▁हटाउ	-12286
न्दर्य	-12287
बहादुर	-12288
▁Bhair	-12289
▁hydro	-12290
▁prime	-12291
▁queen	-12292
▁spoil	-12293
▁tools	-12294
▁खेलको	-12295
▁घटेको	-12296
▁चुम्ब	-12297
▁झुण्ड	-12298
▁महसुस	-12299
▁मान्न	-12300
reprene	-12301
▁Daniel	-12302
▁Return	-12303
▁advice	-12304
▁cattle	-12305
▁rising	-12306
▁scroll	-12307
▁struct	-12308
▁wanted	-12309
▁डिग्री	-12310
▁पुस्ता	-12311
▁साक्षर	-12312
▁साक्षी	-12313
▁OpenPGP	-12314
▁palette	-12315
▁selling	-12316
▁seventy	-12317
▁पर्दाको	-12318
▁पृष्ठमा	-12319
▁युद्धको	-12320
▁संसारका	-12321
▁Document	-12322
▁adequate	-12323
▁arrested	-12324
▁exported	-12325
▁officers	-12326
▁relevant	-12327
▁इतिहासमा	-12328
▁मानाङ्कन	-12329
▁सरकारबाट	-12330
▁preparing	-12331
▁ढाँचाबद्ध	-12332
▁Connection	-12333
▁prostitute	-12334
▁तिनीहरूमाथि	-12335
▁प्रक्रियामा	-12336
▁अर्थतन्त्रमा	-12337
IM	-12338
शय	-12339
्स	-12340
एनौ	-12341
ात्	-12342
▁ax	-12343
▁रण	-12344
▁६४	-12345
izes	-12346
ङ्गी	-12347
भारा	-12348
लियम	-12349
▁Sid	-12350
▁Tre	-12351
▁Zeb	-12352
▁काय	-12353
▁नहो	-12354
▁होस	-12355
▁३००	-12356
grees	-12357
न्दैन	-12358
रूपले	-12359
▁Esau	-12360
▁Exec	-12361
▁goat	-12362
▁poet	-12363
▁quit	-12364
▁stro	-12365
▁आगमन	-12366
▁आदान	-12367
▁क्रे	-12368
▁क्षय	-12369
▁भाँच	-12370
▁मोटो	-12371
▁लागु	-12372
▁साइन	-12373
aneous	-12374
icated	-12375
▁State	-12376
▁fails	-12377
▁forms	-12378
▁अञ्चल	-12379
▁इलाका	-12380
▁उल्टो	-12381
▁खालको	-12382
▁गन्ती	-12383
▁गरेकी	-12384
▁ममाथि	-12385
▁सडकमा	-12386
▁सन्दू	-12387
ruption	-12388
▁Invest	-12389
▁attain	-12390
▁crisis	-12391
▁danger	-12392
▁healed	-12393
▁joined	-12394
▁riches	-12395
▁देख्ने	-12396
▁निन्दा	-12397
▁बिन्ती	-12398
▁मोशाको	-12399
▁Warning	-12400
▁borders	-12401
▁eternal	-12402
▁factory	-12403
▁partial	-12404
▁screens	-12405
▁treated	-12406
▁utterly	-12407
▁अन्नबलि	-12408
▁ट्याबमा	-12409
▁तिमीसित	-12410
▁दक्षिणी	-12411
▁परामर्श	-12412
▁परिप्रे	-12413
▁प्रसन्न	-12414
▁वस्तुमा	-12415
▁विश्वका	-12416
▁म्यानुअल	-12417
▁विश्वासी	-12418
▁सरकारलाई	-12419
▁atmosphere	-12420
▁अधिराज्यका	-12421
▁जलविद्युत्	-12422
▁achievement	-12423
▁मानिसहरूसँग	-12424
▁म्याट्रिक्स	-12425
▁Construction	-12426
▁अर्थतन्त्रको	-12427
उछ	-12428
ATH	-12429
ura	-12430
ून्	-12431
▁Sk	-12432
chol	-12433
ores	-12434
लोमा	-12435
सिया	-12436
सूची	-12437
▁Eff	-12438
▁Gur	-12439
▁cru	-12440
▁fet	-12441
▁rit	-12442
▁खुद	-12443
▁रोप	-12444
▁लाम	-12445
▁लाल	-12446
▁शेल	-12447
agram	-12448
range	-12449
मात्र	-12450
सक्ने	-12451
▁1983	-12452
▁East	-12453
▁Mean	-12454
▁Norm	-12455
▁Shem	-12456
▁anti	-12457
▁chat	-12458
▁plot	-12459
▁webs	-12460
▁अपर्	-12461
▁कैदी	-12462
▁खाएर	-12463
▁तिनि	-12464
▁दरमा	-12465
▁दशमल	-12466
▁दिगो	-12467
▁प्रौ	-12468
▁योआश	-12469
course	-12470
▁Janak	-12471
▁occup	-12472
▁अग्रि	-12473
▁खाँचो	-12474
▁गर्नै	-12475
▁चलेको	-12476
▁प्रेष	-12477
▁प्वाल	-12478
▁भन्छौ	-12479
▁मरियम	-12480
▁सुदूर	-12481
▁bitter	-12482
▁helped	-12483
▁ritual	-12484
▁severe	-12485
▁threat	-12486
▁wonder	-12487
▁अधीनमा	-12488
▁खोज्ने	-12489
▁डिजिटल	-12490
▁मेनुमा	-12491
▁accompl	-12492
▁capable	-12493
▁payment	-12494
▁records	-12495
▁reflect	-12496
▁एलीशाले	-12497
▁कुलसमूह	-12498
▁जन्मेको	-12499
▁प्राचीन	-12500
▁हिसाबले	-12501
हरूद्वारा	-12502
▁carrying	-12503
▁manufact	-12504
▁pleasant	-12505
▁pleasure	-12506
▁उनीहरूका	-12507
▁देशहरूमा	-12508
▁बसिरहेका	-12509
▁विकल्पमा	-12510
▁Egyptians	-12511
▁insurance	-12512
▁principal	-12513
▁सुरक्षाको	-12514
▁हराइरहेको	-12515
▁understood	-12516
▁instruction	-12517
▁consideration	-12518
cle	-12519
iar	-12520
oon	-12521
wal	-12522
अर्	-12523
तिय	-12524
वात	-12525
▁पज	-12526
abul	-12527
ilee	-12528
illa	-12529
inst	-12530
ंत्र	-12531
उँदो	-12532
दलीय	-12533
भियत	-12534
▁CPU	-12535
▁Jag	-12536
▁Ref	-12537
▁Sum	-12538
▁असं	-12539
▁केस	-12540
▁गाँ	-12541
▁तौल	-12542
▁मोह	-12543
▁सकु	-12544
▁सवै	-12545
ended	-12546
inese	-12547
wards	-12548
न्तित	-12549
रोक्त	-12550
▁Brah	-12551
▁Exam	-12552
▁Gand	-12553
▁imag	-12554
▁wash	-12555
▁इन्ट	-12556
▁घातक	-12557
▁जोडी	-12558
▁होशि	-12559
▁lying	-12560
▁tenth	-12561
▁touch	-12562
▁views	-12563
▁कन्सो	-12564
▁किरिङ	-12565
▁कुलका	-12566
▁जापान	-12567
▁झ्याल	-12568
▁पालमा	-12569
▁प्रौढ	-12570
▁बढ्ने	-12571
▁माझमा	-12572
▁मार्च	-12573
▁सिद्ध	-12574
▁सूत्र	-12575
▁Source	-12576
▁circle	-12577
▁vessel	-12578
▁खण्डको	-12579
▁दिल्ली	-12580
▁बाकसमा	-12581
▁बिरुवा	-12582
▁सहयोगी	-12583
▁सोभियत	-12584
▁स्वच्छ	-12585
▁हृदयमा	-12586
▁Himalay	-12587
▁October	-12588
▁drawing	-12589
▁earthqu	-12590
▁enterpr	-12591
▁keyword	-12592
▁traders	-12593
▁utility	-12594
▁उपरोक्त	-12595
▁कार्यरत	-12596
▁जन्मेका	-12597
▁जानुभयो	-12598
▁पत्रिका	-12599
▁महीनाको	-12600
▁सकिंदैन	-12601
▁although	-12602
▁contacts	-12603
▁identity	-12604
▁precious	-12605
▁pressing	-12606
▁violence	-12607
▁चिकित्सक	-12608
▁पासफ्रेज	-12609
▁Otherwise	-12610
▁विश्रामको	-12611
▁समस्याहरु	-12612
▁discipline	-12613
▁independent	-12614
▁intercourse	-12615
,9	-12616
EC	-12617
ोज	-12618
cel	-12619
उनी	-12620
जेर	-12621
टिस	-12622
होर	-12623
▁KG	-12624
atin	-12625
reed	-12626
sely	-12627
गणना	-12628
लियत	-12629
्वास	-12630
▁Gan	-12631
▁amb	-12632
▁nin	-12633
▁कटौ	-12634
▁काल	-12635
▁खाड	-12636
ieves	-12637
plays	-12638
plies	-12639
ङ्ग४७	-12640
र्याह	-12641
▁Mich	-12642
▁pour	-12643
▁आहार	-12644
▁कारा	-12645
▁विजा	-12646
orient	-12647
पत्रको	-12648
▁Activ	-12649
▁Layer	-12650
▁grown	-12651
▁links	-12652
▁rooms	-12653
▁swore	-12654
▁असन्त	-12655
▁झण्डै	-12656
▁प्रको	-12657
▁States	-12658
▁grains	-12659
▁impart	-12660
▁prompt	-12661
▁tracks	-12662
▁कल्पना	-12663
▁ग्लोबल	-12664
▁Krishna	-12665
▁foolish	-12666
▁freedom	-12667
▁storage	-12668
▁अहिलेको	-12669
▁पाँचवटा	-12670
▁स्क्रोल	-12671
▁ministry	-12672
▁अंग्रेजी	-12673
▁तालिकामा	-12674
▁निर्वाचन	-12675
▁सर्भरबाट	-12676
▁abundance	-12677
▁residents	-12678
▁अनुमतिहरू	-12679
▁तिमीहरुको	-12680
▁निस्क्रिय	-12681
▁Additional	-12682
▁historical	-12683
▁क्षेत्रहरुको	-12684
PI	-12685
oj	-12686
ti	-12687
पट	-12688
ोष	-12689
amm	-12690
ils	-12691
कित	-12692
ञ्छ	-12693
पेर	-12694
वहन	-12695
▁KA	-12696
acro	-12697
adne	-12698
uben	-12699
परित	-12700
▁eph	-12701
▁tom	-12702
▁त्र	-12703
▁थाह	-12704
▁सता	-12705
निएको	-12706
वस्था	-12707
सम्भव	-12708
▁Auto	-12709
▁Mahe	-12710
▁Prot	-12711
▁Vert	-12712
▁Vill	-12713
▁छिन्	-12714
▁टायल	-12715
▁धागो	-12716
▁फैलि	-12717
▁बिला	-12718
▁मतलब	-12719
▁Fifth	-12720
▁doors	-12721
▁somet	-12722
▁विधवा	-12723
▁हिमाल	-12724
ulative	-12725
▁German	-12726
▁devote	-12727
▁flight	-12728
▁ladder	-12729
▁schema	-12730
▁sorrow	-12731
▁एलाजार	-12732
▁जङ्गली	-12733
▁थालेका	-12734
▁देब्रे	-12735
▁रङदानी	-12736
▁रूखहरू	-12737
▁सुनेका	-12738
▁स्तरका	-12739
▁harvest	-12740
▁quarter	-12741
▁आउनेछन्	-12742
▁इन्टिजर	-12743
▁कर्तव्य	-12744
▁चिन्तित	-12745
▁जानेछन्	-12746
▁साथीहरू	-12747
▁सेवालाई	-12748
▁हामीहरू	-12749
▁Planning	-12750
▁generate	-12751
▁निःशुल्क	-12752
▁निर्देशक	-12753
▁बहुमूल्य	-12754
▁भन्नेछन्	-12755
▁स्थितिको	-12756
▁Secretary	-12757
▁foreigner	-12758
▁न्युयोर्क	-12759
▁मानिसहरूमा	-12760
▁सामग्रीहरू	-12761
▁corporation	-12762
▁corresponding	-12763
ael	-12764
iri	-12765
rad	-12766
किए	-12767
न्च	-12768
▁47	-12769
▁ep	-12770
▁षड	-12771
▁हू	-12772
aded	-12773
pert	-12774
quar	-12775
zzar	-12776
्युट	-12777
▁Cop	-12778
▁bab	-12779
▁bid	-12780
▁suc	-12781
▁ton	-12782
▁आफु	-12783
▁तरल	-12784
▁नला	-12785
▁फाट	-12786
click	-12787
ields	-12788
iples	-12789
limin	-12790
while	-12791
धारणा	-12792
▁Ahab	-12793
▁Chal	-12794
▁Pack	-12795
▁sand	-12796
▁supp	-12797
▁wond	-12798
▁उभिए	-12799
▁फर्म	-12800
▁भागे	-12801
▁माने	-12802
▁शोषण	-12803
▁संरच	-12804
▁हुदा	-12805
cement	-12806
uesday	-12807
धिकारी	-12808
भित्रै	-12809
राखेको	-12810
▁Stand	-12811
▁ahead	-12812
▁grand	-12813
▁noise	-12814
▁semin	-12815
▁अपमान	-12816
▁करूणा	-12817
▁कान्छ	-12818
▁खेल्न	-12819
▁बिग्र	-12820
▁भर्या	-12821
▁सकेका	-12822
actions	-12823
uchadne	-12824
क्षिप्त	-12825
नीहरूको	-12826
▁Girija	-12827
▁advant	-12828
▁overse	-12829
▁photos	-12830
▁कदमहरु	-12831
▁दुर्गम	-12832
▁सिंहास	-12833
▁हदसम्म	-12834
ificates	-12835
▁Instead	-12836
▁decades	-12837
▁filters	-12838
▁garment	-12839
▁liberal	-12840
▁succeed	-12841
▁अबीमेले	-12842
▁डिस्कमा	-12843
▁न्यायको	-12844
▁वनस्पति	-12845
▁retrieve	-12846
▁निरीक्षण	-12847
▁फलस्वरुप	-12848
▁बंगलादेश	-12849
▁सौन्दर्य	-12850
▁broadcast	-12851
▁उद्योगहरु	-12852
▁तुलनात्मक	-12853
uchadnezzar	-12854
▁leadership	-12855
▁Certificate	-12856
▁कार्यक्रमले	-12857
▁notification	-12858
▁preservation	-12859
▁Nebuchadnezzar	-12860
IG	-12861
TA	-12862
fr	-12863
घन	-12864
हत	-12865
ाई	-12866
लोक	-12867
▁जक	-12868
▁ठो	-12869
▁नम	-12870
▁पथ	-12871
arsh	-12872
case	-12873
ding	-12874
lude	-12875
name	-12876
nant	-12877
खेटा	-12878
▁Aug	-12879
▁Bug	-12880
▁Deb	-12881
▁Ish	-12882
▁डबल	-12883
▁विन	-12884
imize	-12885
▁JPEG	-12886
▁Java	-12887
▁Sort	-12888
▁slog	-12889
▁vain	-12890
▁weap	-12891
▁क्रू	-12892
▁तिर्	-12893
▁भैरह	-12894
▁सरदर	-12895
ancing	-12896
म्बरमा	-12897
▁ASCII	-12898
▁Delhi	-12899
▁magaz	-12900
▁गोप्य	-12901
▁टाँस्	-12902
▁तैपनि	-12903
▁निवार	-12904
▁पिलात	-12905
▁पुँजी	-12906
▁फर्के	-12907
▁बहुभु	-12908
▁स्लाइ	-12909
▁angels	-12910
▁attrib	-12911
▁bought	-12912
▁fought	-12913
▁philos	-12914
▁spaces	-12915
▁नियोजन	-12916
▁बैंकको	-12917
▁सेप्टे	-12918
oriented	-12919
▁Further	-12920
▁Tuesday	-12921
▁breadth	-12922
▁illness	-12923
▁servers	-12924
▁आइरहेको	-12925
▁राखिएका	-12926
▁सकेसम्म	-12927
▁सिफारिस	-12928
▁Commerce	-12929
▁approved	-12930
▁changing	-12931
▁concrete	-12932
▁प्रतियोग	-12933
▁सन्देशमा	-12934
▁personnel	-12935
▁स्वर्गबाट	-12936
▁identified	-12937
▁revolution	-12938
▁क्यालेन्डर	-12939
▁गर्नुभन्दा	-12940
▁competition	-12941
▁performance	-12942
▁प्रयोगकर्तालाई	-12943
yo	-12944
हण	-12945
uit	-12946
▁ही	-12947
▁६५	-12948
DMCP	-12949
roud	-12950
time	-12951
कर्ष	-12952
कारक	-12953
ज्यु	-12954
दियो	-12955
▁Dam	-12956
▁Sen	-12957
▁Uns	-12958
▁Ved	-12959
▁fun	-12960
▁तलब	-12961
मान्य	-12962
▁Font	-12963
▁Gent	-12964
▁Gree	-12965
▁एवम्	-12966
▁गहुँ	-12967
▁छक्क	-12968
▁दाबी	-12969
▁बुझे	-12970
▁XDMCP	-12971
▁aware	-12972
▁cents	-12973
▁foods	-12974
▁motor	-12975
▁proud	-12976
▁quiet	-12977
▁wings	-12978
▁एजेन्	-12979
▁घरबाट	-12980
▁फिरऊन	-12981
▁मिलाइ	-12982
▁वैद्य	-12983
▁Social	-12984
▁elimin	-12985
▁highly	-12986
▁listed	-12987
▁owners	-12988
▁stocks	-12989
▁अवलोकन	-12990
▁गराइने	-12991
▁ठाउँको	-12992
▁तपाईले	-12993
▁मुनाफा	-12994
liminary	-12995
▁Science	-12996
▁Windows	-12997
▁largest	-12998
▁reality	-12999
▁remnant	-13000
▁उपन्यास	-13001
▁औपचारिक	-13002
▁भक्तपुर	-13003
▁भैसकेको	-13004
▁शमूएलले	-13005
▁Internal	-13006
▁Pakistan	-13007
▁attached	-13008
▁feasible	-13009
▁pictures	-13010
▁पाउनेछन्	-13011
▁शत्रुलाई	-13012
▁समुद्रमा	-13013
▁हुनुहोस्	-13014
▁atonement	-13015
▁automatic	-13016
▁अधिकारीले	-13017
▁डेस्कटपमा	-13018
▁confidence	-13019
▁foreigners	-13020
▁registered	-13021
▁sacrifices	-13022
▁छोराहरूलाई	-13023
▁मानचित्रमा	-13024
▁फर्काउनुहोस्	-13025
,3	-13026
एक	-13027
ूण	-13028
off	-13029
omb	-13030
uPG	-13031
zen	-13032
ङ्न	-13033
वित	-13034
▁SM	-13035
▁थै	-13036
elah	-13037
mish	-13038
path	-13039
काले	-13040
न्ता	-13041
राले	-13042
र्घट	-13043
▁150	-13044
▁PNG	-13045
▁Pas	-13046
▁Pur	-13047
▁Put	-13048
▁Zer	-13049
▁nav	-13050
▁चेक	-13051
▁थोक	-13052
▁फोन	-13053
▁बिर	-13054
▁सतह	-13055
print	-13056
ptoms	-13057
प्रिय	-13058
ब्लिक	-13059
भाग्य	-13060
▁Cour	-13061
▁Gibe	-13062
▁Oper	-13063
▁Word	-13064
▁conv	-13065
▁कन्ट	-13066
▁खोजे	-13067
▁चामल	-13068
▁थिइन	-13069
▁भट्ट	-13070
▁सहमत	-13071
▁हिज्	-13072
inking	-13073
itudes	-13074
कासाथै	-13075
बिन्दु	-13076
▁Coord	-13077
▁Level	-13078
▁Setup	-13079
▁evalu	-13080
▁कचौरा	-13081
▁नहुनु	-13082
▁फर्की	-13083
▁रहोस्	-13084
iveness	-13085
▁Surely	-13086
▁Tribhu	-13087
▁errors	-13088
▁island	-13089
▁larger	-13090
▁silent	-13091
▁street	-13092
▁worthy	-13093
▁खोल्ने	-13094
▁चुनौती	-13095
▁लाग्नु	-13096
▁सेनाले	-13097
नीहरूलाई	-13098
्नुहुन्छ	-13099
▁Highway	-13100
▁absence	-13101
▁convers	-13102
▁housing	-13103
▁overall	-13104
▁shekels	-13105
▁upright	-13106
▁आनन्दित	-13107
▁कम्तीमा	-13108
▁गरिरहनु	-13109
▁प्रकृया	-13110
▁भइरहेका	-13111
▁समूहबाट	-13112
▁articles	-13113
▁released	-13114
▁stations	-13115
▁क्रान्ति	-13116
▁जिल्लाका	-13117
▁पदार्थको	-13118
▁प्राप्ता	-13119
▁सुविधाको	-13120
▁Pharisees	-13121
▁Selection	-13122
▁announced	-13123
▁interpret	-13124
▁permanent	-13125
▁नकारात्मक	-13126
▁निरन्तरता	-13127
▁ब्याकइन्ड	-13128
▁शोधनान्तर	-13129
▁contribute	-13130
▁entreprene	-13131
▁suspension	-13132
▁preferences	-13133
▁publication	-13134
▁पुनरावृत्ति	-13135
▁Nevertheless	-13136
,8	-13137
45	-13138
yr	-13139
ako	-13140
nes	-13141
ync	-13142
ङ्ख	-13143
िने	-13144
▁36	-13145
amba	-13146
ithm	-13147
maid	-13148
urse	-13149
उनेछ	-13150
पर्क	-13151
वधान	-13152
वामा	-13153
स्टो	-13154
▁Ask	-13155
▁Dig	-13156
▁GDP	-13157
▁Rai	-13158
▁एमो	-13159
▁घिउ	-13160
▁जोन	-13161
▁दाग	-13162
▁बने	-13163
▁राउ	-13164
elect	-13165
vious	-13166
▁Shiv	-13167
▁curt	-13168
▁star	-13169
▁tags	-13170
▁कुकी	-13171
▁भारी	-13172
▁मातृ	-13173
▁लियो	-13174
▁सातौ	-13175
त्तिकै	-13176
▁Incre	-13177
▁bowed	-13178
▁brack	-13179
▁goats	-13180
▁incom	-13181
▁outer	-13182
▁sixty	-13183
▁थियोः	-13184
▁बलिया	-13185
▁बाँधि	-13186
▁शिविर	-13187
▁सभामा	-13188
▁सान्त	-13189
▁Chalde	-13190
▁Editor	-13191
▁Ignore	-13192
▁Reuben	-13193
▁adding	-13194
▁calcul	-13195
▁census	-13196
▁speaks	-13197
▁sudden	-13198
▁travel	-13199
▁virgin	-13200
▁अभिलेख	-13201
▁क्याप्	-13202
▁दुर्घट	-13203
▁बलिहरू	-13204
▁रिसर्च	-13205
▁सुरुमा	-13206
▁स्वास्	-13207
▁Library	-13208
▁declare	-13209
▁elected	-13210
▁surplus	-13211
▁warning	-13212
▁असन्तुल	-13213
▁आफैंलाई	-13214
▁पर्दामा	-13215
▁प्रान्त	-13216
▁फर्काउन	-13217
▁भिन्नता	-13218
▁विजार्ड	-13219
▁estimate	-13220
▁इन्डेन्ट	-13221
▁कुञ्जीको	-13222
▁पार्नेछु	-13223
▁बिस्तारै	-13224
▁सन्तुष्ट	-13225
▁स्त्रीले	-13226
▁elections	-13227
▁performed	-13228
▁practical	-13229
▁standards	-13230
▁क्षेत्रगत	-13231
▁पुस्तकालय	-13232
▁यातायातको	-13233
▁Management	-13234
▁displaying	-13235
▁passphrase	-13236
▁प्राप्ताङ्क	-13237
▁particularly	-13238
US	-13239
ji	-13240
han	-13241
ंकन	-13242
तेर	-13243
दाब	-13244
▁-1	-13245
▁33	-13246
▁Ak	-13247
▁Di	-13248
▁रज	-13249
▁४४	-13250
orth	-13251
प्रि	-13252
रिने	-13253
लावा	-13254
▁400	-13255
▁Pan	-13256
▁Woe	-13257
▁anx	-13258
▁cow	-13259
▁rod	-13260
▁उठे	-13261
▁कुट	-13262
▁दाइ	-13263
izard	-13264
ग्रहण	-13265
धानिक	-13266
▁Kant	-13267
▁Tell	-13268
▁drew	-13269
▁gall	-13270
▁hunt	-13271
▁loud	-13272
▁tabs	-13273
▁नाति	-13274
▁बानी	-13275
▁बुझ्	-13276
▁बोलि	-13277
▁रमाइ	-13278
▁लडाई	-13279
▁GnuPG	-13280
▁Party	-13281
▁faces	-13282
▁innoc	-13283
▁polyg	-13284
▁काँसा	-13285
▁काठको	-13286
▁चढाउन	-13287
▁शेकेल	-13288
imelech	-13289
▁August	-13290
▁Jehosh	-13291
▁bricks	-13292
▁cherub	-13293
▁forces	-13294
▁inputs	-13295
▁launch	-13296
▁necess	-13297
▁phrase	-13298
▁upload	-13299
▁volunt	-13300
▁अभिभाव	-13301
▁कुनामा	-13302
▁कोलम्ब	-13303
▁देशलाई	-13304
▁भक्तजन	-13305
▁यात्रु	-13306
▁श्रेणी	-13307
▁सकिन्न	-13308
▁सुन्ने	-13309
▁Narayan	-13310
▁degrees	-13311
▁knowing	-13312
▁respond	-13313
▁waiting	-13314
▁चमत्कार	-13315
▁छोरालाई	-13316
▁तालिमको	-13317
▁पाउनेछौ	-13318
▁बाँचेका	-13319
▁बाँच्ने	-13320
▁Everyone	-13321
▁designed	-13322
▁exercise	-13323
▁listened	-13324
▁prophesy	-13325
▁sequence	-13326
▁उनीहरुले	-13327
▁त्यहाँका	-13328
▁पत्रुसले	-13329
▁विकासलाई	-13330
▁selecting	-13331
▁workspace	-13332
▁worshiped	-13333
▁स्वाभाविक	-13334
▁attractive	-13335
▁transgress	-13336
▁पञ्चवर्षीय	-13337
▁व्यवस्थाले	-13338
▁Jehoshaphat	-13339
▁commodities	-13340
▁पृष्ठभूमिमा	-13341
▁व्यवस्थालाई	-13342
UE	-13343
रव	-13344
TEP	-13345
bsp	-13346
ica	-13347
tes	-13348
ंगो	-13349
निर	-13350
सेज	-13351
्खा	-13352
▁Py	-13353
▁जै	-13354
▁हल	-13355
amma	-13356
iant	-13357
yles	-13358
रिवा	-13359
र्दै	-13360
▁आशि	-13361
▁चुप	-13362
▁ढंग	-13363
▁लडे	-13364
▁वना	-13365
Print	-13366
कुमार	-13367
त्तरी	-13368
▁Amor	-13369
▁bars	-13370
▁tape	-13371
▁एण्ड	-13372
▁छाडे	-13373
▁पीठो	-13374
▁सङ्घ	-13375
▁२०४०	-13376
लाग्दा	-13377
स्क्रि	-13378
स्तरको	-13379
▁abort	-13380
▁cards	-13381
▁crown	-13382
▁draft	-13383
▁weeks	-13384
▁अनुपा	-13385
▁अभिया	-13386
▁छिमेक	-13387
▁ट्रया	-13388
▁डोमेन	-13389
▁देखिए	-13390
▁प्रदू	-13391
▁मासिक	-13392
▁यूहन्	-13393
▁व्यभि	-13394
▁सिकाई	-13395
lasting	-13396
सम्पादन	-13397
▁Listen	-13398
▁Regard	-13399
▁Sharma	-13400
▁anyway	-13401
▁devour	-13402
▁divers	-13403
▁flocks	-13404
▁foodgr	-13405
▁winter	-13406
▁अवसरमा	-13407
▁प्रसाद	-13408
▁बुझ्ने	-13409
▁मुखबाट	-13410
▁विपरित	-13411
▁हिज्जे	-13412
▁हेब्रो	-13413
mination	-13414
▁headers	-13415
▁hearing	-13416
▁म्यानमा	-13417
▁विदेशमा	-13418
▁सञ्चालक	-13419
▁सर्भरको	-13420
▁हामीसित	-13421
istration	-13422
▁supplied	-13423
▁targeted	-13424
▁username	-13425
▁उत्कृष्ट	-13426
▁लक्ष्यको	-13427
▁सक्तैनन्	-13428
▁सञ्जालमा	-13429
▁सुगन्धित	-13430
▁२०४६ङ्ग४७	-13431
▁Horizontal	-13432
▁व्यावहारिक	-13433
▁continually	-13434
▁establishing	-13435
▁े	-13436
bel	-13437
vey	-13438
टेड	-13439
पका	-13440
हरा	-13441
auda	-13442
fold	-13443
held	-13444
oked	-13445
इएका	-13446
देवी	-13447
रहरू	-13448
सर्ग	-13449
▁Ant	-13450
▁dil	-13451
▁que	-13452
▁गाड	-13453
▁दां	-13454
▁धेर	-13455
▁नाच	-13456
▁मिस	-13457
▁यकी	-13458
angle	-13459
erves	-13460
hedul	-13461
imate	-13462
irect	-13463
ङ्ग४९	-13464
चेन्ज	-13465
राहरू	-13466
ष्टिक	-13467
ाउँछु	-13468
▁Mode	-13469
▁defe	-13470
▁mine	-13471
▁seat	-13472
▁sees	-13473
▁stra	-13474
▁vacc	-13475
▁गणेश	-13476
▁पढाइ	-13477
▁बाधा	-13478
▁बेलु	-13479
▁भनाई	-13480
▁रिसा	-13481
▁समतल	-13482
atalog	-13483
▁Asher	-13484
▁depth	-13485
▁shoot	-13486
▁गरिरह	-13487
▁नदीमा	-13488
▁पर्नु	-13489
▁फोटोः	-13490
▁ब्रुस	-13491
▁मुखमा	-13492
▁विवेक	-13493
▁संगीत	-13494
▁संचार	-13495
▁सिलसि	-13496
निर्देश	-13497
▁Policy	-13498
▁Recent	-13499
▁divine	-13500
▁series	-13501
▁sweets	-13502
▁पुगेका	-13503
▁भर्खरै	-13504
▁मण्डली	-13505
▁विलम्ब	-13506
▁स्वीका	-13507
▁Capital	-13508
▁Neither	-13509
▁burning	-13510
▁classes	-13511
▁descend	-13512
▁अपवित्र	-13513
▁अवलम्बन	-13514
▁पार्नेछ	-13515
▁पृष्ठको	-13516
▁फिरऊनले	-13517
▁मार्गमा	-13518
▁सेवकहरू	-13519
omination	-13520
▁Industry	-13521
▁Likewise	-13522
▁accounts	-13523
▁proclaim	-13524
▁reliable	-13525
▁tomorrow	-13526
▁पर्यावरण	-13527
▁प्रतिवेद	-13528
▁envisaged	-13529
▁जनसङ्ख्या	-13530
▁comparison	-13531
▁disappointed	-13532
▁रद्दीटोकरीमा	-13533
85	-13534
IP	-13535
चौ	-13536
वो	-13537
two	-13538
भरी	-13539
षेक	-13540
िनी	-13541
▁37	-13542
▁गी	-13543
▁०४	-13544
▁५९	-13545
इन्छ	-13546
च्चा	-13547
पाको	-13548
प्नु	-13549
रबाट	-13550
सरले	-13551
▁ICC	-13552
▁Kar	-13553
▁Tit	-13554
▁gas	-13555
▁pow	-13556
▁wik	-13557
▁दवा	-13558
▁नमि	-13559
▁र्स	-13560
▁वाइ	-13561
▁सरह	-13562
▁सहु	-13563
iding	-13564
rians	-13565
दिएको	-13566
▁Icon	-13567
▁blog	-13568
▁folk	-13569
▁gift	-13570
▁memo	-13571
▁mist	-13572
▁purp	-13573
▁जनजा	-13574
▁नियु	-13575
▁भङ्ग	-13576
▁भाडा	-13577
▁लामा	-13578
▁लेखन	-13579
▁स्टा	-13580
etauda	-13581
vision	-13582
प्रयास	-13583
▁Elect	-13584
▁Hence	-13585
▁Point	-13586
▁annum	-13587
▁apost	-13588
▁hilly	-13589
▁sharp	-13590
▁sites	-13591
▁tents	-13592
▁कृष्ण	-13593
▁चालीस	-13594
▁दर्ुइ	-13595
▁दिइयो	-13596
▁देखाए	-13597
▁निषेध	-13598
▁भ्वाइ	-13599
▁श्याम	-13600
▁श्रोत	-13601
▁सम्बो	-13602
duction	-13603
ireless	-13604
▁applet	-13605
▁belief	-13606
▁condem	-13607
▁denied	-13608
▁locked	-13609
▁resear	-13610
▁अग्रिम	-13611
▁दक्षता	-13612
▁नगरेको	-13613
▁पदवर्ण	-13614
▁भेटघाट	-13615
▁सकिनेछ	-13616
▁Arrange	-13617
▁counter	-13618
▁touched	-13619
▁variety	-13620
▁चाँदीको	-13621
▁नीतिहरु	-13622
▁मानिसका	-13623
▁स्वदेशी	-13624
स्क्रिप्ट	-13625
▁reducing	-13626
▁गरिन्छन्	-13627
▁Transport	-13628
▁consumers	-13629
▁influence	-13630
▁pollution	-13631
▁sometimes	-13632
▁स्क्रिनसे	-13633
▁इस्राएललाई	-13634
▁cooperation	-13635
▁गर्नुपर्नेछ	-13636
▁certificates	-13637
▁पूर्वस्थितिमा	-13638
DI	-13639
uw	-13640
लक	-13641
aks	-13642
ami	-13643
ola	-13644
ङमा	-13645
▁43	-13646
▁KO	-13647
▁रस	-13648
arya	-13649
pite	-13650
ster	-13651
स्के	-13652
स्ले	-13653
▁Bad	-13654
▁nar	-13655
▁por	-13656
▁आइत	-13657
▁आका	-13658
▁जमा	-13659
▁नमु	-13660
▁नुह	-13661
▁नोड	-13662
▁बेर	-13663
▁मनि	-13664
▁लगत	-13665
▁शरण	-13666
anmar	-13667
aziah	-13668
erate	-13669
ystem	-13670
दृश्य	-13671
रीलाई	-13672
वादको	-13673
सुधार	-13674
▁2001	-13675
▁DTEP	-13676
▁Devi	-13677
▁None	-13678
▁Tele	-13679
▁budd	-13680
▁dign	-13681
▁nick	-13682
▁pair	-13683
▁trig	-13684
▁तलका	-13685
▁पासो	-13686
▁पीडी	-13687
▁भल्भ	-13688
ertain	-13689
icious	-13690
ieving	-13691
▁Elish	-13692
▁Simon	-13693
▁Using	-13694
▁talks	-13695
▁चाँडो	-13696
▁बटनले	-13697
▁रङहरू	-13698
▁सक्ति	-13699
▁समारो	-13700
▁Adjust	-13701
▁beaten	-13702
▁constr	-13703
▁couldn	-13704
▁issued	-13705
▁आकाशमा	-13706
▁कानूनी	-13707
▁ग्राहक	-13708
▁ठाँउमा	-13709
▁रोज्नु	-13710
▁संसदीय	-13711
▁सकिएनः	-13712
▁Chinese	-13713
▁Myanmar	-13714
▁Through	-13715
▁Village	-13716
▁discard	-13717
▁holding	-13718
▁उपस्थित	-13719
▁फैलिएको	-13720
▁भन्दछन्	-13721
▁सहयोगको	-13722
▁Gentiles	-13723
▁Mahendra	-13724
▁declined	-13725
▁floating	-13726
▁बाँडफाँड	-13727
▁marketing	-13728
▁producing	-13729
▁relatives	-13730
▁अपर्याप्त	-13731
▁पुर्खाहरू	-13732
▁earthquake	-13733
▁काठमाडौंमा	-13734
▁examination	-13735
▁perspective	-13736
▁achievements	-13737
▁डाइरेक्टरीमा	-13738
▁Administration	-13739
ण्	-13740
तब	-13741
TER	-13742
मेट	-13743
वती	-13744
वत्	-13745
▁02	-13746
▁39	-13747
▁83	-13748
▁फौ	-13749
▁लू	-13750
▁५५	-13751
▁६२	-13752
anda	-13753
keys	-13754
ntax	-13755
pers	-13756
गेको	-13757
▁WAR	-13758
▁चित	-13759
▁नवी	-13760
▁नोट	-13761
▁मधु	-13762
akers	-13763
ivery	-13764
sover	-13765
umble	-13766
नालाई	-13767
रहेछु	-13768
र्वेद	-13769
सक्यो	-13770
▁Chit	-13771
▁Init	-13772
▁Pref	-13773
▁diet	-13774
▁lose	-13775
▁obst	-13776
▁छाडि	-13777
▁डिसे	-13778
▁ढिलो	-13779
▁फ्रा	-13780
▁बोले	-13781
▁रङको	-13782
▁सुक्	-13783
▁स्कि	-13784
▁१९९०	-13785
ailing	-13786
cision	-13787
ifying	-13788
▁Paper	-13789
▁disob	-13790
▁अरामी	-13791
▁आगोले	-13792
▁कर्मी	-13793
▁चरणमा	-13794
▁फार्म	-13795
▁रुलाई	-13796
▁हुंदै	-13797
▁हेटौं	-13798
abulary	-13799
imately	-13800
plicate	-13801
portion	-13802
क्ष्यमा	-13803
प्रतिको	-13804
▁Philip	-13805
▁Police	-13806
▁Should	-13807
▁buffer	-13808
▁अलिकति	-13809
▁जुत्ता	-13810
▁नारायण	-13811
▁प्रेमी	-13812
▁वर्षीय	-13813
▁Missing	-13814
▁Nations	-13815
▁captive	-13816
▁handled	-13817
▁seeking	-13818
▁willing	-13819
▁अवधारणा	-13820
▁आदेशहरू	-13821
▁भन्छिन्	-13822
▁माइक्रो	-13823
▁माओवादी	-13824
▁सहुलियत	-13825
▁consolid	-13826
▁payments	-13827
▁straight	-13828
▁प्रयोगका	-13829
▁विच्छेदन	-13830
▁सक्दैनन्	-13831
▁existence	-13832
▁mechanism	-13833
▁उपाध्यक्ष	-13834
▁जिम्मेवार	-13835
▁सित्र्चाइ	-13836
▁हुनुहुनेछ	-13837
▁Organization	-13838
UL	-13839
खत	-13840
▁_	-13841
abh	-13842
ulf	-13843
उत्	-13844
ल्स	-13845
▁Id	-13846
▁Po	-13847
▁SV	-13848
▁तव	-13849
▁४६	-13850
ales	-13851
like	-13852
osis	-13853
text	-13854
viet	-13855
ङ्गल	-13856
ब्बा	-13857
वादन	-13858
श्मा	-13859
ासँग	-13860
ेरणा	-13861
ोस्ट	-13862
▁Lim	-13863
▁Und	-13864
▁एयर	-13865
▁चौध	-13866
▁टेप	-13867
▁दौड	-13868
▁पसे	-13869
izers	-13870
urved	-13871
uting	-13872
रामले	-13873
▁2003	-13874
▁Game	-13875
▁Madh	-13876
▁Magn	-13877
▁cere	-13878
▁sear	-13879
▁tick	-13880
▁अचान	-13881
▁करूब	-13882
▁कोशी	-13883
▁खालि	-13884
▁तामा	-13885
▁पाएँ	-13886
▁पेशा	-13887
▁फलाम	-13888
▁सांस	-13889
▁हिउँ	-13890
angers	-13891
astern	-13892
ealous	-13893
▁Cartr	-13894
▁Track	-13895
▁alpha	-13896
▁pride	-13897
▁recon	-13898
▁एकपटक	-13899
▁मिलेर	-13900
▁रक्सी	-13901
▁beside	-13902
▁regime	-13903
▁sheets	-13904
▁simply	-13905
▁talked	-13906
▁timber	-13907
▁अनुचित	-13908
▁इन्जिन	-13909
▁गराउँछ	-13910
▁गुनासो	-13911
▁चारवटा	-13912
▁ज्याला	-13913
▁नगर्नु	-13914
▁नसक्नु	-13915
▁पठाएका	-13916
▁प्रतीक	-13917
▁विद्रो	-13918
▁सन्तोष	-13919
▁समकक्ष	-13920
▁समाजको	-13921
standing	-13922
▁Finance	-13923
▁Manager	-13924
▁worried	-13925
▁अर्काको	-13926
▁परिपाटी	-13927
▁प्रशासक	-13928
▁विभागले	-13929
▁सीमान्त	-13930
इस्राएलका	-13931
▁covering	-13932
▁delivery	-13933
▁manually	-13934
▁purchase	-13935
▁requests	-13936
▁अर्कालाई	-13937
▁मिश्रबाट	-13938
▁discussed	-13939
▁specifies	-13940
▁प्रत्येकले	-13941
▁प्रयोगशाला	-13942
▁enterprises	-13943
▁everlasting	-13944
▁उद्देश्यहरु	-13945
▁घुमाउनुहोस्	-13946
▁बिन्यामीनका	-13947
▁कार्यक्रमहरू	-13948
खन	-13949
छी	-13950
छे	-13951
धक	-13952
cer	-13953
chi	-13954
kes	-13955
लान	-13956
वली	-13957
▁खै	-13958
▁दब	-13959
▁६३	-13960
▁९५	-13961
akim	-13962
grou	-13963
oman	-13964
orah	-13965
कुनै	-13966
जीको	-13967
जोमा	-13968
न्सि	-13969
बाली	-13970
र्यो	-13971
वर्ग	-13972
सक्छ	-13973
स्की	-13974
▁Asa	-13975
▁Far	-13976
▁Mat	-13977
▁ash	-13978
▁pip	-13979
▁असि	-13980
▁उजा	-13981
▁डाँ	-13982
▁नजा	-13983
▁बन्	-13984
▁मल्	-13985
▁संझ	-13986
▁६००	-13987
तान्त	-13988
▁Info	-13989
▁Priv	-13990
▁furn	-13991
▁park	-13992
▁sack	-13993
▁आहाज	-13994
▁इच्छ	-13995
▁ख्या	-13996
▁टिकट	-13997
▁धातु	-13998
▁धोका	-13999
▁फ्लो	-14000
▁बसाइ	-14001
gments	-14002
उनेछन्	-14003
तिम्रो	-14004
▁Leban	-14005
▁Royal	-14006
▁Stock	-14007
▁Trash	-14008
▁ideas	-14009
▁keeps	-14010
▁split	-14011
▁कब्जा	-14012
▁कैयौं	-14013
▁घरहरू	-14014
▁दयालु	-14015
▁दशमलव	-14016
▁दिनका	-14017
▁पर्खि	-14018
▁सम्मा	-14019
न्द्रिय	-14020
▁agency	-14021
▁conven	-14022
▁decade	-14023
▁deceit	-14024
▁figure	-14025
▁wouldn	-14026
▁अहज्या	-14027
▁गराएको	-14028
▁नीतिगत	-14029
▁बताएका	-14030
▁रहेकेा	-14031
▁रहेछन्	-14032
▁रोजगार	-14033
▁व्यर्थ	-14034
▁समष्टि	-14035
▁Twitter	-14036
▁compass	-14037
▁concent	-14038
▁kilomet	-14039
▁perhaps	-14040
▁रहन्छन्	-14041
▁advanced	-14042
▁afforest	-14043
▁canceled	-14044
▁channels	-14045
▁features	-14046
▁obtained	-14047
▁vineyard	-14048
▁withdraw	-14049
▁स्वीकृति	-14050
▁हुँदैनन्	-14051
ifications	-14052
▁challenge	-14053
▁ourselves	-14054
▁पिक्सेलमा	-14055
▁प्रतीक्षा	-14056
▁संक्षिप्त	-14057
▁सर्वप्रथम	-14058
▁स्थितिलाई	-14059
▁Programmes	-14060
▁cumulative	-14061
▁executable	-14062
▁messengers	-14063
▁photograph	-14064
▁अब्राहामले	-14065
▁बढाउनुहोस्	-14066
▁authorities	-14067
▁encouraging	-14068
▁sustainable	-14069
ev	-14070
फु	-14071
िल	-14072
IFF	-14073
gen	-14074
ili	-14075
mun	-14076
oga	-14077
▁42	-14078
▁Ay	-14079
▁Ve	-14080
▁lu	-14081
▁कथ	-14082
▁५२	-14083
▁“‘	-14084
anga	-14085
cles	-14086
hern	-14087
king	-14088
कम्प	-14089
ख्यक	-14090
▁255	-14091
▁Had	-14092
▁Rad	-14093
▁Syn	-14094
▁Web	-14095
▁ced	-14096
▁mov	-14097
▁गएँ	-14098
▁तिन	-14099
▁मनु	-14100
▁सहन	-14101
▁सुह	-14102
ighty	-14103
order	-14104
काहरू	-14105
चार्य	-14106
विकास	-14107
समक्ष	-14108
▁Braz	-14109
▁अप्ठ	-14110
▁ढङ्ग	-14111
▁ध्रु	-14112
▁नम्र	-14113
▁पदया	-14114
▁भेटे	-14115
▁मलखा	-14116
▁हड्ड	-14117
umbini	-14118
▁Total	-14119
▁array	-14120
▁guide	-14121
▁reset	-14122
▁smoke	-14123
▁अग्ला	-14124
▁अर्कै	-14125
▁तहहरू	-14126
▁युरोप	-14127
▁रहस्य	-14128
▁विधान	-14129
▁विलाप	-14130
▁सैन्य	-14131
कर्त्ता	-14132
▁mutual	-14133
▁safety	-14134
▁states	-14135
▁upward	-14136
▁अभिमुख	-14137
▁अभिषेक	-14138
▁अमस्या	-14139
▁आलोचना	-14140
▁चलाउनु	-14141
▁जान्ने	-14142
▁ढुवानी	-14143
▁त्यहां	-14144
▁दिनलाई	-14145
▁परिचाल	-14146
▁पहाडमा	-14147
▁पार्यो	-14148
▁बाक्लो	-14149
▁भारतले	-14150
▁यसैगरी	-14151
▁हात्ती	-14152
▁हिमाली	-14153
ilateral	-14154
▁Contact	-14155
▁Despite	-14156
▁Perhaps	-14157
▁adverse	-14158
▁scripts	-14159
▁talking	-14160
▁अनुकूलन	-14161
▁जापानको	-14162
▁देखाएको	-14163
▁पदवर्णन	-14164
▁पारिएमा	-14165
▁बेंसीमा	-14166
▁मिश्रका	-14167
▁रहनेछन्	-14168
▁विभाजित	-14169
▁हारूनले	-14170
ufficient	-14171
▁Kantipur	-14172
▁activate	-14173
▁becoming	-14174
▁blessing	-14175
▁compound	-14176
▁handmaid	-14177
▁patterns	-14178
▁troubled	-14179
▁परिमाणमा	-14180
▁परिवारमा	-14181
▁बिन्दुको	-14182
▁स्त्रीको	-14183
▁sensitive	-14184
▁कन्क्वेरर	-14185
▁छोराहरूले	-14186
▁प्रतिशतमा	-14187
▁प्रस्तुति	-14188
▁households	-14189
▁परिवर्तनको	-14190
▁हिजकियाहले	-14191
▁maintaining	-14192
▁बताउनुहुन्छ	-14193
खर	-14194
रफ	-14195
रम	-14196
ika	-14197
ota	-14198
rim	-14199
ula	-14200
yan	-14201
हेल	-14202
▁AN	-14203
▁SH	-14204
Sync	-14205
ijah	-14206
क्सन	-14207
ब्दी	-14208
भूति	-14209
वान्	-14210
सेवा	-14211
▁Ann	-14212
▁Feb	-14213
▁जता	-14214
▁जाल	-14215
▁दुल	-14216
▁मौन	-14217
▁लाज	-14218
▁शिव	-14219
▁शेष	-14220
▁सदै	-14221
▁सोम	-14222
ander	-14223
ushed	-14224
क्ष्म	-14225
तिरको	-14226
ित्ता	-14227
्दछन्	-14228
▁Farm	-14229
▁Karn	-14230
▁Levi	-14231
▁band	-14232
▁lady	-14233
▁sync	-14234
▁खनिज	-14235
▁निजा	-14236
▁पाठा	-14237
▁भाग्	-14238
▁स्टो	-14239
▁स्ने	-14240
▁२०००	-14241
ellect	-14242
elling	-14243
ulated	-14244
निर्भर	-14245
▁Bring	-14246
▁James	-14247
▁Shank	-14248
▁helps	-14249
▁ignor	-14250
▁recur	-14251
▁schol	-14252
▁topic	-14253
▁truck	-14254
▁yours	-14255
▁अचानक	-14256
▁ओछ्या	-14257
▁जाँदै	-14258
▁दरबार	-14259
▁पोशाक	-14260
▁भन्यौ	-14261
▁लिन्छ	-14262
स्थापित	-14263
▁Brazil	-14264
▁Ganesh	-14265
▁Hebron	-14266
▁Retrie	-14267
▁begins	-14268
▁desert	-14269
▁fierce	-14270
▁hungry	-14271
▁खोल्दा	-14272
▁न्याया	-14273
▁लुकेका	-14274
▁January	-14275
▁pleased	-14276
▁pressed	-14277
▁surveys	-14278
▁अनुक्रम	-14279
▁काँसाको	-14280
▁कारागार	-14281
▁नभएसम्म	-14282
▁पावललाई	-14283
▁विधिहरू	-14284
▁शक्तिले	-14285
▁Location	-14286
▁Passover	-14287
▁millions	-14288
▁कागजातमा	-14289
▁प्रावधान	-14290
▁continues	-14291
▁dependent	-14292
▁resulting	-14293
▁substance	-14294
▁सिलसिलामा	-14295
▁२०४८ङ्ग४९	-14296
▁definition	-14297
▁उत्पादनशील	-14298
▁recommended	-14299
▁कम्प्युटरमा	-14300
▁तिमीहरूकहाँ	-14301
▁कार्यान्वयनको	-14302
OV	-14303
aji	-14304
iph	-14305
onf	-14306
the	-14307
डेल	-14308
बेन	-14309
ौला	-14310
▁34	-14311
▁MD	-14312
▁ju	-14313
agog	-14314
क्की	-14315
जीले	-14316
दाका	-14317
▁Ang	-14318
▁Bre	-14319
▁Eng	-14320
▁Kos	-14321
▁cho	-14322
▁जात	-14323
▁तास	-14324
▁भात	-14325
▁मिल	-14326
▁सत्	-14327
पुस्त	-14328
श्वेत	-14329
▁1981	-14330
▁Hist	-14331
▁aren	-14332
▁dock	-14333
▁node	-14334
▁shed	-14335
▁vers	-14336
▁अनाव	-14337
▁अफिस	-14338
▁आँधी	-14339
▁नदेऊ	-14340
▁नसके	-14341
▁निकट	-14342
▁मबाट	-14343
▁लगेर	-14344
▁सेवन	-14345
बद्धता	-14346
▁Count	-14347
▁loves	-14348
▁paddy	-14349
▁solve	-14350
▁widow	-14351
▁आवधिक	-14352
▁गोरखा	-14353
▁प्राप	-14354
▁मेशिन	-14355
▁हिंडे	-14356
मुलेटिभ	-14357
▁Africa	-14358
▁Soviet	-14359
▁damage	-14360
▁interf	-14361
▁judges	-14362
▁अनिकाल	-14363
▁आफैंले	-14364
▁गाउँमा	-14365
▁घटाउने	-14366
▁टेलिभि	-14367
▁दिइन्छ	-14368
▁दिएनन्	-14369
▁लगाएका	-14370
▁शब्दमा	-14371
▁Lebanon	-14372
▁Teacher	-14373
▁exalted	-14374
▁opinion	-14375
▁parsing	-14376
▁किलोवाट	-14377
▁तरवारले	-14378
▁प्रभुको	-14379
▁राखिनेछ	-14380
▁सङ्केतक	-14381
▁हामीसँग	-14382
▁chairman	-14383
▁comments	-14384
▁distress	-14385
▁expenses	-14386
▁includes	-14387
▁inserted	-14388
▁opposite	-14389
▁reaching	-14390
▁reproach	-14391
▁spending	-14392
▁synchron	-14393
▁अनुपातमा	-14394
▁एचटीएमएल	-14395
▁द्वन्द्व	-14396
▁निम्त्या	-14397
▁संस्थाले	-14398
▁Tribhuvan	-14399
▁expanding	-14400
▁intellect	-14401
▁listening	-14402
▁nutrition	-14403
▁regularly	-14404
▁प्रतिबन्ध	-14405
▁वातावरणको	-14406
▁स्त्रीलाई	-14407
▁हुनुहुन्न	-14408
▁conference	-14409
▁अगुवाहरूले	-14410
▁केन्द्रहरु	-14411
▁temperature	-14412
▁यहूदीहरूलाई	-14413
▁abominations	-14414
▁प्रयोगकर्ताका	-14415
25	-14416
UR	-14417
sl	-14418
फ्	-14419
AND	-14420
asp	-14421
inn	-14422
lin	-14423
ग्ग	-14424
म्स	-14425
रेस	-14426
▁CM	-14427
▁HM	-14428
ifts	-14429
mary	-14430
pent	-14431
pris	-14432
दरमा	-14433
मान्	-14434
ेश्व	-14435
▁Reh	-14436
▁Uzz	-14437
▁mix	-14438
▁tea	-14439
▁yen	-14440
▁दरि	-14441
▁नजी	-14442
▁पुत	-14443
▁रुख	-14444
▁शके	-14445
▁शता	-14446
▁१९३	-14447
erved	-14448
iters	-14449
thern	-14450
under	-14451
usted	-14452
विराम	-14453
▁1980	-14454
▁2002	-14455
▁Arch	-14456
▁Inte	-14457
▁Pand	-14458
▁Shec	-14459
▁Shri	-14460
▁bask	-14461
▁bath	-14462
▁ille	-14463
▁rams	-14464
▁scan	-14465
▁sole	-14466
▁unne	-14467
▁गन्ध	-14468
▁गरिन	-14469
▁जाडो	-14470
▁टोली	-14471
▁तिनै	-14472
▁पुरै	-14473
▁रहेर	-14474
▁लगाऊ	-14475
▁विधे	-14476
▁शैता	-14477
▁सोझै	-14478
▁हेरी	-14479
atible	-14480
avened	-14481
verest	-14482
दोस्रो	-14483
हामीले	-14484
▁Bhatt	-14485
▁Jhapa	-14486
▁Sorry	-14487
▁numer	-14488
▁ईश्वर	-14489
▁उहाले	-14490
▁गरेनौ	-14491
▁बनेका	-14492
▁भरपर्	-14493
▁भाग्य	-14494
▁मर्नु	-14495
▁संघको	-14496
विश्वास	-14497
ित्तिकै	-14498
▁Attach	-14499
▁define	-14500
▁finger	-14501
▁inform	-14502
▁manual	-14503
▁multip	-14504
▁nearly	-14505
▁styles	-14506
▁thirst	-14507
▁कानुनी	-14508
▁कृषिमा	-14509
▁जनकपुर	-14510
▁बढाउनु	-14511
▁श्रमिक	-14512
▁स्ट्रो	-14513
▁स्प्रे	-14514
▁equally	-14515
▁facilit	-14516
▁observe	-14517
▁गराइएको	-14518
▁चुनिएका	-14519
▁नेपालले	-14520
▁पर्थ्यो	-14521
▁स्वीकृत	-14522
▁हारूनका	-14523
▁Janakpur	-14524
▁accident	-14525
▁hundreds	-14526
▁learning	-14527
▁whenever	-14528
▁अनावश्यक	-14529
▁सन्तुलित	-14530
▁Copyright	-14531
▁reference	-14532
▁stability	-14533
▁ख्रीष्टले	-14534
▁फोटोग्राफ	-14535
▁रोजगारीको	-14536
▁समस्याहरू	-14537
▁Collection	-14538
▁principles	-14539
▁मानिसहरुको	-14540
▁differences	-14541
▁कार्यक्षेत्र	-14542
▁कार्यसम्पादन	-14543
LS	-14544
ih	-14545
▁q	-14546
ग्न	-14547
बिक	-14548
वाँ	-14549
▁Ep	-14550
▁II	-14551
▁ec	-14552
▁सश	-14553
▁१ः	-14554
▁५४	-14555
atha	-14556
mble	-14557
डराऊ	-14558
त्रो	-14559
पनको	-14560
साइट	-14561
▁Jez	-14562
▁flu	-14563
▁hop	-14564
▁आलु	-14565
▁ओगट	-14566
▁खाइ	-14567
▁दिव	-14568
▁बीऊ	-14569
▁बोध	-14570
▁महल	-14571
▁मार	-14572
▁वीउ	-14573
▁१९६	-14574
arant	-14575
astic	-14576
ogram	-14577
त्रित	-14578
सक्नु	-14579
हत्या	-14580
▁Drag	-14581
▁Stop	-14582
▁mand	-14583
▁rect	-14584
▁spot	-14585
▁unus	-14586
▁असुर	-14587
▁औषधी	-14588
▁तनाव	-14589
▁दावी	-14590
▁धरान	-14591
▁धारण	-14592
▁पापी	-14593
▁मन्द	-14594
▁मिलि	-14595
▁लेखे	-14596
▁सर्प	-14597
▁सूचि	-14598
याहलाई	-14599
▁Three	-14600
▁absol	-14601
▁adopt	-14602
▁cheap	-14603
▁clock	-14604
▁games	-14605
▁newly	-14606
▁risen	-14607
▁tower	-14608
▁अगाडी	-14609
▁क्ष्ँ	-14610
▁पक्का	-14611
▁प्रजन	-14612
▁मुकुट	-14613
▁Action	-14614
▁Browse	-14615
▁Survey	-14616
▁agreed	-14617
▁arrows	-14618
▁asking	-14619
▁linked	-14620
▁minute	-14621
▁possib	-14622
▁आइतबार	-14623
▁उठाउनु	-14624
▁पंक्ति	-14625
▁सेनाका	-14626
▁Changes	-14627
▁Eleazar	-14628
▁Hetauda	-14629
▁Lumbini	-14630
▁demands	-14631
▁despite	-14632
▁experim	-14633
▁goddess	-14634
▁hectare	-14635
▁transit	-14636
▁चेताउनी	-14637
▁ताररहित	-14638
▁दिनेछन्	-14639
▁प्रतिसे	-14640
▁फाइललाई	-14641
▁बराबरको	-14642
▁मिल्दैन	-14643
▁वर्षअघि	-14644
▁विभागको	-14645
▁समितिले	-14646
▁स्वार्थ	-14647
▁innocent	-14648
▁mourning	-14649
▁गरिसकेको	-14650
▁नदेखाउने	-14651
▁improving	-14652
▁justified	-14653
▁एक्सचेन्ज	-14654
▁प्रतिशतको	-14655
▁संस्थानको	-14656
▁संस्थाहरु	-14657
▁affliction	-14658
▁convention	-14659
▁corruption	-14660
▁proportion	-14661
▁लेख्नुहोस्	-14662
▁preliminary	-14663
▁mobilisation	-14664
CH	-14665
गन	-14666
omy	-14667
खेर	-14668
भेद	-14669
ल्थ	-14670
शमा	-14671
सिं	-14672
िफो	-14673
्वि	-14674
▁59	-14675
▁Fe	-14676
▁खू	-14677
abet	-14678
ball	-14679
lets	-14680
ohan	-14681
role	-14682
sing	-14683
जनमा	-14684
दैनौ	-14685
रियो	-14686
▁148	-14687
▁Isn	-14688
▁Met	-14689
▁arc	-14690
▁eth	-14691
▁कप्	-14692
▁खुव	-14693
▁द्ध	-14694
▁पिछ	-14695
▁बृह	-14696
orial	-14697
pired	-14698
retch	-14699
ronic	-14700
न्याह	-14701
ारीको	-14702
ेश्रो	-14703
▁Diff	-14704
▁Lock	-14705
▁beds	-14706
▁pace	-14707
▁prey	-14708
▁rare	-14709
▁इन्च	-14710
▁नहुन	-14711
▁बाहु	-14712
▁भावी	-14713
▁भाषण	-14714
▁र्सा	-14715
▁शेयर	-14716
▁सदैव	-14717
▁सोचे	-14718
▁स्मा	-14719
▁ह्यु	-14720
▁२०३८	-14721
onents	-14722
ग्रस्त	-14723
▁Force	-14724
▁Selah	-14725
▁engra	-14726
▁route	-14727
▁taxes	-14728
▁tiles	-14729
▁उत्ते	-14730
▁एमोरी	-14731
▁काटेर	-14732
▁दर्जन	-14733
▁पुग्छ	-14734
▁सक्यो	-14735
essions	-14736
▁Rotate	-14737
▁grants	-14738
▁marked	-14739
▁negoti	-14740
▁prefer	-14741
▁reader	-14742
▁कक्षमा	-14743
▁तीनजना	-14744
▁दाज्यु	-14745
▁नजिकको	-14746
▁निवारण	-14747
▁प्रापक	-14748
▁बाबुको	-14749
▁बिग्रि	-14750
▁माटोको	-14751
▁मिल्दछ	-14752
▁ल्याएर	-14753
▁साइजमा	-14754
ications	-14755
▁Loading	-14756
▁invited	-14757
▁thereby	-14758
▁जग्गामा	-14759
▁ज्ञानको	-14760
▁ल्याटिन	-14761
▁सम्मेलन	-14762
▁sleeping	-14763
▁तुरुन्तै	-14764
▁नियुक्ति	-14765
▁परिक्रमण	-14766
▁परिवारले	-14767
▁याकूबलाई	-14768
▁Chaldeans	-14769
▁Meanwhile	-14770
▁addresses	-14771
▁forgotten	-14772
▁promoting	-14773
▁कारोबारमा	-14774
▁ढुङ्गाहरू	-14775
▁निर्वाचित	-14776
▁संवाददाता	-14777
▁Foundation	-14778
▁recognized	-14779
▁तिनीहरूबाट	-14780
▁competitive	-14781
▁residential	-14782
▁कार्यान्वित	-14783
▁प्रतिव्यक्ति	-14784
▁मानिसहरूमाथि	-14785
▁strengthening	-14786
,0	-14787
dd	-14788
आत	-14789
थर	-14790
cha	-14791
eps	-14792
hot	-14793
rav	-14794
ँ्र	-14795
कता	-14796
घार	-14797
नगर	-14798
सिङ	-14799
▁61	-14800
▁MP	-14801
▁फू	-14802
▁५८	-14803
adab	-14804
fall	-14805
ules	-14806
टीपी	-14807
न्जा	-14808
याका	-14809
▁Ban	-14810
▁Big	-14811
▁SVG	-14812
▁bag	-14813
▁mir	-14814
▁द्र	-14815
▁नगद	-14816
▁फलक	-14817
▁वहु	-14818
▁वाट	-14819
▁हेड	-14820
grind	-14821
icide	-14822
icing	-14823
place	-14824
ज्ञान	-14825
न्डिङ	-14826
बीचको	-14827
स्टिक	-14828
▁TRUE	-14829
▁boat	-14830
▁clos	-14831
▁mere	-14832
▁nort	-14833
▁pipe	-14834
▁उब्ज	-14835
▁कलेज	-14836
▁चर्च	-14837
▁जेठा	-14838
▁तहका	-14839
▁नभएर	-14840
▁पुगि	-14841
▁वक्र	-14842
▁हुदै	-14843
atform	-14844
inding	-14845
plicit	-14846
roleum	-14847
णात्मक	-14848
रहेछन्	-14849
▁Audio	-14850
▁older	-14851
▁अपलोड	-14852
▁अलावा	-14853
▁उम्मे	-14854
▁खन्या	-14855
▁खारेज	-14856
▁गरिएन	-14857
▁गरिबी	-14858
▁गोदाम	-14859
▁चाहने	-14860
▁चाहिँ	-14861
▁जसबाट	-14862
▁नैतिक	-14863
▁पिसाब	-14864
▁बन्दी	-14865
▁मसिनो	-14866
▁मानले	-14867
▁रजस्व	-14868
▁लगायत	-14869
▁सर्वा	-14870
▁सिंहा	-14871
▁सुनें	-14872
ensions	-14873
▁Forest	-14874
▁Reload	-14875
▁easier	-14876
▁excell	-14877
▁latest	-14878
▁latter	-14879
▁अन्तरि	-14880
▁छात्रा	-14881
▁निकाल्	-14882
▁पाँचौं	-14883
▁प्रदाय	-14884
▁यहाँको	-14885
▁साम्बा	-14886
▁सूचीको	-14887
▁dignity	-14888
▁flowers	-14889
▁locally	-14890
▁singing	-14891
▁खोलिएको	-14892
▁बिभिन्न	-14893
▁magazine	-14894
▁powerful	-14895
▁soldiers	-14896
▁weakness	-14897
▁प्रतिदिन	-14898
▁लोकप्रिय	-14899
▁described	-14900
▁reduction	-14901
▁stretched	-14902
▁तिनीहरूमा	-14903
▁तुल्याउनु	-14904
▁मूल्याङ्न	-14905
▁सल्लाहकार	-14906
▁invitation	-14907
▁कार्यालयमा	-14908
▁स्क्रिनसेभर	-14909
▁registration	-14910
ED	-14911
EN	-14912
ja	-14913
मह	-14914
लू	-14915
aly	-14916
ato	-14917
ham	-14918
कृय	-14919
टान	-14920
धीश	-14921
▁Gh	-14922
▁ठी	-14923
flow	-14924
wing	-14925
टीमा	-14926
ण्डो	-14927
भ्या	-14928
▁HMG	-14929
▁Pad	-14930
▁Pil	-14931
▁Sir	-14932
▁vag	-14933
▁अहि	-14934
▁नपढ	-14935
▁भजन	-14936
▁महस	-14937
▁यरी	-14938
ector	-14939
scape	-14940
कालको	-14941
क्सको	-14942
ताबाट	-14943
पछाडि	-14944
सामान	-14945
▁Amen	-14946
▁Long	-14947
▁Talk	-14948
▁rene	-14949
▁vice	-14950
▁कपाल	-14951
▁घटाउ	-14952
▁टुहु	-14953
▁पावर	-14954
▁रित्	-14955
▁विदा	-14956
▁स्वि	-14957
▁२०१६	-14958
▁२०३१	-14959
माथिको	-14960
▁Offic	-14961
▁Syria	-14962
▁assum	-14963
▁horns	-14964
▁solar	-14965
▁spite	-14966
▁swall	-14967
▁असमान	-14968
▁असहाय	-14969
▁चाहना	-14970
▁छात्र	-14971
▁जरिवा	-14972
▁नेभिग	-14973
▁पाठमा	-14974
▁वाञ्छ	-14975
▁वाह्य	-14976
▁शिमोन	-14977
▁शिरमा	-14978
viation	-14979
▁Democr	-14980
▁crying	-14981
▁marvel	-14982
▁obtain	-14983
▁passes	-14984
▁persec	-14985
▁rebell	-14986
▁sprink	-14987
▁stands	-14988
▁tender	-14989
▁अनेकौं	-14990
▁उपासना	-14991
▁गोठाला	-14992
▁बनिएको	-14993
▁बाबुले	-14994
▁योआबले	-14995
▁संशोधन	-14996
▁सावधान	-14997
▁Ayurved	-14998
▁Without	-14999
▁belongs	-15000
▁clothed	-15001
▁keyring	-15002
▁promise	-15003
▁एनिमेसन	-15004
▁चिकित्स	-15005
▁तापक्रम	-15006
▁नामाकरण	-15007
▁पठाइएको	-15008
▁मिश्रको	-15009
▁याकूबको	-15010
▁सम्बद्ध	-15011
राष्ट्रिय	-15012
▁Bookmark	-15013
▁assigned	-15014
▁entrance	-15015
▁literacy	-15016
▁philosop	-15017
▁preserve	-15018
▁suddenly	-15019
▁symptoms	-15020
▁मनश्शेका	-15021
▁converted	-15022
▁receiving	-15023
▁बिन्यामीन	-15024
▁रोजगारीका	-15025
▁वातावरणमा	-15026
▁emphasized	-15027
▁आत्मनिर्भर	-15028
▁कांग्रेसको	-15029
▁composition	-15030
▁connections	-15031
▁directories	-15032
▁infrastruct	-15033
▁अनुप्रयोगको	-15034
▁ल्याउनुहोस्	-15035
AM	-15036
▁©	-15037
.50	-15038
SQL	-15039
uzz	-15040
ण्य	-15041
बको	-15042
रगा	-15043
वेस	-15044
शिल	-15045
ारण	-15046
▁Ra	-15047
▁Si	-15048
▁ओब	-15049
▁७२	-15050
arat	-15051
onia	-15052
ords	-15053
काका	-15054
ण्डल	-15055
दवार	-15056
बेका	-15057
सीमा	-15058
सेको	-15059
िकृत	-15060
▁Haz	-15061
▁NFS	-15062
▁Unt	-15063
▁XSL	-15064
▁app	-15065
▁hat	-15066
▁lod	-15067
▁अंक	-15068
▁आधि	-15069
▁फाल	-15070
▁बजा	-15071
allet	-15072
cised	-15073
नेछौं	-15074
▁1974	-15075
▁City	-15076
▁Mary	-15077
▁Prim	-15078
▁West	-15079
▁Zoom	-15080
▁plug	-15081
▁rejo	-15082
▁rent	-15083
▁undo	-15084
▁खोला	-15085
▁बेग्	-15086
▁माग्	-15087
▁२००७	-15088
porter	-15089
▁Arise	-15090
▁Thank	-15091
▁desir	-15092
▁dilig	-15093
▁dried	-15094
▁habit	-15095
▁leads	-15096
▁macro	-15097
▁newsp	-15098
▁simpl	-15099
▁solid	-15100
▁stead	-15101
▁कनानी	-15102
▁थाल्छ	-15103
▁दाखको	-15104
▁पाइलट	-15105
▁लागेर	-15106
▁वैशाख	-15107
▁सांसद	-15108
▁Assemb	-15109
▁cancer	-15110
▁proved	-15111
▁salary	-15112
▁timely	-15113
▁viewer	-15114
▁उन्नति	-15115
▁एप्रैम	-15116
▁कप्तान	-15117
▁ग्रन्थ	-15118
▁जोनाथन	-15119
▁फर्किए	-15120
▁भाषाको	-15121
▁भैरहवा	-15122
▁रेखाको	-15123
▁विन्दु	-15124
▁सम्मको	-15125
▁स्तनको	-15126
व्यवस्था	-15127
▁Galilee	-15128
▁Welcome	-15129
▁accused	-15130
▁analyst	-15131
▁catalog	-15132
▁courage	-15133
▁futures	-15134
▁jealous	-15135
▁license	-15136
▁refused	-15137
▁segment	-15138
▁species	-15139
▁stories	-15140
▁जापानमा	-15141
▁नगरिएका	-15142
▁याकूबका	-15143
▁वस्तुका	-15144
▁सक्तैनौ	-15145
▁समझदारी	-15146
▁सहयोगमा	-15147
क्षेत्रको	-15148
▁European	-15149
▁KDEPrint	-15150
▁Software	-15151
▁arranged	-15152
▁believes	-15153
▁dwelling	-15154
▁educated	-15155
▁electric	-15156
▁entering	-15157
▁heritage	-15158
▁removing	-15159
▁अविश्वास	-15160
▁गर्नुहोस	-15161
▁गुणात्मक	-15162
▁निर्माता	-15163
▁प्रवाहित	-15164
▁happiness	-15165
▁कुराहरूमा	-15166
▁क्षेत्रले	-15167
▁सञ्चालनको	-15168
▁स्तम्भहरू	-15169
▁commitment	-15170
▁committees	-15171
▁स्वतन्त्रता	-15172
▁increasingly	-15173
▁पुर्खाहरूलाई	-15174
▁afforestation	-15175
ION	-15176
peg	-15177
pes	-15178
ज्र	-15179
▁Gt	-15180
▁Wa	-15181
▁तट	-15182
▁हक	-15183
▁६६	-15184
bars	-15185
four	-15186
टरको	-15187
टीको	-15188
त्सव	-15189
रलाई	-15190
▁Div	-15191
▁PDA	-15192
▁ven	-15193
▁अहँ	-15194
▁आवि	-15195
▁चरि	-15196
▁नखा	-15197
▁बेन	-15198
▁मेड	-15199
▁रीस	-15200
▁र्व	-15201
▁शीत	-15202
▁संक	-15203
alaam	-15204
ested	-15205
उनेछु	-15206
ख्यात	-15207
ञ्चित	-15208
न्जेल	-15209
याहको	-15210
▁2007	-15211
▁Bash	-15212
▁Food	-15213
▁Head	-15214
▁Russ	-15215
▁merc	-15216
▁rebu	-15217
▁rope	-15218
▁snap	-15219
▁unem	-15220
▁wool	-15221
▁आयमा	-15222
▁काले	-15223
▁गिरा	-15224
▁गुरू	-15225
▁चित्	-15226
▁जमिन	-15227
▁तुरू	-15228
▁बेरो	-15229
▁मुस्	-15230
▁यकीन	-15231
▁२०१५	-15232
rovers	-15233
scribe	-15234
कुञ्जी	-15235
▁Buddh	-15236
▁Event	-15237
▁abuse	-15238
▁aston	-15239
▁cease	-15240
▁doubt	-15241
▁farms	-15242
▁gconf	-15243
▁motiv	-15244
▁overl	-15245
▁shift	-15246
▁turns	-15247
▁अनुमो	-15248
▁इसहाक	-15249
▁छाडेर	-15250
▁जोडाइ	-15251
▁पशुको	-15252
▁पाइला	-15253
▁बन्यो	-15254
▁भद्रा	-15255
▁यसपछि	-15256
▁लाबान	-15257
▁सोच्छ	-15258
edience	-15259
पश्चात्	-15260
▁Prepar	-15261
▁Street	-15262
▁judged	-15263
▁spices	-15264
▁summer	-15265
▁tables	-15266
▁widely	-15267
▁आमालाई	-15268
▁गरिदिए	-15269
▁गाउँले	-15270
▁गोष्ठी	-15271
▁चढाएको	-15272
▁दिनपछि	-15273
▁ब्राजि	-15274
▁लाइनको	-15275
▁लैजानु	-15276
ountered	-15277
▁Attempt	-15278
▁Details	-15279
▁Everest	-15280
▁HotSync	-15281
▁butterf	-15282
▁federal	-15283
▁skilled	-15284
▁synagog	-15285
▁अम्मोनी	-15286
▁गर्नुका	-15287
▁निर्वाच	-15288
▁रिपोर्ट	-15289
▁Projects	-15290
▁decrease	-15291
▁familiar	-15292
▁periodic	-15293
▁purposes	-15294
▁repeated	-15295
▁अधिकारको	-15296
▁किनारामा	-15297
▁देखिँदैन	-15298
▁पत्नीहरू	-15299
▁यसप्रकार	-15300
▁Communist	-15301
▁Directory	-15302
▁translate	-15303
▁उनीहरुलाई	-15304
▁प्रक्षेपण	-15305
▁ल्याउनेछु	-15306
▁compassion	-15307
▁connecting	-15308
▁recipients	-15309
▁खानेपानीको	-15310
▁पुनरावलोकन	-15311
▁विद्यालयको	-15312
▁सोध्नुहोस्	-15313
▁abomination	-15314
▁exceedingly	-15315
▁highlighted	-15316
▁अनुप्रयोगले	-15317
▁परमेश्वरसित	-15318
▁professional	-15319
▁documentation	-15320
gg	-15321
च्	-15322
पृ	-15323
वश	-15324
ोन	-15325
bre	-15326
hus	-15327
pan	-15328
खान	-15329
ट्स	-15330
नेस	-15331
पास	-15332
र्ख	-15333
वीय	-15334
स्र	-15335
▁CH	-15336
▁Mc	-15337
▁इट	-15338
▁६१	-15339
pass	-15340
yani	-15341
काएर	-15342
माका	-15343
मीको	-15344
लिंग	-15345
सामा	-15346
▁Top	-15347
▁gpg	-15348
▁mic	-15349
▁गेट	-15350
▁जोर	-15351
▁फाँ	-15352
▁बाद	-15353
▁मित	-15354
▁वचत	-15355
aired	-15356
antly	-15357
कार्ड	-15358
▁Full	-15359
▁Fund	-15360
▁clay	-15361
▁spir	-15362
▁tray	-15363
▁उम्र	-15364
▁केबल	-15365
▁जेने	-15366
▁टाइम	-15367
▁ट्रक	-15368
▁डराए	-15369
▁बङ्ग	-15370
▁बाछा	-15371
▁बाबा	-15372
▁मर्न	-15373
▁राजी	-15374
▁स्वर	-15375
▁हिँड	-15376
मात्मा	-15377
स्तिष्	-15378
▁Class	-15379
▁avail	-15380
▁bulls	-15381
▁depri	-15382
▁falls	-15383
▁herbs	-15384
▁laugh	-15385
▁needy	-15386
▁quite	-15387
▁remed	-15388
▁tells	-15389
▁कटौती	-15390
▁ग्राम	-15391
▁जहिले	-15392
▁तन्तु	-15393
▁देशले	-15394
▁बनाएँ	-15395
▁भवनको	-15396
▁मोर्द	-15397
▁व्यहो	-15398
▁Bethel	-15399
▁Midian	-15400
▁Praise	-15401
▁Reform	-15402
▁crimin	-15403
▁lament	-15404
▁palace	-15405
▁socket	-15406
▁कुराले	-15407
▁कुलबाट	-15408
▁चाहेका	-15409
▁चिल्लो	-15410
▁छोराको	-15411
▁जमीनको	-15412
▁पब्लिक	-15413
▁फर्काई	-15414
▁रेखदेख	-15415
▁विक्री	-15416
▁सुख्खा	-15417
▁स्न्या	-15418
ellation	-15419
▁Bhairah	-15420
▁Eastern	-15421
▁console	-15422
▁discour	-15423
▁experts	-15424
▁learned	-15425
▁matches	-15426
▁matters	-15427
▁pointer	-15428
▁schedul	-15429
▁smaller	-15430
▁trumpet	-15431
▁website	-15432
▁आत्माको	-15433
▁इन्टरने	-15434
▁एकत्रित	-15435
▁प्रदूषण	-15436
▁प्रसङ्ग	-15437
▁मैदानमा	-15438
▁लगानीमा	-15439
▁लाभदायक	-15440
▁विश्वमा	-15441
▁वीरगञ्ज	-15442
▁हेटौंडा	-15443
▁Assembly	-15444
▁actually	-15445
▁invested	-15446
▁reminder	-15447
▁suffered	-15448
▁आयुर्वेद	-15449
▁इतिहासको	-15450
▁पार्टीका	-15451
▁मन्दिरका	-15452
▁मुख्यतया	-15453
▁व्यभिचार	-15454
▁Currently	-15455
▁activated	-15456
▁creatures	-15457
▁indicates	-15458
▁practices	-15459
▁आत्महत्या	-15460
▁तुल्याउने	-15461
▁पुनप्रयास	-15462
▁सिंहासनमा	-15463
▁अधिराज्यको	-15464
▁Preferences	-15465
▁association	-15466
▁contributed	-15467
▁fertilizers	-15468
▁participate	-15469
▁unnecessary	-15470
▁क्युमुलेटिभ	-15471
▁क्षेत्रहरूमा	-15472
▁परिप्रेक्ष्यमा	-15473
IX	-15474
TY	-15475
औं	-15476
ूँ	-15477
has	-15478
रिए	-15479
लाम	-15480
स्न	-15481
▁55	-15482
▁73	-15483
▁Av	-15484
▁KS	-15485
▁Qt	-15486
▁नद	-15487
juta	-15488
live	-15489
mati	-15490
salm	-15491
नुहो	-15492
पीएन	-15493
र्ाा	-15494
▁Ber	-15495
▁PDF	-15496
▁Sea	-15497
▁Sin	-15498
▁opt	-15499
▁psy	-15500
▁tor	-15501
▁चीन	-15502
▁टाढ	-15503
▁बां	-15504
▁शुभ	-15505
▁सदर	-15506
▁हरि	-15507
alled	-15508
clock	-15509
organ	-15510
ruary	-15511
zilla	-15512
पुरमा	-15513
मानिस	-15514
मेण्ट	-15515
वर्ती	-15516
▁2004	-15517
▁Help	-15518
▁Know	-15519
▁bold	-15520
▁html	-15521
▁semi	-15522
▁अद्व	-15523
▁गुणन	-15524
▁गौरव	-15525
▁घट्न	-15526
▁छोडी	-15527
▁जङ्ध	-15528
▁जबकि	-15529
▁टुप्	-15530
▁ट्यु	-15531
▁दबाब	-15532
▁नराख	-15533
▁भएकी	-15534
[...]
